{
  "version": "1.0",
  "truncation": null,
  "padding": null,
  "added_tokens": [
    {
      "id": 0,
      "content": "[PAD]",
      "single_word": false,
      "lstrip": false,
      "rstrip": false,
      "normalized": false,
      "special": true
    },
    {
      "id": 1,
      "content": "[START]",
      "single_word": false,
      "lstrip": false,
      "rstrip": false,
      "normalized": false,
      "special": true
    },
    {
      "id": 2,
      "content": "[END]",
      "single_word": false,
      "lstrip": false,
      "rstrip": false,
      "normalized": false,
      "special": true
    }
  ],
  "normalizer": null,
  "pre_tokenizer": {
    "type": "ByteLevel",
    "add_prefix_space": false,
    "trim_offsets": true,
    "use_regex": true
  },
  "post_processor": {
    "type": "TemplateProcessing",
    "single": [
      {
        "SpecialToken": {
          "id": "[START]",
          "type_id": 0
        }
      },
      {
        "Sequence": {
          "id": "A",
          "type_id": 0
        }
      },
      {
        "SpecialToken": {
          "id": "[END]",
          "type_id": 0
        }
      }
    ],
    "pair": [
      {
        "Sequence": {
          "id": "A",
          "type_id": 0
        }
      },
      {
        "Sequence": {
          "id": "B",
          "type_id": 1
        }
      }
    ],
    "special_tokens": {
      "[END]": {
        "id": "[END]",
        "ids": [
          2
        ],
        "tokens": [
          "[END]"
        ]
      },
      "[START]": {
        "id": "[START]",
        "ids": [
          1
        ],
        "tokens": [
          "[START]"
        ]
      }
    }
  },
  "decoder": {
    "type": "ByteLevel",
    "add_prefix_space": true,
    "trim_offsets": true,
    "use_regex": true
  },
  "model": {
    "type": "BPE",
    "dropout": null,
    "unk_token": null,
    "continuing_subword_prefix": null,
    "end_of_word_suffix": null,
    "fuse_unk": false,
    "byte_fallback": false,
    "vocab": {
      "[PAD]": 0,
      "[START]": 1,
      "[END]": 2,
      "!": 3,
      "\"": 4,
      "#": 5,
      "$": 6,
      "%": 7,
      "&": 8,
      "'": 9,
      "(": 10,
      ")": 11,
      "*": 12,
      "+": 13,
      ",": 14,
      "-": 15,
      ".": 16,
      "/": 17,
      "0": 18,
      "1": 19,
      "2": 20,
      "3": 21,
      "4": 22,
      "5": 23,
      "6": 24,
      "7": 25,
      "8": 26,
      "9": 27,
      ":": 28,
      ";": 29,
      "<": 30,
      "=": 31,
      ">": 32,
      "?": 33,
      "@": 34,
      "A": 35,
      "B": 36,
      "C": 37,
      "D": 38,
      "E": 39,
      "F": 40,
      "G": 41,
      "H": 42,
      "I": 43,
      "J": 44,
      "K": 45,
      "L": 46,
      "M": 47,
      "N": 48,
      "O": 49,
      "P": 50,
      "Q": 51,
      "R": 52,
      "S": 53,
      "T": 54,
      "U": 55,
      "V": 56,
      "W": 57,
      "X": 58,
      "Y": 59,
      "Z": 60,
      "[": 61,
      "\\": 62,
      "]": 63,
      "^": 64,
      "_": 65,
      "`": 66,
      "a": 67,
      "b": 68,
      "c": 69,
      "d": 70,
      "e": 71,
      "f": 72,
      "g": 73,
      "h": 74,
      "i": 75,
      "j": 76,
      "k": 77,
      "l": 78,
      "m": 79,
      "n": 80,
      "o": 81,
      "p": 82,
      "q": 83,
      "r": 84,
      "s": 85,
      "t": 86,
      "u": 87,
      "v": 88,
      "w": 89,
      "x": 90,
      "y": 91,
      "z": 92,
      "{": 93,
      "|": 94,
      "}": 95,
      "~": 96,
      "¡": 97,
      "¢": 98,
      "£": 99,
      "¤": 100,
      "¥": 101,
      "¦": 102,
      "§": 103,
      "¨": 104,
      "©": 105,
      "ª": 106,
      "«": 107,
      "¬": 108,
      "®": 109,
      "¯": 110,
      "°": 111,
      "±": 112,
      "²": 113,
      "³": 114,
      "´": 115,
      "µ": 116,
      "¶": 117,
      "·": 118,
      "¸": 119,
      "¹": 120,
      "º": 121,
      "»": 122,
      "¼": 123,
      "½": 124,
      "¾": 125,
      "¿": 126,
      "À": 127,
      "Á": 128,
      "Â": 129,
      "Ã": 130,
      "Ä": 131,
      "Å": 132,
      "Æ": 133,
      "Ç": 134,
      "È": 135,
      "É": 136,
      "Ê": 137,
      "Ë": 138,
      "Ì": 139,
      "Í": 140,
      "Î": 141,
      "Ï": 142,
      "Ð": 143,
      "Ñ": 144,
      "Ò": 145,
      "Ó": 146,
      "Ô": 147,
      "Õ": 148,
      "Ö": 149,
      "×": 150,
      "Ø": 151,
      "Ù": 152,
      "Ú": 153,
      "Û": 154,
      "Ü": 155,
      "Ý": 156,
      "Þ": 157,
      "ß": 158,
      "à": 159,
      "á": 160,
      "â": 161,
      "ã": 162,
      "ä": 163,
      "å": 164,
      "æ": 165,
      "ç": 166,
      "è": 167,
      "é": 168,
      "ê": 169,
      "ë": 170,
      "ì": 171,
      "í": 172,
      "î": 173,
      "ï": 174,
      "ð": 175,
      "ñ": 176,
      "ò": 177,
      "ó": 178,
      "ô": 179,
      "õ": 180,
      "ö": 181,
      "÷": 182,
      "ø": 183,
      "ù": 184,
      "ú": 185,
      "û": 186,
      "ü": 187,
      "ý": 188,
      "þ": 189,
      "ÿ": 190,
      "Ā": 191,
      "ā": 192,
      "Ă": 193,
      "ă": 194,
      "Ą": 195,
      "ą": 196,
      "Ć": 197,
      "ć": 198,
      "Ĉ": 199,
      "ĉ": 200,
      "Ċ": 201,
      "ċ": 202,
      "Č": 203,
      "č": 204,
      "Ď": 205,
      "ď": 206,
      "Đ": 207,
      "đ": 208,
      "Ē": 209,
      "ē": 210,
      "Ĕ": 211,
      "ĕ": 212,
      "Ė": 213,
      "ė": 214,
      "Ę": 215,
      "ę": 216,
      "Ě": 217,
      "ě": 218,
      "Ĝ": 219,
      "ĝ": 220,
      "Ğ": 221,
      "ğ": 222,
      "Ġ": 223,
      "ġ": 224,
      "Ģ": 225,
      "ģ": 226,
      "Ĥ": 227,
      "ĥ": 228,
      "Ħ": 229,
      "ħ": 230,
      "Ĩ": 231,
      "ĩ": 232,
      "Ī": 233,
      "ī": 234,
      "Ĭ": 235,
      "ĭ": 236,
      "Į": 237,
      "į": 238,
      "İ": 239,
      "ı": 240,
      "Ĳ": 241,
      "ĳ": 242,
      "Ĵ": 243,
      "ĵ": 244,
      "Ķ": 245,
      "ķ": 246,
      "ĸ": 247,
      "Ĺ": 248,
      "ĺ": 249,
      "Ļ": 250,
      "ļ": 251,
      "Ľ": 252,
      "ľ": 253,
      "Ŀ": 254,
      "ŀ": 255,
      "Ł": 256,
      "ł": 257,
      "Ń": 258,
      "Ġt": 259,
      "Ġth": 260,
      "Ġa": 261,
      "in": 262,
      "Ġw": 263,
      "Ġ,": 264,
      "Ġthe": 265,
      "re": 266,
      "Ġ.": 267,
      "Ġo": 268,
      "Ġs": 269,
      "Ġi": 270,
      "at": 271,
      "er": 272,
      "nd": 273,
      "ou": 274,
      "Ġc": 275,
      "Ġb": 276,
      "Ġm": 277,
      "Ġh": 278,
      "ing": 279,
      "en": 280,
      "Ġto": 281,
      "Ġp": 282,
      "on": 283,
      "Ġf": 284,
      "Ġd": 285,
      "es": 286,
      "an": 287,
      "or": 288,
      "Ġof": 289,
      "al": 290,
      "Ġin": 291,
      "Ġl": 292,
      "th": 293,
      "Ġand": 294,
      "ed": 295,
      "is": 296,
      "Ġn": 297,
      "Ġ'": 298,
      "ar": 299,
      "Ġy": 300,
      "Ġthat": 301,
      "Ġg": 302,
      "om": 303,
      "it": 304,
      "as": 305,
      "le": 306,
      "ic": 307,
      "Ġwe": 308,
      "ve": 309,
      "Ġyou": 310,
      "Ġwh": 311,
      "Ġe": 312,
      "us": 313,
      "ll": 314,
      "ly": 315,
      "Ġbe": 316,
      "ow": 317,
      "Ġis": 318,
      "Ġit": 319,
      "ion": 320,
      "ut": 321,
      "and": 322,
      "Ġre": 323,
      "ent": 324,
      "ct": 325,
      "Ġon": 326,
      "Ġha": 327,
      "ld": 328,
      "ver": 329,
      "ot": 330,
      "ay": 331,
      "se": 332,
      "gh": 333,
      "Ġ-": 334,
      "et": 335,
      "Ġthis": 336,
      "Ġst": 337,
      "st": 338,
      "id": 339,
      "ur": 340,
      "ro": 341,
      "ch": 342,
      "Ġdo": 343,
      "Ġwi": 344,
      "ke": 345,
      "ere": 346,
      "Ġfor": 347,
      "Ġ\"": 348,
      "ce": 349,
      "Ġli": 350,
      "Ġwas": 351,
      "ir": 352,
      "ght": 353,
      "op": 354,
      "ra": 355,
      "rb": 356,
      "im": 357,
      "Ġan": 358,
      "Ġare": 359,
      "Ġu": 360,
      "so": 361,
      "oo": 362,
      "Ġhave": 363,
      "ally": 364,
      "ome": 365,
      "Ġwith": 366,
      "Ġk": 367,
      "am": 368,
      "Ġthey": 369,
      "Ġmo": 370,
      "ri": 371,
      "Ġse": 372,
      "Ġab": 373,
      "ation": 374,
      "Ġso": 375,
      "Ġas": 376,
      "Ġwor": 377,
      "Ġcan": 378,
      "Ġwhat": 379,
      "out": 380,
      "ge": 381,
      "Ġme": 382,
      "Ġne": 383,
      "Ġhe": 384,
      "Ġj": 385,
      "use": 386,
      "Ġgo": 387,
      "ad": 388,
      "Ġsh": 389,
      "Ġch": 390,
      "very": 391,
      "Ġ?": 392,
      "'t": 393,
      "pp": 394,
      "ould": 395,
      "ol": 396,
      "ers": 397,
      "Ġat": 398,
      "Ġabout": 399,
      "Ġmy": 400,
      "Ġnot": 401,
      "ant": 402,
      "Ġall": 403,
      "now": 404,
      "ul": 405,
      "ust": 406,
      "il": 407,
      "Ġex": 408,
      "Ġde": 409,
      "ter": 410,
      "Ġcom": 411,
      "Ġpro": 412,
      "ther": 413,
      "ause": 414,
      "Ġpe": 415,
      "we": 416,
      "Ġfr": 417,
      "ear": 418,
      "if": 419,
      "Ġthere": 420,
      "Ġsome": 421,
      "the": 422,
      "ess": 423,
      "ople": 424,
      "art": 425,
      "Ġor": 426,
      "Ġcon": 427,
      "Ġone": 428,
      "Ġlike": 429,
      "Ġpeople": 430,
      "est": 431,
      "Ġv": 432,
      "ate": 433,
      "um": 434,
      "Ġma": 435,
      "ist": 436,
      "ity": 437,
      "Ġour": 438,
      "ck": 439,
      "nt": 440,
      "ive": 441,
      "ure": 442,
      "Ġfrom": 443,
      "Ġal": 444,
      "Ġus": 445,
      "lrb": 446,
      "rrb": 447,
      "ble": 448,
      "ind": 449,
      "ig": 450,
      "Ġbut": 451,
      "ect": 452,
      "ies": 453,
      "Ġbec": 454,
      "Ġte": 455,
      "all": 456,
      "rou": 457,
      "qu": 458,
      "Ġout": 459,
      "Ġjust": 460,
      "king": 461,
      "Ġint": 462,
      "un": 463,
      "Ġthem": 464,
      "Ġsp": 465,
      "Ġthese": 466,
      "Ġ:": 467,
      "one": 468,
      "but": 469,
      "Ġwho": 470,
      "Ġknow": 471,
      "Ġif": 472,
      "Ġsee": 473,
      "Ġthing": 474,
      "Ġr": 475,
      "Ġla": 476,
      "os": 477,
      "ort": 478,
      "ci": 479,
      "Ġvery": 480,
      "Ġup": 481,
      "ill": 482,
      "Ġthin": 483,
      "Ġact": 484,
      "Ġget": 485,
      "Ġpl": 486,
      "Ġwhen": 487,
      "thing": 488,
      "Ġby": 489,
      "ook": 490,
      "Ġmore": 491,
      "Ġhad": 492,
      "ain": 493,
      "Ġwere": 494,
      "Ġtheir": 495,
      "our": 496,
      "Ġyour": 497,
      "ich": 498,
      "ment": 499,
      "Ġ1": 500,
      "Ġim": 501,
      "Ġbecause": 502,
      "Ġsa": 503,
      "Ġtim": 504,
      "Ġtr": 505,
      "Ġhow": 506,
      "Ġgoing": 507,
      "Ġsu": 508,
      "el": 509,
      "Ġwould": 510,
      "ap": 511,
      "Ġyear": 512,
      "em": 513,
      "ine": 514,
      "ie": 515,
      "are": 516,
      "Ġcomp": 517,
      "iv": 518,
      "Ġworld": 519,
      "Ġthink": 520,
      "og": 521,
      "Ġno": 522,
      "Ġen": 523,
      "ame": 524,
      "Ġfa": 525,
      "Ġwant": 526,
      "ast": 527,
      "ous": 528,
      "Ġta": 529,
      "Ġreally": 530,
      "iz": 531,
      "00": 532,
      "Ġwhich": 533,
      "reat": 534,
      "Ġle": 535,
      "ually": 536,
      "wh": 537,
      "ught": 538,
      "Ġway": 539,
      "ard": 540,
      "ans": 541,
      "ight": 542,
      "ag": 543,
      "ood": 544,
      "Ġevery": 545,
      "ide": 546,
      "Ġhas": 547,
      "Ġtime": 548,
      "Ġun": 549,
      "ack": 550,
      "od": 551,
      "ore": 552,
      "Ġhere": 553,
      "Ġexp": 554,
      "ose": 555,
      "Ġman": 556,
      "ughter": 557,
      "Ġapp": 558,
      "Ġthen": 559,
      "Ġthan": 560,
      "ud": 561,
      "ions": 562,
      "Ġqu": 563,
      "Ġper": 564,
      "Ġcould": 565,
      "ence": 566,
      "Ġfe": 567,
      "age": 568,
      "Ġinto": 569,
      "Ġactually": 570,
      "Ġev": 571,
      "Ġlaughter": 572,
      "Ġnow": 573,
      "ild": 574,
      "Ġag": 575,
      "Ġwhere": 576,
      "Ġwill": 577,
      "Ġwork": 578,
      "Ġother": 579,
      "itt": 580,
      "Ġdid": 581,
      "res": 582,
      "Ġlook": 583,
      "ong": 584,
      "Ġam": 585,
      "Ġsay": 586,
      "iff": 587,
      "fe": 588,
      "Ġri": 589,
      "Ġdiff": 590,
      "Ġthings": 591,
      "ach": 592,
      "Ġyears": 593,
      "Ġnew": 594,
      "ical": 595,
      "Ġhapp": 596,
      "ff": 597,
      "Ġmake": 598,
      "ab": 599,
      "this": 600,
      "nder": 601,
      "Ġtw": 602,
      "Ġdis": 603,
      "Ġany": 604,
      "pt": 605,
      "Ġar": 606,
      "Ġbeen": 607,
      "Ġco": 608,
      "Ġneed": 609,
      "Ġcl": 610,
      "Ġstart": 611,
      "ath": 612,
      "de": 613,
      "Ġover": 614,
      "ry": 615,
      "Ġsomething": 616,
      "Ġsaid": 617,
      "you": 618,
      "they": 619,
      "ice": 620,
      "Ġ2": 621,
      "Ġpart": 622,
      "ory": 623,
      "irst": 624,
      "for": 625,
      "Ġright": 626,
      "ang": 627,
      "Ġlo": 628,
      "Ġdiffere": 629,
      "red": 630,
      "be": 631,
      "ree": 632,
      "round": 633,
      "sel": 634,
      "ite": 635,
      "ound": 636,
      "he": 637,
      "Ġimp": 638,
      "ves": 639,
      "ount": 640,
      "Ġpo": 641,
      "ass": 642,
      "ace": 643,
      "Ġtwo": 644,
      "Ġro": 645,
      "Ġalso": 646,
      "Ġbu": 647,
      "ens": 648,
      "Ġmu": 649,
      "ip": 650,
      "ult": 651,
      "Ġkind": 652,
      "Ġcall": 653,
      "Ġfirst": 654,
      "Ġpr": 655,
      "own": 656,
      "Ġshe": 657,
      "ia": 658,
      "Ġspe": 659,
      "Ġac": 660,
      "Ġmuch": 661,
      "ving": 662,
      "Ġthose": 663,
      "ittle": 664,
      "Ġback": 665,
      "Ġgot": 666,
      "Ġappl": 667,
      "ber": 668,
      "olog": 669,
      "Ġlittle": 670,
      "Ġlife": 671,
      "Ġday": 672,
      "ple": 673,
      "act": 674,
      "Ġmost": 675,
      "ations": 676,
      "Ġbet": 677,
      "ater": 678,
      "Ġcont": 679,
      "Ġph": 680,
      "Ġad": 681,
      "Ġlot": 682,
      "ated": 683,
      "Ġtal": 684,
      "Ġeven": 685,
      "ces": 686,
      "Ġaf": 687,
      "ish": 688,
      "vel": 689,
      "Ġhis": 690,
      "Ġsy": 691,
      "cent": 692,
      "ue": 693,
      "Ġbl": 694,
      "ign": 695,
      "Ġonly": 696,
      "ru": 697,
      "Ġher": 698,
      "way": 699,
      "able": 700,
      "ms": 701,
      "Ġhum": 702,
      "Ġapplause": 703,
      "Ġdifferent": 704,
      "rough": 705,
      "Ġres": 706,
      "Ġtra": 707,
      "ody": 708,
      "Ġunder": 709,
      "co": 710,
      "Ġtake": 711,
      "ict": 712,
      "ick": 713,
      "Ġsc": 714,
      "Ġem": 715,
      "Ġmany": 716,
      "Ġaround": 717,
      "Ġwell": 718,
      "Ġbo": 719,
      "Ġreal": 720,
      "Ġgood": 721,
      "Ġthrough": 722,
      "ep": 723,
      "Ġdes": 724,
      "Ġgr": 725,
      "Ġcomm": 726,
      "ase": 727,
      "end": 728,
      "int": 729,
      "cess": 730,
      "ning": 731,
      "Ġdoes": 732,
      "Ġwom": 733,
      "day": 734,
      "ents": 735,
      "Ġbeing": 736,
      "Ġide": 737,
      "Ġtell": 738,
      "Ġpre": 739,
      "ject": 740,
      "ance": 741,
      "ph": 742,
      "pl": 743,
      "ire": 744,
      "Ġput": 745,
      "Ġra": 746,
      "ors": 747,
      "Ġinter": 748,
      "form": 749,
      "Ġdown": 750,
      "ade": 751,
      "Ġca": 752,
      "Ġwr": 753,
      "Ġshow": 754,
      "wn": 755,
      "Ġoff": 756,
      "ell": 757,
      "als": 758,
      "ob": 759,
      "ark": 760,
      "that": 761,
      "Ġsame": 762,
      "Ġlear": 763,
      "Ġmay": 764,
      "xt": 765,
      "Ġinc": 766,
      "ange": 767,
      "igh": 768,
      "Ġcount": 769,
      "Ġchild": 770,
      "Ġtry": 771,
      "Ġpers": 772,
      "Ġuse": 773,
      "Ġtoo": 774,
      "ys": 775,
      "Ġbr": 776,
      "du": 777,
      "ren": 778,
      "ary": 779,
      "Ġhappen": 780,
      "Ġproble": 781,
      "ress": 782,
      "ved": 783,
      "urn": 784,
      "ak": 785,
      "mo": 786,
      "Ġfact": 787,
      "Ġhuman": 788,
      "Ġthou": 789,
      "Ġind": 790,
      "Ġcome": 791,
      "ool": 792,
      "Ġfl": 793,
      "Ġstud": 794,
      "chn": 795,
      "Ġbra": 796,
      "Ġgreat": 797,
      "stem": 798,
      "Ġbig": 799,
      "Ġfind": 800,
      "self": 801,
      "ting": 802,
      "ile": 803,
      "ful": 804,
      "ars": 805,
      "per": 806,
      "Ġwhy": 807,
      "Ġdec": 808,
      "Ġtechn": 809,
      "Ġlet": 810,
      "lect": 811,
      "Ġcol": 812,
      "Ġexper": 813,
      "Ġgu": 814,
      "ible": 815,
      "ities": 816,
      "there": 817,
      "bl": 818,
      "con": 819,
      "what": 820,
      "Ġthree": 821,
      "vers": 822,
      "Ġsoci": 823,
      "Ġsm": 824,
      "Ġown": 825,
      "Ġdoing": 826,
      "Ġsur": 827,
      "ics": 828,
      "Ġgen": 829,
      "Ġagain": 830,
      "Ġsystem": 831,
      "ically": 832,
      "fore": 833,
      "Ġtoday": 834,
      "Ġmade": 835,
      "let": 836,
      "ne": 837,
      "ual": 838,
      "ating": 839,
      "Ġtalk": 840,
      "Ġfo": 841,
      "Ġhel": 842,
      "ord": 843,
      "Ġquest": 844,
      "ank": 845,
      "ition": 846,
      "Ġbel": 847,
      "Ġafter": 848,
      "ious": 849,
      "Ġcalled": 850,
      "ower": 851,
      "Ġpu": 852,
      "Ġinv": 853,
      "Ġsim": 854,
      "ons": 855,
      "Ġbuild": 856,
      "Ġsch": 857,
      "Ġpercent": 858,
      "Ġfeel": 859,
      "Ġtrans": 860,
      "body": 861,
      "ial": 862,
      "ac": 863,
      "ology": 864,
      "Ġperson": 865,
      "Ġob": 866,
      "Ġ;": 867,
      "Ġpol": 868,
      "Ġend": 869,
      "ates": 870,
      "Ġinst": 871,
      "Ġask": 872,
      "Ġrem": 873,
      "Ġins": 874,
      "Ġcour": 875,
      "illion": 876,
      "Ġpos": 877,
      "Ġlong": 878,
      "Ġhigh": 879,
      "Ġcreat": 880,
      "other": 881,
      "Ġstarted": 882,
      "ib": 883,
      "Ġplay": 884,
      "Ġimport": 885,
      "Ġhelp": 886,
      "Ġmus": 887,
      "Ġunderst": 888,
      "Ġrel": 889,
      "Ġwomen": 890,
      "Ġshould": 891,
      "Ġbrain": 892,
      "ty": 893,
      "Ġidea": 894,
      "ope": 895,
      "ily": 896,
      "Ġexam": 897,
      "Ġhim": 898,
      "Ġlearn": 899,
      "ize": 900,
      "Ġchange": 901,
      "Ġear": 902,
      "Ġturn": 903,
      "pe": 904,
      "gether": 905,
      "ands": 906,
      "Ġstory": 907,
      "Ġfound": 908,
      "ft": 909,
      "Ġimportant": 910,
      "Ġthought": 911,
      "ise": 912,
      "Ġart": 913,
      "Ġnever": 914,
      "Ġsci": 915,
      "Ġgive": 916,
      "Ġfam": 917,
      "Ġtogether": 918,
      "Ġgl": 919,
      "Ġbefore": 920,
      "Ġmight": 921,
      "Ġmon": 922,
      "Ġbetter": 923,
      "erest": 924,
      "Ġschool": 925,
      "Ġcourse": 926,
      "ular": 927,
      "Ġimag": 928,
      "000": 929,
      "Ġwent": 930,
      "Ġlast": 931,
      "Ġcr": 932,
      "Ġcar": 933,
      "well": 934,
      "ian": 935,
      "Ġbit": 936,
      "Ġstill": 937,
      "Ġproblem": 938,
      "Ġbelie": 939,
      "Ġmean": 940,
      "Ġeach": 941,
      "kes": 942,
      "Ġke": 943,
      "ric": 944,
      "Ġhu": 945,
      "Ġunderstand": 946,
      "ks": 947,
      "Ġcommun": 948,
      "Ġbas": 949,
      "gan": 950,
      "Ġ3": 951,
      "ists": 952,
      "ather": 953,
      "Ġits": 954,
      "Ġinterest": 955,
      "Ġtri": 956,
      "les": 957,
      "Ġanother": 958,
      "Ġfew": 959,
      "Ġnum": 960,
      "ility": 961,
      "Ġword": 962,
      "ese": 963,
      "ited": 964,
      "Ġmom": 965,
      "ction": 966,
      "ced": 967,
      "Ġmed": 968,
      "Ġdat": 969,
      "old": 970,
      "Ġent": 971,
      "Ġread": 972,
      "Ġ19": 973,
      "arch": 974,
      "Ġsl": 975,
      "ave": 976,
      "eric": 977,
      "Ġnext": 978,
      "Ġpoint": 979,
      "Ġold": 980,
      "ls": 981,
      "Ġkid": 982,
      "Ġpower": 983,
      "Ġable": 984,
      "Ġcons": 985,
      "ween": 986,
      "Ġeng": 987,
      "velop": 988,
      "Ġfu": 989,
      "av": 990,
      "Ġlove": 991,
      "Ġdesign": 992,
      "ense": 993,
      "cond": 994,
      "Ġbetween": 995,
      "Ġchildren": 996,
      "ness": 997,
      "Ġdevelop": 998,
      "Ġcent": 999,
      "iness": 1000,
      "Ġquestion": 1001,
      "Ġago": 1002,
      "ger": 1003,
      "Ġed": 1004,
      "atch": 1005,
      "Ġbook": 1006,
      "Ġexample": 1007,
      "Ġcame": 1008,
      "ix": 1009,
      "Ġever": 1010,
      "ience": 1011,
      "Ġop": 1012,
      "ution": 1013,
      "Ġser": 1014,
      "Ġdata": 1015,
      "ros": 1016,
      "Ġatt": 1017,
      "no": 1018,
      "Ġpartic": 1019,
      "Ġfour": 1020,
      "Ġcell": 1021,
      "Ġ20": 1022,
      "cy": 1023,
      "Ġmin": 1024,
      "Ġplace": 1025,
      "gin": 1026,
      "az": 1027,
      "Ġlive": 1028,
      "ven": 1029,
      "Ġfin": 1030,
      "Ġfri": 1031,
      "Ġuni": 1032,
      "Ġpat": 1033,
      "Ġel": 1034,
      "ized": 1035,
      "Ġeff": 1036,
      "Ġter": 1037,
      "oney": 1038,
      "Ġtechnology": 1039,
      "ward": 1040,
      "Ġbeh": 1041,
      "selves": 1042,
      "read": 1043,
      "Ġinform": 1044,
      "ooking": 1045,
      "Ġused": 1046,
      "Ġstr": 1047,
      "Ġmove": 1048,
      "Ġext": 1049,
      "alth": 1050,
      "Ġmusic": 1051,
      "Ġsol": 1052,
      "Ġcre": 1053,
      "Ġwater": 1054,
      "Ġwanted": 1055,
      "uc": 1056,
      "ough": 1057,
      "Ġcare": 1058,
      "ures": 1059,
      "ways": 1060,
      "Ġyoun": 1061,
      "Ġdi": 1062,
      "ered": 1063,
      "Ġameric": 1064,
      "Ġprodu": 1065,
      "ely": 1066,
      "cept": 1067,
      "Ġmod": 1068,
      "Ġhome": 1069,
      "Ġ10": 1070,
      "Ġgrow": 1071,
      "hip": 1072,
      "Ġdone": 1073,
      "ings": 1074,
      "ram": 1075,
      "ert": 1076,
      "ism": 1077,
      "Ġproject": 1078,
      "iss": 1079,
      "li": 1080,
      "ative": 1081,
      "Ġcap": 1082,
      "Ġwo": 1083,
      "Ġbus": 1084,
      "Ġcountry": 1085,
      "Ġcomput": 1086,
      "Ġsmall": 1087,
      "Ġpubl": 1088,
      "when": 1089,
      "ments": 1090,
      "Ġtrying": 1091,
      "ail": 1092,
      "Ġinformation": 1093,
      "thank": 1094,
      "conom": 1095,
      "ps": 1096,
      "Ġrec": 1097,
      "Ġfriend": 1098,
      "Ġless": 1099,
      "Ġmen": 1100,
      "Ġreg": 1101,
      "Ġsort": 1102,
      "Ġposs": 1103,
      "erg": 1104,
      "Ġrep": 1105,
      "vern": 1106,
      "Ġgener": 1107,
      "Ġchang": 1108,
      "Ġvis": 1109,
      "ale": 1110,
      "Ġteach": 1111,
      "Ġplan": 1112,
      "Ġsecond": 1113,
      "Ġsupp": 1114,
      "Ġgiv": 1115,
      "Ġeconom": 1116,
      "Ġmoney": 1117,
      "raph": 1118,
      "Ġworking": 1119,
      "Ġmind": 1120,
      "Ġlight": 1121,
      "Ġcor": 1122,
      "Ġstu": 1123,
      "Ġbelieve": 1124,
      "Ġsk": 1125,
      "bec": 1126,
      "Ġhard": 1127,
      "Ġreas": 1128,
      "Ġfar": 1129,
      "Ġlooking": 1130,
      "ific": 1131,
      "Ġyoung": 1132,
      "Ġmet": 1133,
      "ork": 1134,
      "ets": 1135,
      "Ġeverything": 1136,
      "Ġrun": 1137,
      "Ġalways": 1138,
      "Ġresp": 1139,
      "Ġmeans": 1140,
      "Ġprot": 1141,
      "Ġwal": 1142,
      "Ġcompan": 1143,
      "Ġacc": 1144,
      "nect": 1145,
      "Ġgovern": 1146,
      "Ġcou": 1147,
      "because": 1148,
      "Ġ5": 1149,
      "Ġlead": 1150,
      "Ġopen": 1151,
      "ross": 1152,
      "Ġlar": 1153,
      "Ġbecome": 1154,
      "Ġmillion": 1155,
      "Ġnor": 1156,
      "Ġgir": 1157,
      "Ġcity": 1158,
      "ries": 1159,
      "Ġexpl": 1160,
      "Ġwhole": 1161,
      "Ġmaybe": 1162,
      "how": 1163,
      "ird": 1164,
      "Ġsub": 1165,
      "Ġcreate": 1166,
      "ract": 1167,
      "Ġfut": 1168,
      "Ġsocial": 1169,
      "ories": 1170,
      "Ġhand": 1171,
      "Ġlives": 1172,
      "Ġintern": 1173,
      "Ġvide": 1174,
      "most": 1175,
      "Ġaway": 1176,
      "Ġprocess": 1177,
      "Ġthinking": 1178,
      "Ġtimes": 1179,
      "ably": 1180,
      "man": 1181,
      "Ġpres": 1182,
      "Ġusing": 1183,
      "to": 1184,
      "Ġinf": 1185,
      "my": 1186,
      "Ġspace": 1187,
      "Ġsound": 1188,
      "gg": 1189,
      "lf": 1190,
      "Ġbest": 1191,
      "Ġfuture": 1192,
      "ational": 1193,
      "Ġbi": 1194,
      "ten": 1195,
      "its": 1196,
      "Ġmat": 1197,
      "ural": 1198,
      "ah": 1199,
      "ines": 1200,
      "ues": 1201,
      "Ġjo": 1202,
      "Ġnumber": 1203,
      "Ġthank": 1204,
      "kay": 1205,
      "Ġpict": 1206,
      "omet": 1207,
      "Ġfive": 1208,
      "Ġwar": 1209,
      "Ġnat": 1210,
      "ital": 1211,
      "tern": 1212,
      "Ġroom": 1213,
      "Ġhealth": 1214,
      "Ġorgan": 1215,
      "Ġmonth": 1216,
      "Ġpolit": 1217,
      "Ġform": 1218,
      "Ġhead": 1219,
      "cial": 1220,
      "angu": 1221,
      "cer": 1222,
      "Ġkids": 1223,
      "aut": 1224,
      "Ġfun": 1225,
      "Ġface": 1226,
      "Ġset": 1227,
      "Ġconf": 1228,
      "Ġwee": 1229,
      "Ġtook": 1230,
      "Ġgrou": 1231,
      "ality": 1232,
      "Ġjob": 1233,
      "nce": 1234,
      "Ġsing": 1235,
      "Ġelse": 1236,
      "alf": 1237,
      "Ġlangu": 1238,
      "iting": 1239,
      "led": 1240,
      "ret": 1241,
      "iew": 1242,
      "here": 1243,
      "Ġconnect": 1244,
      "Ġmark": 1245,
      "Ġ4": 1246,
      "ices": 1247,
      "Ġdri": 1248,
      "ention": 1249,
      "Ġwithout": 1250,
      "Ġfamily": 1251,
      "Ġlist": 1252,
      "ote": 1253,
      "Ġside": 1254,
      "Ġgra": 1255,
      "Ġdoll": 1256,
      "Ġval": 1257,
      "where": 1258,
      "sw": 1259,
      "Ġsense": 1260,
      "ont": 1261,
      "Ġbeaut": 1262,
      "ety": 1263,
      "Ġmoment": 1264,
      "ouse": 1265,
      "ruct": 1266,
      "Ġpret": 1267,
      "Ġshare": 1268,
      "Ġbusiness": 1269,
      "Ġvideo": 1270,
      "Ġcam": 1271,
      "Ġcomes": 1272,
      "ember": 1273,
      "Ġwhe": 1274,
      "Ġeduc": 1275,
      "Ġasked": 1276,
      "uring": 1277,
      "Ġprog": 1278,
      "Ġgetting": 1279,
      "Ġleft": 1280,
      "Ġtalking": 1281,
      "cus": 1282,
      "ying": 1283,
      "Ġbody": 1284,
      "ograph": 1285,
      "Ġcult": 1286,
      "Ġanim": 1287,
      "Ġmaking": 1288,
      "Ġrese": 1289,
      "Ġinteresting": 1290,
      "Ġhappened": 1291,
      "Ġbegin": 1292,
      "ately": 1293,
      "Ġeffect": 1294,
      "Ġeas": 1295,
      "Ġtold": 1296,
      "ince": 1297,
      "Ġdep": 1298,
      "Ġprob": 1299,
      "Ġhour": 1300,
      "Ġphot": 1301,
      "Ġ!": 1302,
      "Ġpie": 1303,
      "Ġways": 1304,
      "ock": 1305,
      "Ġspec": 1306,
      "Ġphys": 1307,
      "Ġlater": 1308,
      "Ġelect": 1309,
      "Ġsw": 1310,
      "Ġhope": 1311,
      "ied": 1312,
      "Ġz": 1313,
      "Ġpain": 1314,
      "Ġliving": 1315,
      "Ġprof": 1316,
      "Ġsuch": 1317,
      "Ġamaz": 1318,
      "llow": 1319,
      "Ġmakes": 1320,
      "Ġquite": 1321,
      "Ġadd": 1322,
      "Ġpop": 1323,
      "Ġstre": 1324,
      "ner": 1325,
      "Ġcle": 1326,
      "Ġstop": 1327,
      "Ġallow": 1328,
      "Ġpublic": 1329,
      "Ġdist": 1330,
      "imes": 1331,
      "ization": 1332,
      "Ġcontro": 1333,
      "Ġexperience": 1334,
      "these": 1335,
      "less": 1336,
      "Ġcur": 1337,
      "Ġhalf": 1338,
      "Ġself": 1339,
      "Ġenough": 1340,
      "Ġglob": 1341,
      "Ġchin": 1342,
      "vir": 1343,
      "Ġchar": 1344,
      "Ġord": 1345,
      "Ġresearch": 1346,
      "Ġansw": 1347,
      "oc": 1348,
      "Ġty": 1349,
      "ime": 1350,
      "arent": 1351,
      "Ġbro": 1352,
      "Ġpretty": 1353,
      "Ġopp": 1354,
      "Ġhist": 1355,
      "aces": 1356,
      "oice": 1357,
      "Ġey": 1358,
      "ertain": 1359,
      "thers": 1360,
      "ever": 1361,
      "Ġhaving": 1362,
      "Ġsign": 1363,
      "Ġhear": 1364,
      "Ġcountries": 1365,
      "Ġbring": 1366,
      "Ġkeep": 1367,
      "she": 1368,
      "orn": 1369,
      "Ġcomplet": 1370,
      "ided": 1371,
      "Ġsaw": 1372,
      "Ġinside": 1373,
      "Ġparticular": 1374,
      "Ġreason": 1375,
      "Ġpass": 1376,
      "Ġmach": 1377,
      "Ġbuilding": 1378,
      "Ġtreat": 1379,
      "Ġmyself": 1380,
      "Ġage": 1381,
      "Ġprobably": 1382,
      "Ġcase": 1383,
      "Ġkne": 1384,
      "viron": 1385,
      "ortun": 1386,
      "Ġlanguage": 1387,
      "Ġenviron": 1388,
      "Ġscience": 1389,
      "idd": 1390,
      "Ġbad": 1391,
      "allen": 1392,
      "Ġscient": 1393,
      "Ġdise": 1394,
      "Ġ200": 1395,
      "lly": 1396,
      "Ġstand": 1397,
      "Ġsimple": 1398,
      "Ġwa": 1399,
      "Ġanything": 1400,
      "Ġseen": 1401,
      "Ġhappens": 1402,
      "Ġglobal": 1403,
      "Ġmor": 1404,
      "Ġdollars": 1405,
      "row": 1406,
      "Ġref": 1407,
      "Ġdays": 1408,
      "Ġcomputer": 1409,
      "Ġstuff": 1410,
      "ink": 1411,
      "Ġdet": 1412,
      "Ġstate": 1413,
      "Ġwords": 1414,
      "Ġlab": 1415,
      "Ġwoman": 1416,
      "Ġcells": 1417,
      "line": 1418,
      "Ġsays": 1419,
      "ead": 1420,
      "Ġmar": 1421,
      "Ġdef": 1422,
      "Ġsit": 1423,
      "Ġclass": 1424,
      "ith": 1425,
      "Ġthous": 1426,
      "Ġwatch": 1427,
      "reen": 1428,
      "Ġwhile": 1429,
      "Ġstates": 1430,
      "Ġsec": 1431,
      "rs": 1432,
      "Ġtop": 1433,
      "Ġacross": 1434,
      "ins": 1435,
      "Ġsix": 1436,
      "med": 1437,
      "lex": 1438,
      "Ġbre": 1439,
      "Ġremember": 1440,
      "Ġwrong": 1441,
      "Ġchallen": 1442,
      "Ġsomeone": 1443,
      "Ġalmost": 1444,
      "Ġfriends": 1445,
      "gs": 1446,
      "ined": 1447,
      "Ġloc": 1448,
      "Ġafric": 1449,
      "uth": 1450,
      "Ġkill": 1451,
      "aps": 1452,
      "ready": 1453,
      "ond": 1454,
      "Ġair": 1455,
      "Ġenerg": 1456,
      "Ġgovernment": 1457,
      "verse": 1458,
      "ots": 1459,
      "Ġwhether": 1460,
      "Ġpar": 1461,
      "ivid": 1462,
      "do": 1463,
      "Ġpicture": 1464,
      "Ġbab": 1465,
      "Ġfood": 1466,
      "Ġnight": 1467,
      "Ġalready": 1468,
      "Ġfil": 1469,
      "iter": 1470,
      "ash": 1471,
      "Ġmodel": 1472,
      "cing": 1473,
      "Ġdra": 1474,
      "ases": 1475,
      "Ġaff": 1476,
      "ering": 1477,
      "Ġsuc": 1478,
      "Ġboth": 1479,
      "Ġobject": 1480,
      "ometimes": 1481,
      "Ġmonths": 1482,
      "Ġblack": 1483,
      "Ġimagine": 1484,
      "pect": 1485,
      "ury": 1486,
      "unch": 1487,
      "Ġwonder": 1488,
      "iol": 1489,
      "ken": 1490,
      "Ġrest": 1491,
      "Ġgoes": 1492,
      "ages": 1493,
      "Ġexact": 1494,
      "Ġlooked": 1495,
      "Ġsingle": 1496,
      "Ġnothing": 1497,
      "Ġwalk": 1498,
      "Ġaw": 1499,
      "Ġlaw": 1500,
      "Ġbeautif": 1501,
      "Ġexc": 1502,
      "ron": 1503,
      "Ġtest": 1504,
      "Ġmil": 1505,
      "Ġfig": 1506,
      "osed": 1507,
      "Ġcond": 1508,
      "Ġguy": 1509,
      "Ġminut": 1510,
      "Ġmem": 1511,
      "Ġdisco": 1512,
      "Ġproblems": 1513,
      "Ġyet": 1514,
      "ivity": 1515,
      "Ġenvironment": 1516,
      "Ġenergy": 1517,
      "ior": 1518,
      "itive": 1519,
      "olution": 1520,
      "Ġcoming": 1521,
      "ient": 1522,
      "Ġokay": 1523,
      "Ġequ": 1524,
      "air": 1525,
      "rem": 1526,
      "sol": 1527,
      "Ġcommunity": 1528,
      "Ġeducation": 1529,
      "ndred": 1530,
      "Ġpri": 1531,
      "Ġret": 1532,
      "pr": 1533,
      "Ġpossible": 1534,
      "Ġstudents": 1535,
      "Ġfollow": 1536,
      "Ġlisten": 1537,
      "Ġoften": 1538,
      "Ġheard": 1539,
      "ape": 1540,
      "Ġ6": 1541,
      "Ġamazing": 1542,
      "Ġfore": 1543,
      "Ġdev": 1544,
      "io": 1545,
      "Ġdru": 1546,
      "aper": 1547,
      "Ġadv": 1548,
      "Ġonce": 1549,
      "Ġnews": 1550,
      "br": 1551,
      "Ġdire": 1552,
      "Ġnet": 1553,
      "Ġunt": 1554,
      "Ġunited": 1555,
      "Ġlearned": 1556,
      "get": 1557,
      "Ġearth": 1558,
      "ental": 1559,
      "ott": 1560,
      "Ġche": 1561,
      "Ġmatter": 1562,
      "Ġbeautiful": 1563,
      "Ġpiece": 1564,
      "ier": 1565,
      "oy": 1566,
      "omes": 1567,
      "Ġass": 1568,
      "Ġhundred": 1569,
      "bs": 1570,
      "bers": 1571,
      "Ġsou": 1572,
      "Ġbillion": 1573,
      "Ġhouse": 1574,
      "Ġmother": 1575,
      "ants": 1576,
      "Ġcertain": 1577,
      "Ġwithin": 1578,
      "Ġideas": 1579,
      "Ġrelations": 1580,
      "Ġmic": 1581,
      "Ġconst": 1582,
      "Ġresult": 1583,
      "Ġdig": 1584,
      "Ġfront": 1585,
      "Ġsaying": 1586,
      "ts": 1587,
      "Ġsure": 1588,
      "Ġmag": 1589,
      "Ġourselves": 1590,
      "Ġrev": 1591,
      "lsb": 1592,
      "Ġinternet": 1593,
      "rsb": 1594,
      "cri": 1595,
      "Ġlevel": 1596,
      "Ġemot": 1597,
      "Ġentire": 1598,
      "Ġgroup": 1599,
      "Ġvir": 1600,
      "Ġincred": 1601,
      "Ġagainst": 1602,
      "Ġorder": 1603,
      "ake": 1604,
      "Ġted": 1605,
      "Ġstories": 1606,
      "Ġcontrol": 1607,
      "cle": 1608,
      "Ġrob": 1609,
      "Ġcontin": 1610,
      "Ġindivid": 1611,
      "Ġdeep": 1612,
      "Ġknew": 1613,
      "Ġmater": 1614,
      "ush": 1615,
      "ilt": 1616,
      "Ġ15": 1617,
      "ulation": 1618,
      "Ġtrue": 1619,
      "Ġlooks": 1620,
      "istic": 1621,
      "Ġlearning": 1622,
      "Ġparent": 1623,
      "vious": 1624,
      "Ġspend": 1625,
      "Ġincre": 1626,
      "Ġris": 1627,
      "Ġsym": 1628,
      "Ġhistory": 1629,
      "Ġstudy": 1630,
      "side": 1631,
      "Ġho": 1632,
      "Ġge": 1633,
      "Ġbecame": 1634,
      "Ġviol": 1635,
      "Ġworked": 1636,
      "Ġcost": 1637,
      "ling": 1638,
      "Ġ9": 1639,
      "Ġaud": 1640,
      "Ġtool": 1641,
      "Ġfree": 1642,
      "Ġview": 1643,
      "Ġexperim": 1644,
      "Ġanswer": 1645,
      "iddle": 1646,
      "ream": 1647,
      "Ġpast": 1648,
      "Ġarch": 1649,
      "ians": 1650,
      "Ġsince": 1651,
      "Ġdr": 1652,
      "Ġeverybody": 1653,
      "Ġdecided": 1654,
      "Ġcolle": 1655,
      "Ġunivers": 1656,
      "work": 1657,
      "Ġ50": 1658,
      "Ġuntil": 1659,
      "by": 1660,
      "Ġthemselves": 1661,
      "Ġsociety": 1662,
      "Ġbasically": 1663,
      "Ġfund": 1664,
      "Ġsometimes": 1665,
      "Ġpay": 1666,
      "Ġiss": 1667,
      "Ġ30": 1668,
      "Ġmiddle": 1669,
      "ene": 1670,
      "Ġindust": 1671,
      "Ġhours": 1672,
      "land": 1673,
      "te": 1674,
      "Ġname": 1675,
      "ional": 1676,
      "rop": 1677,
      "Ġgod": 1678,
      "ared": 1679,
      "Ġcreated": 1680,
      "lud": 1681,
      "icult": 1682,
      "Ġheart": 1683,
      "Ġline": 1684,
      "ision": 1685,
      "itting": 1686,
      "Ġcouple": 1687,
      "Ġworks": 1688,
      "Ġexactly": 1689,
      "uck": 1690,
      "Ġ8": 1691,
      "Ġda": 1692,
      "Ġlarge": 1693,
      "ats": 1694,
      "Ġtaking": 1695,
      "Ġspeak": 1696,
      "lish": 1697,
      "atic": 1698,
      "Ġcra": 1699,
      "Ġmust": 1700,
      "Ġsomebody": 1701,
      "Ġinvest": 1702,
      "Ġkinds": 1703,
      "Ġhuge": 1704,
      "gest": 1705,
      "Ġfear": 1706,
      "Ġhappy": 1707,
      "Ġturns": 1708,
      "ired": 1709,
      "Ġeveryone": 1710,
      "of": 1711,
      "Ġprov": 1712,
      "Ġyes": 1713,
      "Ġhappening": 1714,
      "Ġhold": 1715,
      "Ġele": 1716,
      "Ġteam": 1717,
      "Ġplaces": 1718,
      "Ġcollect": 1719,
      "dd": 1720,
      "Ġ7": 1721,
      "Ġav": 1722,
      "Ġthough": 1723,
      "Ġbehav": 1724,
      "Ġfigure": 1725,
      "Ġrelationship": 1726,
      "Ġoper": 1727,
      "Ġid": 1728,
      "Ġmeet": 1729,
      "Ġdifficult": 1730,
      "Ġafrica": 1731,
      "Ġdifference": 1732,
      "Ġothers": 1733,
      "Ġmass": 1734,
      "Ġcoll": 1735,
      "Ġfocus": 1736,
      "Ġsuccess": 1737,
      "Ġcir": 1738,
      "Ġdem": 1739,
      "ield": 1740,
      "Ġclose": 1741,
      "Ġcompletely": 1742,
      "sy": 1743,
      "Ġjour": 1744,
      "Ġgrand": 1745,
      "Ġchanged": 1746,
      "ination": 1747,
      "Ġcities": 1748,
      "Ġeur": 1749,
      "ogn": 1750,
      "Ġcompany": 1751,
      "Ġcut": 1752,
      "Ġinstead": 1753,
      "Ġbehind": 1754,
      "Ġproduct": 1755,
      "aster": 1756,
      "Ġfre": 1757,
      "Ġneur": 1758,
      "Ġmarket": 1759,
      "Ġap": 1760,
      "Ġmess": 1761,
      "Ġinno": 1762,
      "Ġrather": 1763,
      "Ġquick": 1764,
      "Ġearly": 1765,
      "ien": 1766,
      "up": 1767,
      "Ġcomplex": 1768,
      "Ġexpect": 1769,
      "Ġmachine": 1770,
      "some": 1771,
      "Ġsens": 1772,
      "Ġgets": 1773,
      "Ġleg": 1774,
      "Ġleast": 1775,
      "Ġmedia": 1776,
      "Ġgave": 1777,
      "Ġsex": 1778,
      "why": 1779,
      "Ġprotect": 1780,
      "na": 1781,
      "att": 1782,
      "asure": 1783,
      "Ġ100": 1784,
      "Ġdeath": 1785,
      "Ġguys": 1786,
      "Ġtre": 1787,
      "Ġmiss": 1788,
      "Ġhar": 1789,
      "Ġitself": 1790,
      "Ġred": 1791,
      "Ġdisease": 1792,
      "Ġcal": 1793,
      "ential": 1794,
      "Ġaut": 1795,
      "Ġwall": 1796,
      "Ġpresent": 1797,
      "eah": 1798,
      "haps": 1799,
      "Ġbuilt": 1800,
      "Ġaccess": 1801,
      "ished": 1802,
      "Ġcompanies": 1803,
      "Ġweek": 1804,
      "aking": 1805,
      "Ġfather": 1806,
      "Ġyourself": 1807,
      "Ġpolitical": 1808,
      "Ġes": 1809,
      "Ġoh": 1810,
      "Ġamerica": 1811,
      "Ġthousands": 1812,
      "Ġmot": 1813,
      "Ġhor": 1814,
      "Ġcentury": 1815,
      "Ġchina": 1816,
      "Ġdirect": 1817,
      "ives": 1818,
      "Ġbooks": 1819,
      "Ġfinally": 1820,
      "Ġsupport": 1821,
      "ane": 1822,
      "Ġstruct": 1823,
      "ribut": 1824,
      "Ġlots": 1825,
      "Ġopportun": 1826,
      "vation": 1827,
      "year": 1828,
      "Ġduring": 1829,
      "Ġlim": 1830,
      "oss": 1831,
      "Ġcommunic": 1832,
      "Ġmill": 1833,
      "Ġpick": 1834,
      "Ġdemo": 1835,
      "Ġfail": 1836,
      "ibly": 1837,
      "Ġgirls": 1838,
      "com": 1839,
      "Ġgirl": 1840,
      "Ġeurope": 1841,
      "cc": 1842,
      "Ġinde": 1843,
      "Ġones": 1844,
      "Ġthird": 1845,
      "elt": 1846,
      "ining": 1847,
      "pped": 1848,
      "Ġoutside": 1849,
      "af": 1850,
      "hood": 1851,
      "Ġhy": 1852,
      "Ġpot": 1853,
      "Ġtechnolog": 1854,
      "Ġquestions": 1855,
      "Ġnature": 1856,
      "Ġhands": 1857,
      "Ġstep": 1858,
      "ability": 1859,
      "Ġclear": 1860,
      "Ġbehavior": 1861,
      "Ġdream": 1862,
      "fect": 1863,
      "Ġpaper": 1864,
      "Ġfly": 1865,
      "Ġyork": 1866,
      "Ġneeded": 1867,
      "Ġrad": 1868,
      "Ġplanet": 1869,
      "Ġparents": 1870,
      "Ġpred": 1871,
      "Ġliter": 1872,
      "Ġalong": 1873,
      "Ġuniverse": 1874,
      "Ġwind": 1875,
      "Ġfight": 1876,
      "Ġland": 1877,
      "ides": 1878,
      "que": 1879,
      "astic": 1880,
      "Ġsurv": 1881,
      "Ġculture": 1882,
      "ral": 1883,
      "ised": 1884,
      "Ġeasy": 1885,
      "solut": 1886,
      "Ġste": 1887,
      "Ġleave": 1888,
      "Ġlonger": 1889,
      "Ġstreet": 1890,
      "ased": 1891,
      "Ġemb": 1892,
      "Ġinclud": 1893,
      "Ġminutes": 1894,
      "Ġdemoc": 1895,
      "Ġsent": 1896,
      "Ġple": 1897,
      "Ġant": 1898,
      "Ġseven": 1899,
      "Ġvar": 1900,
      "Ġtext": 1901,
      "Ġtravel": 1902,
      "Ġinteract": 1903,
      "fu": 1904,
      "Ġfelt": 1905,
      "then": 1906,
      "ison": 1907,
      "ident": 1908,
      "Ġperform": 1909,
      "Ġengine": 1910,
      "Ġspecies": 1911,
      "Ġtyp": 1912,
      "Ġbar": 1913,
      "Ġpract": 1914,
      "Ġcancer": 1915,
      "Ġfamil": 1916,
      "Ġprogram": 1917,
      "ones": 1918,
      "Ġeight": 1919,
      "Ġfull": 1920,
      "Ġamerican": 1921,
      "app": 1922,
      "ator": 1923,
      "Ġbri": 1924,
      "Ġtrad": 1925,
      "Ġwrite": 1926,
      "Ġgiven": 1927,
      "Ġbeginning": 1928,
      "Ġexist": 1929,
      "ney": 1930,
      "Ġserv": 1931,
      "imate": 1932,
      "Ġimage": 1933,
      "Ġcompass": 1934,
      "Ġrealized": 1935,
      "itect": 1936,
      "Ġabsolut": 1937,
      "Ġopt": 1938,
      "Ġonline": 1939,
      "etic": 1940,
      "room": 1941,
      "every": 1942,
      "rew": 1943,
      "Ġciv": 1944,
      "Ġmal": 1945,
      "Ġrecent": 1946,
      "Ġ12": 1947,
      "acter": 1948,
      "Ġsystems": 1949,
      "Ġnorm": 1950,
      "Ġeyes": 1951,
      "port": 1952,
      "Ġinsp": 1953,
      "Ġsitu": 1954,
      "Ġlocal": 1955,
      "Ġce": 1956,
      "Ġborn": 1957,
      "Ġnon": 1958,
      "Ġimpro": 1959,
      "Ġreality": 1960,
      "wards": 1961,
      "Ġmov": 1962,
      "Ġsho": 1963,
      "Ġdeal": 1964,
      "ump": 1965,
      "Ġsuper": 1966,
      "Ġenglish": 1967,
      "lt": 1968,
      "ply": 1969,
      "aring": 1970,
      "vered": 1971,
      "ift": 1972,
      "Ġamount": 1973,
      "Ġhumans": 1974,
      "Ġgreen": 1975,
      "itch": 1976,
      "ames": 1977,
      "Ġspecial": 1978,
      "era": 1979,
      "ern": 1980,
      "verage": 1981,
      "Ġchr": 1982,
      "Ġseeing": 1983,
      "ples": 1984,
      "Ġanimals": 1985,
      "Ġarchitect": 1986,
      "urs": 1987,
      "ror": 1988,
      "ub": 1989,
      "Ġbott": 1990,
      "Ġfem": 1991,
      "ules": 1992,
      "Ġspent": 1993,
      "Ġtakes": 1994,
      "Ġperfect": 1995,
      "Ġchallenge": 1996,
      "sych": 1997,
      "Ġfield": 1998,
      "itions": 1999,
      "Ġenc": 2000,
      "Ġextra": 2001,
      "ges": 2002,
      "Ġalone": 2003,
      "cious": 2004,
      "Ġpersonal": 2005,
      "Ġobvious": 2006,
      "Ġpriv": 2007,
      "Ġcy": 2008,
      "Ġyeah": 2009,
      "Ġsend": 2010,
      "Ġperhaps": 2011,
      "Ġbuy": 2012,
      "Ġsimply": 2013,
      "bo": 2014,
      "lic": 2015,
      "ming": 2016,
      "Ġrecord": 2017,
      "Ġeconomic": 2018,
      "Ġleaders": 2019,
      "Ġexplain": 2020,
      "Ġphotograph": 2021,
      "Ġdraw": 2022,
      "ither": 2023,
      "Ġpsych": 2024,
      "ider": 2025,
      "Ġshort": 2026,
      "rought": 2027,
      "Ġcompassion": 2028,
      "cl": 2029,
      "ze": 2030,
      "iction": 2031,
      "like": 2032,
      "ients": 2033,
      "ising": 2034,
      "idence": 2035,
      "Ġappro": 2036,
      "Ġturned": 2037,
      "Ġnumbers": 2038,
      "Ġpowerful": 2039,
      "Ġrepres": 2040,
      "Ġ40": 2041,
      "inary": 2042,
      "Ġsitting": 2043,
      "Ġtaken": 2044,
      "Ġdest": 2045,
      "ode": 2046,
      "Ġbox": 2047,
      "pid": 2048,
      "Ġess": 2049,
      "Ġgame": 2050,
      "Ġneeds": 2051,
      "Ġpost": 2052,
      "ledge": 2053,
      "Ġmicro": 2054,
      "ony": 2055,
      "rodu": 2056,
      "Ġcolor": 2057,
      "Ġphysical": 2058,
      "Ġviolence": 2059,
      "Ġsize": 2060,
      "Ġtot": 2061,
      "Ġdigital": 2062,
      "Ġident": 2063,
      "utions": 2064,
      "Ġmaj": 2065,
      "izing": 2066,
      "Ġlost": 2067,
      "Ġfeeling": 2068,
      "Ġstrong": 2069,
      "Ġpopulation": 2070,
      "Ġfilm": 2071,
      "iny": 2072,
      "Ġcop": 2073,
      "ented": 2074,
      "oph": 2075,
      "Ġsurpr": 2076,
      "ially": 2077,
      "ators": 2078,
      "Ġmath": 2079,
      "Ġ18": 2080,
      "Ġextrem": 2081,
      "gle": 2082,
      "ny": 2083,
      "ows": 2084,
      "Ġscale": 2085,
      "Ġinstit": 2086,
      "ibility": 2087,
      "Ġsat": 2088,
      "ilar": 2089,
      "ively": 2090,
      "go": 2091,
      "Ġsun": 2092,
      "Ġforce": 2093,
      "olved": 2094,
      "Ġpoor": 2095,
      "Ġbreak": 2096,
      "Ġrevolution": 2097,
      "just": 2098,
      "Ġwhite": 2099,
      "Ġarea": 2100,
      "Ġconv": 2101,
      "Ġmorning": 2102,
      "Ġbrought": 2103,
      "Ġability": 2104,
      "Ġvoice": 2105,
      "Ġrespons": 2106,
      "Ġweeks": 2107,
      "..": 2108,
      "aw": 2109,
      "face": 2110,
      "gu": 2111,
      "Ġbegan": 2112,
      "ateg": 2113,
      "Ġimages": 2114,
      "Ġprofess": 2115,
      "fully": 2116,
      "ged": 2117,
      "Ġlow": 2118,
      "Ġreach": 2119,
      "ilities": 2120,
      "Ġknown": 2121,
      "Ġsuff": 2122,
      "Ġfav": 2123,
      "ards": 2124,
      "Ġcenter": 2125,
      "Ġattention": 2126,
      "Ġpattern": 2127,
      "Ġterms": 2128,
      "Ġnatural": 2129,
      "Ġsil": 2130,
      "Ġdark": 2131,
      "ression": 2132,
      "Ġkey": 2133,
      "Ġmovement": 2134,
      "ned": 2135,
      "Ġsqu": 2136,
      "Ġrich": 2137,
      "Ġshows": 2138,
      "Ġtransform": 2139,
      "Ġdevelopment": 2140,
      "Ġvisual": 2141,
      "sh": 2142,
      "Ġsum": 2143,
      "els": 2144,
      "Ġimpact": 2145,
      "Ġdescri": 2146,
      "Ġcommon": 2147,
      "Ġobs": 2148,
      "Ġgrowth": 2149,
      "Ġice": 2150,
      "Ġstay": 2151,
      "Ġblood": 2152,
      "acy": 2153,
      "Ġgiving": 2154,
      "Ġrisk": 2155,
      "Ġmajor": 2156,
      "ex": 2157,
      "Ġmult": 2158,
      "Ġhon": 2159,
      "Ġeat": 2160,
      "ills": 2161,
      "Ġwrote": 2162,
      "Ġpull": 2163,
      "Ġvers": 2164,
      "Ġach": 2165,
      "Ġill": 2166,
      "ature": 2167,
      "Ġcit": 2168,
      "Ġfall": 2169,
      "Ġmoving": 2170,
      "Ġemp": 2171,
      "Ġgrowing": 2172,
      "Ġ...": 2173,
      "ster": 2174,
      "Ġneigh": 2175,
      "Ġchoo": 2176,
      "Ġblue": 2177,
      "Ġwonderful": 2178,
      "Ġfavor": 2179,
      "Ġneighb": 2180,
      "ax": 2181,
      "par": 2182,
      "Ġocc": 2183,
      "Ġparts": 2184,
      "Ġrealize": 2185,
      "Ġmedic": 2186,
      "Ġvalue": 2187,
      "ters": 2188,
      "inst": 2189,
      "rent": 2190,
      "Ġstat": 2191,
      "Ġdoct": 2192,
      "Ġnear": 2193,
      "Ġindia": 2194,
      "Ġtransl": 2195,
      "Ġtried": 2196,
      "Ġcirc": 2197,
      "Ġchoice": 2198,
      "Ġaffect": 2199,
      "Ġknowledge": 2200,
      "cially": 2201,
      "dden": 2202,
      "Ġpen": 2203,
      "Ġfish": 2204,
      "Ġrepl": 2205,
      "Ġsudden": 2206,
      "Ġbased": 2207,
      "Ġtools": 2208,
      "Ġexperiment": 2209,
      "Ġauth": 2210,
      "Ġrequ": 2211,
      "urb": 2212,
      "Ġvill": 2213,
      "ellig": 2214,
      "Ġbaby": 2215,
      "Ġve": 2216,
      "Ġtelling": 2217,
      "Ġhundreds": 2218,
      "more": 2219,
      "ances": 2220,
      "Ġmeasure": 2221,
      "Ġconvers": 2222,
      "Ġtem": 2223,
      "Ġaudience": 2224,
      "zy": 2225,
      "Ġrecogn": 2226,
      "Ġdrug": 2227,
      "ium": 2228,
      "Ġbene": 2229,
      "arr": 2230,
      "ources": 2231,
      "Ġeconomy": 2232,
      "Ġmaterial": 2233,
      "Ġtradition": 2234,
      "ca": 2235,
      "ler": 2236,
      "Ġcars": 2237,
      "Ġbal": 2238,
      "Ġrele": 2239,
      "anger": 2240,
      "Ġprom": 2241,
      "Ġindividual": 2242,
      "Ġopportunity": 2243,
      "Ġcitiz": 2244,
      "cin": 2245,
      "Ġaverage": 2246,
      "Ġvol": 2247,
      "Ġsugg": 2248,
      "Ġroad": 2249,
      "Ġcapt": 2250,
      "Ġquickly": 2251,
      "Ġsuggest": 2252,
      "Ġcool": 2253,
      "Ġdie": 2254,
      "Ġunderstanding": 2255,
      "Ġsouth": 2256,
      "met": 2257,
      "Ġpark": 2258,
      "uses": 2259,
      "Ġchem": 2260,
      "ource": 2261,
      "ption": 2262,
      "Ġparticip": 2263,
      "Ġtechnologies": 2264,
      "ero": 2265,
      "Ġnice": 2266,
      "Ġnational": 2267,
      "Ġdead": 2268,
      "Ġpeace": 2269,
      "aged": 2270,
      "ploy": 2271,
      "Ġexperien": 2272,
      "Ġnorth": 2273,
      "Ġeye": 2274,
      "Ġcivil": 2275,
      "yond": 2276,
      "Ġbur": 2277,
      "Ġgal": 2278,
      "Ġsell": 2279,
      "Ġstarting": 2280,
      "Ġrunning": 2281,
      "Ġabsolutely": 2282,
      "book": 2283,
      "yn": 2284,
      "Ġpress": 2285,
      "ried": 2286,
      "ades": 2287,
      "Ġsimilar": 2288,
      "Ġrelig": 2289,
      "Ġsecret": 2290,
      "Ġindustry": 2291,
      "Ġsituation": 2292,
      "gen": 2293,
      "Ġtend": 2294,
      "ains": 2295,
      "Ġwriting": 2296,
      "Ġcrit": 2297,
      "Ġinterested": 2298,
      "Ġmodern": 2299,
      "Ġaccount": 2300,
      "Ġcamp": 2301,
      "Ġincredible": 2302,
      "Ġachie": 2303,
      "âĻ": 2304,
      "Ġgoo": 2305,
      "Ġevent": 2306,
      "Ġadm": 2307,
      "light": 2308,
      "Ġwin": 2309,
      "Ġfire": 2310,
      "Ġweb": 2311,
      "Ġanyone": 2312,
      "Ġphone": 2313,
      "ials": 2314,
      "por": 2315,
      "Ġori": 2316,
      "Ġconcept": 2317,
      "Ġbecomes": 2318,
      "Ġaction": 2319,
      "Ġsafe": 2320,
      "Ġnormal": 2321,
      "Ġball": 2322,
      "Ġbeyond": 2323,
      "Ġult": 2324,
      "Ġneg": 2325,
      "Ġcomb": 2326,
      "Ġlikely": 2327,
      "Ġboy": 2328,
      "Ġdeveloped": 2329,
      "Ġfundam": 2330,
      "Ġmillions": 2331,
      "Ġtheory": 2332,
      "Ġoil": 2333,
      "orm": 2334,
      "chan": 2335,
      "right": 2336,
      "Ġsounds": 2337,
      "Ġscientists": 2338,
      "Ġpush": 2339,
      "Ġdiv": 2340,
      "Ġground": 2341,
      "Ġwhatever": 2342,
      "Ġshape": 2343,
      "Ġintellig": 2344,
      "unt": 2345,
      "people": 2346,
      "Ġtype": 2347,
      "Ġpredict": 2348,
      "Ġapproach": 2349,
      "ton": 2350,
      "Ġgone": 2351,
      "lec": 2352,
      "Ġasking": 2353,
      "Ġmechan": 2354,
      "Ġseems": 2355,
      "Ġconsum": 2356,
      "Ġdeveloping": 2357,
      "Ġnetwork": 2358,
      "lu": 2359,
      "lict": 2360,
      "ma": 2361,
      "pan": 2362,
      "racy": 2363,
      "Ġsoon": 2364,
      "Ġvac": 2365,
      "osp": 2366,
      "Ġchinese": 2367,
      "ored": 2368,
      "Ġfeed": 2369,
      "Ġstructure": 2370,
      "mer": 2371,
      "ped": 2372,
      "aly": 2373,
      "Ġpatients": 2374,
      "uals": 2375,
      "isions": 2376,
      "Ġmolec": 2377,
      "Ġmain": 2378,
      "Ġseem": 2379,
      "Ġcurrent": 2380,
      "fort": 2381,
      "wor": 2382,
      "Ġbir": 2383,
      "vert": 2384,
      "Ġtrust": 2385,
      "Ġunf": 2386,
      "ological": 2387,
      "Ġguess": 2388,
      "Ġcreating": 2389,
      "Ġslow": 2390,
      "Ġterri": 2391,
      "Ġobjects": 2392,
      "Ġavail": 2393,
      "put": 2394,
      "ware": 2395,
      "ĠâĻ": 2396,
      "Ġpath": 2397,
      "erence": 2398,
      "Ġtruth": 2399,
      "Ġshowed": 2400,
      "gn": 2401,
      "ration": 2402,
      "Ġtiny": 2403,
      "Ġwest": 2404,
      "Ġbill": 2405,
      "Ġeither": 2406,
      "Ġsever": 2407,
      "ument": 2408,
      "Ġpoll": 2409,
      "Ġtrack": 2410,
      "Ġready": 2411,
      "Ġgeneral": 2412,
      "Ġ80": 2413,
      "inal": 2414,
      "Ġpur": 2415,
      "Ġled": 2416,
      "ister": 2417,
      "amed": 2418,
      "Ġmap": 2419,
      "Ġhappiness": 2420,
      "Ġ25": 2421,
      "Ġblock": 2422,
      "Ġ199": 2423,
      "oices": 2424,
      "ouch": 2425,
      "Ġhosp": 2426,
      "ences": 2427,
      "Ġmeaning": 2428,
      "Ġolder": 2429,
      "Ġgroups": 2430,
      "Ġ60": 2431,
      "Ġbenef": 2432,
      "Ġpa": 2433,
      "Ġdom": 2434,
      "Ġstage": 2435,
      "urity": 2436,
      "Ġprop": 2437,
      "Ġprison": 2438,
      "Ġserious": 2439,
      "Ġcollege": 2440,
      "Ġjourney": 2441,
      "Ġbottom": 2442,
      "Ġrece": 2443,
      "Ġactiv": 2444,
      "Ġprin": 2445,
      "Ġfoot": 2446,
      "Ġpolice": 2447,
      "Ġplaying": 2448,
      "Ġ201": 2449,
      "Ġchanges": 2450,
      "Ġsubject": 2451,
      "Ġavailable": 2452,
      "ove": 2453,
      "okay": 2454,
      "po": 2455,
      "tw": 2456,
      "Ġbird": 2457,
      "Ġdam": 2458,
      "Ġworth": 2459,
      "Ġspread": 2460,
      "Ġquality": 2461,
      "ensive": 2462,
      "Ġphil": 2463,
      "Ġflu": 2464,
      "Ġprojects": 2465,
      "Ġfunction": 2466,
      "Ġdrugs": 2467,
      "Ġrobot": 2468,
      "Ġliterally": 2469,
      "Ġbirth": 2470,
      "uit": 2471,
      "Ġtur": 2472,
      "sect": 2473,
      "ids": 2474,
      "Ġmob": 2475,
      "Ġeverywhere": 2476,
      "Ġsurviv": 2477,
      "Ġrecently": 2478,
      "not": 2479,
      "ina": 2480,
      "Ġsle": 2481,
      "Ġredu": 2482,
      "Ġsoft": 2483,
      "Ġamong": 2484,
      "Ġreport": 2485,
      "Ġteachers": 2486,
      "ule": 2487,
      "erm": 2488,
      "Ġpan": 2489,
      "Ġje": 2490,
      "Ġplant": 2491,
      "Ġtable": 2492,
      "Ġblind": 2493,
      "Ġprev": 2494,
      "Ġhigher": 2495,
      "pecially": 2496,
      "Ġreasons": 2497,
      "Ġanimal": 2498,
      "Ġdiscovered": 2499,
      "Ġlistening": 2500,
      "Ġapart": 2501,
      "rep": 2502,
      "Ġson": 2503,
      "Ġcode": 2504,
      "Ġbud": 2505,
      "Ġstra": 2506,
      "Ġproper": 2507,
      "Ġevidence": 2508,
      "abor": 2509,
      "Ġgeneration": 2510,
      "fer": 2511,
      "first": 2512,
      "hn": 2513,
      "xic": 2514,
      "ency": 2515,
      "oring": 2516,
      "Ġlif": 2517,
      "Ġimm": 2518,
      "Ġputting": 2519,
      "Ġflow": 2520,
      "Ġjobs": 2521,
      "Ġcharacter": 2522,
      "after": 2523,
      "Ġmovie": 2524,
      "rast": 2525,
      "Ġhot": 2526,
      "Ġfast": 2527,
      "Ġdeli": 2528,
      "Ġtele": 2529,
      "izations": 2530,
      "Ġadult": 2531,
      "Ġmedical": 2532,
      "Ġdied": 2533,
      "Ġmiles": 2534,
      "Ġincredibly": 2535,
      "Ġuniversity": 2536,
      "Ġseveral": 2537,
      "Ġstru": 2538,
      "Ġsold": 2539,
      "Ġgives": 2540,
      "Ġpotential": 2541,
      "Ġchoose": 2542,
      "Ġfavorite": 2543,
      "ging": 2544,
      "Ġspir": 2545,
      "head": 2546,
      "Ġbigger": 2547,
      "Ġsmart": 2548,
      "Ġcomputers": 2549,
      "Ġbabies": 2550,
      "Ġcause": 2551,
      "Ġforward": 2552,
      "Ġdrive": 2553,
      "Ġhole": 2554,
      "Ġcitizens": 2555,
      "can": 2556,
      "pend": 2557,
      "with": 2558,
      "Ġdanger": 2559,
      "Ġstar": 2560,
      "Ġstore": 2561,
      "Ġnecess": 2562,
      "Ġoffice": 2563,
      "Ġcorre": 2564,
      "Ġaware": 2565,
      "Ġcolleag": 2566,
      "uly": 2567,
      "Ġbed": 2568,
      "Ġdou": 2569,
      "Ġdan": 2570,
      "oms": 2571,
      "antly": 2572,
      "Ġscreen": 2573,
      "Ġflo": 2574,
      "Ġdiag": 2575,
      "Ġparticularly": 2576,
      "Ġtrees": 2577,
      "Ġest": 2578,
      "omen": 2579,
      "Ġrules": 2580,
      "itten": 2581,
      "Ġbasic": 2582,
      "Ġsolve": 2583,
      "Ġsolution": 2584,
      "Ġinternational": 2585,
      "Ġissue": 2586,
      "Ġissues": 2587,
      "Ġorigin": 2588,
      "bed": 2589,
      "ug": 2590,
      "oud": 2591,
      "Ġmental": 2592,
      "asing": 2593,
      "entially": 2594,
      "Ġlived": 2595,
      "Ġareas": 2596,
      "Ġchance": 2597,
      "ously": 2598,
      "Ġpolic": 2599,
      "Ġpolitics": 2600,
      "Ġfamilies": 2601,
      "Ġgoogle": 2602,
      "iar": 2603,
      "Ġfur": 2604,
      "Ġner": 2605,
      "Ġsearch": 2606,
      "Ġsave": 2607,
      "rene": 2608,
      "Ġstudent": 2609,
      "Ġdecision": 2610,
      "Ġproduce": 2611,
      "Ġchanging": 2612,
      "Ġvision": 2613,
      "Ġelectric": 2614,
      "Ġresults": 2615,
      "Ġclos": 2616,
      "Ġbiggest": 2617,
      "Ġcamera": 2618,
      "Ġscientific": 2619,
      "Ġsecurity": 2620,
      "Ġespecially": 2621,
      "Ġimprove": 2622,
      "come": 2623,
      "rom": 2624,
      "Ġer": 2625,
      "Ġtouch": 2626,
      "Ġmount": 2627,
      "estern": 2628,
      "Ġwash": 2629,
      "Ġmessage": 2630,
      "iod": 2631,
      "ires": 2632,
      "Ġthreat": 2633,
      "Ġdon": 2634,
      "Ġdoor": 2635,
      "oles": 2636,
      "Ġfair": 2637,
      "Ġperiod": 2638,
      "Ġstarts": 2639,
      "Ġperspect": 2640,
      "Ġvirt": 2641,
      "bol": 2642,
      "rest": 2643,
      "Ġox": 2644,
      "Ġcross": 2645,
      "Ġmis": 2646,
      "Ġton": 2647,
      "Ġtowards": 2648,
      "Ġinsect": 2649,
      "Ġrate": 2650,
      "Ġtaught": 2651,
      "Ġdisapp": 2652,
      "Ġresources": 2653,
      "icks": 2654,
      "Ġsurface": 2655,
      "Ġrepresent": 2656,
      "Ġvillage": 2657,
      "Ġok": 2658,
      "oming": 2659,
      "Ġworse": 2660,
      "ustain": 2661,
      "Ġdeg": 2662,
      "Ġexpress": 2663,
      "Ġemerg": 2664,
      "Ġsociet": 2665,
      "Ġskin": 2666,
      "Ġmathem": 2667,
      "Ġneighbor": 2668,
      "cul": 2669,
      "ground": 2670,
      "Ġwish": 2671,
      "Ġlay": 2672,
      "rage": 2673,
      "Ġabove": 2674,
      "Ġexcept": 2675,
      "ified": 2676,
      "Ġenj": 2677,
      "Ġevolution": 2678,
      "Ġaccept": 2679,
      "Ġcontent": 2680,
      "Ġbrit": 2681,
      "Ġdecisions": 2682,
      "Ġcoun": 2683,
      "Ġpainting": 2684,
      "Ġfreed": 2685,
      "Ġobser": 2686,
      "thes": 2687,
      "amm": 2688,
      "Ġcompet": 2689,
      "ffic": 2690,
      "Ġarg": 2691,
      "Ġtalked": 2692,
      "Ġexamples": 2693,
      "Ġdesigned": 2694,
      "Ġdefin": 2695,
      "Ġneurons": 2696,
      "Ġdemocracy": 2697,
      "Ġextraord": 2698,
      "Ġobviously": 2699,
      "Ġec": 2700,
      "ute": 2701,
      "Ġdeb": 2702,
      "aph": 2703,
      "Ġlea": 2704,
      "Ġloved": 2705,
      "Ġbrains": 2706,
      "Ġreading": 2707,
      "many": 2708,
      "Ġpictures": 2709,
      "Ġdepend": 2710,
      "Ġclean": 2711,
      "Ġwait": 2712,
      "medi": 2713,
      "Ġinnovation": 2714,
      "Ġincluding": 2715,
      "reprene": 2716,
      "Ġsong": 2717,
      "set": 2718,
      "rams": 2719,
      "Ġmoved": 2720,
      "Ġ14": 2721,
      "Ġrole": 2722,
      "Ġskills": 2723,
      "Ġdetail": 2724,
      "Ġlabor": 2725,
      "Ġsleep": 2726,
      "ted": 2727,
      "arily": 2728,
      "ask": 2729,
      "Ġmeant": 2730,
      "istan": 2731,
      "Ġintrodu": 2732,
      "Ġfeet": 2733,
      "Ġworkers": 2734,
      "Ġspeed": 2735,
      "Ġteacher": 2736,
      "Ġjohn": 2737,
      "Ġorganization": 2738,
      "Ġexciting": 2739,
      "Ġfundamental": 2740,
      "Ġconc": 2741,
      "Ġremind": 2742,
      "Ġpositive": 2743,
      "Ġconscious": 2744,
      "Ġallowed": 2745,
      "Ġdevice": 2746,
      "Ġsuddenly": 2747,
      "Ġauthor": 2748,
      "iet": 2749,
      "Ġoce": 2750,
      "Ġfant": 2751,
      "Ġdna": 2752,
      "Ġrights": 2753,
      "Ġfinding": 2754,
      "Ġschools": 2755,
      "Ġentreprene": 2756,
      "ortunately": 2757,
      "Ġdiseases": 2758,
      "Ġforest": 2759,
      "Ġ90": 2760,
      "Ġtraditional": 2761,
      "Ġgalax": 2762,
      "Ġsal": 2763,
      "Ġbunch": 2764,
      "Ġhit": 2765,
      "ana": 2766,
      "ites": 2767,
      "used": 2768,
      "Ġreact": 2769,
      "Ġonto": 2770,
      "ured": 2771,
      "Ġnobody": 2772,
      "odies": 2773,
      "Ġthousand": 2774,
      "Ġmilit": 2775,
      "Ġassum": 2776,
      "Ġcrazy": 2777,
      "Ġtotally": 2778,
      "bes": 2779,
      "nal": 2780,
      "nces": 2781,
      "oh": 2782,
      "Ġbreat": 2783,
      "onse": 2784,
      "Ġnine": 2785,
      "usion": 2786,
      "pping": 2787,
      "Ġanybody": 2788,
      "Ġlargest": 2789,
      "Ġconflict": 2790,
      "Ġdiscover": 2791,
      "may": 2792,
      "Ġwestern": 2793,
      "Ġsan": 2794,
      "Ġtom": 2795,
      "aries": 2796,
      "Ġinvolved": 2797,
      "Ġattack": 2798,
      "Ġminds": 2799,
      "Ġrespond": 2800,
      "cuss": 2801,
      "Ġafford": 2802,
      "Ġcontinue": 2803,
      "Ġindividuals": 2804,
      "Ġincrease": 2805,
      "Ġcollabor": 2806,
      "Ġsquare": 2807,
      "tod": 2808,
      "Ġcry": 2809,
      "Ġpage": 2810,
      "Ġlad": 2811,
      "Ġnation": 2812,
      "Ġshown": 2813,
      "Ġcommunities": 2814,
      "Ġsupposed": 2815,
      "Ġpassion": 2816,
      "Ġcertainly": 2817,
      "Ġencou": 2818,
      "iant": 2819,
      "Ġsustain": 2820,
      "Ġir": 2821,
      "ought": 2822,
      "Ġbom": 2823,
      "Ġgames": 2824,
      "Ġisl": 2825,
      "iding": 2826,
      "Ġwife": 2827,
      "Ġbeings": 2828,
      "Ġshowing": 2829,
      "Ġcreative": 2830,
      "Ġconsider": 2831,
      "Ġpatient": 2832,
      "Ġamericans": 2833,
      "Ġconnected": 2834,
      "Ġfreedom": 2835,
      "today": 2836,
      "ners": 2837,
      "Ġwebs": 2838,
      "Ġwants": 2839,
      "Ġwatching": 2840,
      "Ġ70": 2841,
      "ĠâĻ«": 2842,
      "cise": 2843,
      "eg": 2844,
      "lo": 2845,
      "Ġcart": 2846,
      "imens": 2847,
      "istics": 2848,
      "Ġactivity": 2849,
      "Ġdesp": 2850,
      "Ġremark": 2851,
      "Ġresponse": 2852,
      "Ġwalking": 2853,
      "Ġkilled": 2854,
      "Ġmaterials": 2855,
      "Ġindeed": 2856,
      "Ġextremely": 2857,
      "bi": 2858,
      "back": 2859,
      "ef": 2860,
      "even": 2861,
      "Ġtrou": 2862,
      "Ġsam": 2863,
      "Ġfill": 2864,
      "Ġger": 2865,
      "uss": 2866,
      "Ġchim": 2867,
      "ify": 2868,
      "ung": 2869,
      "Ġknows": 2870,
      "Ġrock": 2871,
      "Ġstudies": 2872,
      "Ġconditions": 2873,
      "Ġplease": 2874,
      "two": 2875,
      "Ġextraordinary": 2876,
      "cies": 2877,
      "ube": 2878,
      "Ġforget": 2879,
      "soci": 2880,
      "Ġsepar": 2881,
      "Ġcomplic": 2882,
      "ived": 2883,
      "Ġdiscuss": 2884,
      "Ġprim": 2885,
      "Ġemploy": 2886,
      "Ġended": 2887,
      "Ġcarry": 2888,
      "Ġcapital": 2889,
      "Ġprogress": 2890,
      "Ġtreatment": 2891,
      "bit": 2892,
      "uct": 2893,
      "Ġbank": 2894,
      "Ġport": 2895,
      "Ġlog": 2896,
      "Ġnamed": 2897,
      "Ġken": 2898,
      "Ġimmedi": 2899,
      "Ġtruly": 2900,
      "ruction": 2901,
      "Ġthroughout": 2902,
      "Ġtells": 2903,
      "Ġgreatest": 2904,
      "Ġearli": 2905,
      "Ġeffort": 2906,
      "Ġterror": 2907,
      "Ġstrateg": 2908,
      "Ġmachines": 2909,
      "Ġspirit": 2910,
      "Ġsocieties": 2911,
      "Ġswe": 2912,
      "Ġfaster": 2913,
      "Ġstem": 2914,
      "Ġdoc": 2915,
      "Ġsomewhere": 2916,
      "une": 2917,
      "Ġplastic": 2918,
      "ude": 2919,
      "Ġanymore": 2920,
      "Ġinflu": 2921,
      "urban": 2922,
      "cape": 2923,
      "ext": 2924,
      "Ġast": 2925,
      "sequ": 2926,
      "oper": 2927,
      "amic": 2928,
      "Ġboys": 2929,
      "Ġmemory": 2930,
      "Ġreturn": 2931,
      "Ġemotional": 2932,
      "Ġvari": 2933,
      "Ġprinci": 2934,
      "Ġfurther": 2935,
      "50": 2936,
      "men": 2937,
      "ring": 2938,
      "Ġhop": 2939,
      "Ġpet": 2940,
      "Ġden": 2941,
      "ann": 2942,
      "ims": 2943,
      "imag": 2944,
      "Ġvict": 2945,
      "Ġbecoming": 2946,
      "Ġlaunch": 2947,
      "Ġwritten": 2948,
      "Ġfinan": 2949,
      "Ġeffective": 2950,
      "Ġzero": 2951,
      "Ġconversation": 2952,
      "Ġhospital": 2953,
      "Ġperspective": 2954,
      "Ġsn": 2955,
      "ery": 2956,
      "Ġcat": 2957,
      "Ġdro": 2958,
      "aria": 2959,
      "icle": 2960,
      "Ġeast": 2961,
      "ently": 2962,
      "Ġheav": 2963,
      "Ġshap": 2964,
      "Ġinterv": 2965,
      "Ġphoto": 2966,
      "Ġfas": 2967,
      "Ġlos": 2968,
      "Ġluck": 2969,
      "Ġgrew": 2970,
      "ley": 2971,
      "cell": 2972,
      "Ġmos": 2973,
      "Ġoffic": 2974,
      "Ġbuildings": 2975,
      "Ġtransport": 2976,
      "Ġgovernments": 2977,
      "Ġinfect": 2978,
      "Ġcultural": 2979,
      "Ġreflect": 2980,
      "Ġmagic": 2981,
      "Ġpractice": 2982,
      "Ġchemical": 2983,
      "Ġsoftware": 2984,
      "ech": 2985,
      "over": 2986,
      "vision": 2987,
      "iced": 2988,
      "Ġsequ": 2989,
      "order": 2990,
      "Ġexcited": 2991,
      "Ġminute": 2992,
      "Ġsymmet": 2993,
      "Ġoptim": 2994,
      "Ġfemale": 2995,
      "Ġstrugg": 2996,
      "Ġmathemat": 2997,
      "ha": 2998,
      "Ġcases": 2999,
      "Ġmist": 3000,
      "Ġpal": 3001,
      "Ġlands": 3002,
      "Ġhack": 3003,
      "rial": 3004,
      "Ġworry": 3005,
      "Ġcold": 3006,
      "Ġclin": 3007,
      "Ġbroad": 3008,
      "Ġcheck": 3009,
      "Ġprovide": 3010,
      "Ġservices": 3011,
      "Ġchrist": 3012,
      "Ġintelligence": 3013,
      "ein": 3014,
      "time": 3015,
      "Ġcust": 3016,
      "itation": 3017,
      "Ġusually": 3018,
      "Ġcontext": 3019,
      "Ġmetaph": 3020,
      "Ġlarger": 3021,
      "Ġcontinu": 3022,
      "Ġachieve": 3023,
      "Ġmobile": 3024,
      "maybe": 3025,
      "rate": 3026,
      "lebr": 3027,
      "anda": 3028,
      "Ġforms": 3029,
      "rad": 3030,
      "Ġassoci": 3031,
      "apan": 3032,
      "Ġcontribut": 3033,
      "Ġorganizations": 3034,
      "Ġdaughter": 3035,
      "attle": 3036,
      "Ġarchitecture": 3037,
      "ai": 3038,
      "rated": 3039,
      "Ġaust": 3040,
      "Ġsource": 3041,
      "ica": 3042,
      "key": 3043,
      "Ġliber": 3044,
      "Ġjud": 3045,
      "Ġ16": 3046,
      "Ġarri": 3047,
      "Ġprint": 3048,
      "Ġtraining": 3049,
      "Ġposition": 3050,
      "Ġglass": 3051,
      "Ġsla": 3052,
      "Ġteaching": 3053,
      "Ġbeauty": 3054,
      "Ġspecific": 3055,
      "Ġcosts": 3056,
      "Ġperformance": 3057,
      "Ġmedicine": 3058,
      "Ġcritical": 3059,
      "Ġmilitary": 3060,
      "ok": 3061,
      "Ġtar": 3062,
      "Ġthrow": 3063,
      "Ġdyn": 3064,
      "Ġbees": 3065,
      "verty": 3066,
      "imately": 3067,
      "Ġrand": 3068,
      "Ġraise": 3069,
      "Ġdepart": 3070,
      "Ġstreets": 3071,
      "airs": 3072,
      "Ġcelebr": 3073,
      "Ġeventually": 3074,
      "Ġfine": 3075,
      "any": 3076,
      "Ġann": 3077,
      "Ġjapan": 3078,
      "Ġgoal": 3079,
      "Ġconcer": 3080,
      "Ġemail": 3081,
      "Ġterm": 3082,
      "Ġdistribut": 3083,
      "Ġstanding": 3084,
      "Ġdetect": 3085,
      "Ġmassive": 3086,
      "Ġhonest": 3087,
      "Ġenjoy": 3088,
      "Ġcomplicated": 3089,
      "oon": 3090,
      "Ġsus": 3091,
      "Ġfit": 3092,
      "ears": 3093,
      "Ġconsequ": 3094,
      "Ġwilling": 3095,
      "Ġ21": 3096,
      "acity": 3097,
      "Ġengage": 3098,
      "Ġstrange": 3099,
      "Ġsignific": 3100,
      "Ġwalked": 3101,
      "Ġpatterns": 3102,
      "gth": 3103,
      "sc": 3104,
      "Ġver": 3105,
      "Ġtit": 3106,
      "Ġmale": 3107,
      "ises": 3108,
      "Ġran": 3109,
      "Ġcooper": 3110,
      "Ġimposs": 3111,
      "ips": 3112,
      "Ġhumanity": 3113,
      "Ġhimself": 3114,
      "Ġmoments": 3115,
      "Ġ198": 3116,
      "Ġemotion": 3117,
      "Ġsuccessful": 3118,
      "Ġjournal": 3119,
      "oid": 3120,
      "ping": 3121,
      "Ġurban": 3122,
      "Ġtiss": 3123,
      "inist": 3124,
      "atory": 3125,
      "atically": 3126,
      "Ġcard": 3127,
      "Ġine": 3128,
      "iring": 3129,
      "Ġshot": 3130,
      "Ġshift": 3131,
      "Ġcomfort": 3132,
      "ife": 3133,
      "unk": 3134,
      "Ġspeech": 3135,
      "Ġcrime": 3136,
      "Ġpieces": 3137,
      "Ġallows": 3138,
      "Ġclassroom": 3139,
      "Ġautom": 3140,
      "Ġdestro": 3141,
      "Ġcolleagues": 3142,
      "rum": 3143,
      "Ġut": 3144,
      "Ġsand": 3145,
      "Ġtown": 3146,
      "Ġfram": 3147,
      "Ġwealth": 3148,
      "ops": 3149,
      "Ġalive": 3150,
      "quit": 3151,
      "Ġrid": 3152,
      "ables": 3153,
      "phone": 3154,
      "cons": 3155,
      "Ġhelped": 3156,
      "Ġartist": 3157,
      "Ġregion": 3158,
      "Ġswim": 3159,
      "Ġaddress": 3160,
      "Ġinnov": 3161,
      "Ġprivate": 3162,
      "Ġdoctor": 3163,
      "Ġneighborhood": 3164,
      "Ġfascin": 3165,
      "fact": 3166,
      "zz": 3167,
      "Ġmut": 3168,
      "Ġmention": 3169,
      "Ġhur": 3170,
      "Ġlate": 3171,
      "Ġgraph": 3172,
      "Ġjump": 3173,
      "Ġactive": 3174,
      "Ġ11": 3175,
      "Ġfac": 3176,
      "Ġapply": 3177,
      "Ġpoverty": 3178,
      "Ġspeaking": 3179,
      "Ġbrand": 3180,
      "akes": 3181,
      "Ġfold": 3182,
      "Ġfeels": 3183,
      "Ġservice": 3184,
      "Ġinsects": 3185,
      "Ġwebsite": 3186,
      "bon": 3187,
      "Ġbodies": 3188,
      "Ġmine": 3189,
      "Ġmatch": 3190,
      "Ġdad": 3191,
      "thod": 3192,
      "ghan": 3193,
      "Ġstri": 3194,
      "amp": 3195,
      "Ġlau": 3196,
      "Ġafghan": 3197,
      "Ġinstance": 3198,
      "Ġcrim": 3199,
      "Ġdriving": 3200,
      "Ġdeliver": 3201,
      "Ġdangerous": 3202,
      "Ġocean": 3203,
      "look": 3204,
      "Ġwide": 3205,
      "Ġsad": 3206,
      "outh": 3207,
      "Ġbul": 3208,
      "Ġhi": 3209,
      "Ġpack": 3210,
      "Ġfix": 3211,
      "Ġdel": 3212,
      "Ġ13": 3213,
      "Ġexpensive": 3214,
      "Ġ24": 3215,
      "Ġtraffic": 3216,
      "versity": 3217,
      "Ġfamous": 3218,
      "Ġrespect": 3219,
      "Ġexplore": 3220,
      "Ġfacebook": 3221,
      "Ġoppos": 3222,
      "Ġemotions": 3223,
      "Ġclearly": 3224,
      "Ġremarkable": 3225,
      "gor": 3226,
      "mon": 3227,
      "pro": 3228,
      "Ġx": 3229,
      "Ġfat": 3230,
      "Ġlat": 3231,
      "Ġkil": 3232,
      "Ġtherefore": 3233,
      "Ġactual": 3234,
      "Ġ17": 3235,
      "Ġmanage": 3236,
      "itted": 3237,
      "ologists": 3238,
      "Ġphen": 3239,
      "Ġsyn": 3240,
      "Ġresist": 3241,
      "Ġtrain": 3242,
      "Ġrace": 3243,
      "Ġuseful": 3244,
      "Ġseries": 3245,
      "Ġunique": 3246,
      "Ġcareer": 3247,
      "Ġpublished": 3248,
      "Ġsorts": 3249,
      "Ġgradu": 3250,
      "Ġshared": 3251,
      "Ġmoral": 3252,
      "Ġcondition": 3253,
      "Ġfollowing": 3254,
      "Ġindustrial": 3255,
      "Ġindepend": 3256,
      "Ġvacc": 3257,
      "Ġstraight": 3258,
      "Ġearlier": 3259,
      "Ġimpossible": 3260,
      "bu": 3261,
      "atives": 3262,
      "esome": 3263,
      "Ġyell": 3264,
      "Ġeth": 3265,
      "Ġnotice": 3266,
      "Ġlack": 3267,
      "Ġtax": 3268,
      "Ġboard": 3269,
      "Ġdecades": 3270,
      "Ġsurger": 3271,
      "Ġbiology": 3272,
      "Ġchallenges": 3273,
      "Ġrobots": 3274,
      "Ġtypes": 3275,
      "Ġinspired": 3276,
      "Ġmultip": 3277,
      "Ġversion": 3278,
      "Ġrecognize": 3279,
      "Ġfloor": 3280,
      "Ġfantastic": 3281,
      "imagine": 3282,
      "Ġcustom": 3283,
      "cut": 3284,
      "pare": 3285,
      "Ġtree": 3286,
      "Ġign": 3287,
      "Ġbat": 3288,
      "Ġhang": 3289,
      "ened": 3290,
      "Ġlose": 3291,
      "isis": 3292,
      "iti": 3293,
      "oting": 3294,
      "idge": 3295,
      "cient": 3296,
      "Ġplants": 3297,
      "emic": 3298,
      "Ġrain": 3299,
      "Ġgreater": 3300,
      "Ġsolar": 3301,
      "Ġhearing": 3302,
      "Ġmotiv": 3303,
      "Ġoxy": 3304,
      "aign": 3305,
      "dom": 3306,
      "Ġtv": 3307,
      "Ġhus": 3308,
      "Ġet": 3309,
      "ays": 3310,
      "Ġstick": 3311,
      "iling": 3312,
      "Ġsaving": 3313,
      "who": 3314,
      "Ġsurve": 3315,
      "Ġsupply": 3316,
      "Ġlaws": 3317,
      "Ġfamiliar": 3318,
      "Ġpurp": 3319,
      "Ġcloser": 3320,
      "des": 3321,
      "Ġsite": 3322,
      "ndon": 3323,
      "Ġgas": 3324,
      "Ġforth": 3325,
      "ceed": 3326,
      "Ġpros": 3327,
      "Ġwhose": 3328,
      "osoph": 3329,
      "Ġtrade": 3330,
      "Ġcrisis": 3331,
      "Ġpoints": 3332,
      "Ġ500": 3333,
      "Ġcommunication": 3334,
      "Ġphilosoph": 3335,
      "Ġphenomen": 3336,
      "Ġmort": 3337,
      "onst": 3338,
      "Ġlink": 3339,
      "Ġbeat": 3340,
      "Ġanal": 3341,
      "Ġanyway": 3342,
      "Ġlondon": 3343,
      "ounds": 3344,
      "Ġimagination": 3345,
      "Ġcapacity": 3346,
      "Ġvalues": 3347,
      "ography": 3348,
      "Ġphotos": 3349,
      "Ġprofound": 3350,
      "Ġhistor": 3351,
      "Ġnetwor": 3352,
      "Ġinstitutions": 3353,
      "eth": 3354,
      "Ġ$": 3355,
      "Ġtap": 3356,
      "orrow": 3357,
      "Ġlower": 3358,
      "Ġlines": 3359,
      "think": 3360,
      "ained": 3361,
      "ressed": 3362,
      "Ġslight": 3363,
      "Ġeffects": 3364,
      "Ġawesome": 3365,
      "Ġincreasing": 3366,
      "Ġeleph": 3367,
      "Ġwindow": 3368,
      "Ġcampaign": 3369,
      "Ġfinancial": 3370,
      "Ġmetaphor": 3371,
      "Ġben": 3372,
      "Ġmamm": 3373,
      "Ġhous": 3374,
      "anced": 3375,
      "Ġnarr": 3376,
      "Ġwild": 3377,
      "Ġapplic": 3378,
      "ishing": 3379,
      "Ġdifferently": 3380,
      "Ġscan": 3381,
      "orders": 3382,
      "Ġcreativity": 3383,
      "Ġplayed": 3384,
      "Ġseconds": 3385,
      "Ġcomplete": 3386,
      "Ġwaiting": 3387,
      "Ġdeterm": 3388,
      "Ġmagn": 3389,
      "Ġcopy": 3390,
      "Ġbirds": 3391,
      "Ġtelevision": 3392,
      "Ġcorrect": 3393,
      "band": 3394,
      "rical": 3395,
      "Ġmouth": 3396,
      "Ġhall": 3397,
      "icians": 3398,
      "Ġweap": 3399,
      "owd": 3400,
      "Ġmoon": 3401,
      "Ġmethod": 3402,
      "Ġchoices": 3403,
      "Ġupon": 3404,
      "Ġnoise": 3405,
      "Ġdifferences": 3406,
      "Ġraised": 3407,
      "Ġsurround": 3408,
      "Ġinvent": 3409,
      "Ġphysics": 3410,
      "Ġpopular": 3411,
      "Ġmodels": 3412,
      "Ġlevels": 3413,
      "Ġrelationships": 3414,
      "Ġproducts": 3415,
      "Ġwalls": 3416,
      "Ġembra": 3417,
      "Ġnearly": 3418,
      "Ġwashing": 3419,
      "Ġrandom": 3420,
      "bel": 3421,
      "zil": 3422,
      "Ġble": 3423,
      "Ġmid": 3424,
      "Ġmuse": 3425,
      "another": 3426,
      "itter": 3427,
      "Ġeg": 3428,
      "Ġham": 3429,
      "sem": 3430,
      "raid": 3431,
      "Ġgold": 3432,
      "Ġagree": 3433,
      "Ġcover": 3434,
      "ologist": 3435,
      "Ġhero": 3436,
      "Ġchildhood": 3437,
      "Ġdecade": 3438,
      "Ġaccur": 3439,
      "Ġsymbol": 3440,
      "Ġcommunicate": 3441,
      "her": 3442,
      "Ġara": 3443,
      "Ġdance": 3444,
      "Ġdying": 3445,
      "Ġisland": 3446,
      "Ġstars": 3447,
      "Ġsomehow": 3448,
      "Ġinteg": 3449,
      "Ġrange": 3450,
      "apt": 3451,
      "Ġafraid": 3452,
      "ended": 3453,
      "rench": 3454,
      "Ġhighly": 3455,
      "Ġstopped": 3456,
      "Ġstandard": 3457,
      "Ġdevices": 3458,
      "Ġexperiments": 3459,
      "Ġafghanistan": 3460,
      "hold": 3461,
      "Ġsister": 3462,
      "Ġfra": 3463,
      "ama": 3464,
      "Ġaspect": 3465,
      "Ġrom": 3466,
      "Ġruss": 3467,
      "Ġscore": 3468,
      "Ġcolors": 3469,
      "bles": 3470,
      "Ġeffic": 3471,
      "Ġlights": 3472,
      "Ġfunny": 3473,
      "Ġprograms": 3474,
      "Ġdemonst": 3475,
      "Ġvarious": 3476,
      "Ġmalaria": 3477,
      "panze": 3478,
      "Ġterrible": 3479,
      "Ġdespite": 3480,
      "Ġimmediately": 3481,
      "from": 3482,
      "hy": 3483,
      "ratic": 3484,
      "Ġtask": 3485,
      "Ġahead": 3486,
      "Ġira": 3487,
      "Ġbought": 3488,
      "ulate": 3489,
      "iles": 3490,
      "Ġteen": 3491,
      "Ġprice": 3492,
      "rupt": 3493,
      "Ġtechni": 3494,
      "Ġcentral": 3495,
      "Ġhealthy": 3496,
      "Ġconnection": 3497,
      "ashion": 3498,
      "Ġmissing": 3499,
      "Ġvolunt": 3500,
      "Ġbreath": 3501,
      "aff": 3502,
      "Ġcogn": 3503,
      "Ġbase": 3504,
      "eness": 3505,
      "ancy": 3506,
      "Ġnations": 3507,
      "Ġgent": 3508,
      "second": 3509,
      "Ġhey": 3510,
      "erson": 3511,
      "Ġnoticed": 3512,
      "Ġintel": 3513,
      "Ġcompon": 3514,
      "Ġdispl": 3515,
      "Ġoffer": 3516,
      "Ġbrazil": 3517,
      "Ġunderstood": 3518,
      "Ġrelative": 3519,
      "Ġbreast": 3520,
      "Ġvirus": 3521,
      "Ġfocused": 3522,
      "Ġleadership": 3523,
      "Ġvirtual": 3524,
      "Ġsurgery": 3525,
      "Ġmuseum": 3526,
      "Ġdav": 3527,
      "Ġdram": 3528,
      "ales": 3529,
      "Ġsect": 3530,
      "Ġworst": 3531,
      "Ġalgor": 3532,
      "Ġuses": 3533,
      "Ġrule": 3534,
      "Ġplat": 3535,
      "Ġnovel": 3536,
      "ager": 3537,
      "Ġincome": 3538,
      "Ġkept": 3539,
      "Ġproduction": 3540,
      "Ġsmaller": 3541,
      "Ġanswers": 3542,
      "Ġdeeply": 3543,
      "Ġmeeting": 3544,
      "Ġcalcul": 3545,
      "Ġessentially": 3546,
      "Ġoccur": 3547,
      "instead": 3548,
      "Ġprevent": 3549,
      "Ġpolicy": 3550,
      "Ġkeny": 3551,
      "Ġalgorith": 3552,
      "hib": 3553,
      "ses": 3554,
      "Ġmix": 3555,
      "though": 3556,
      "isco": 3557,
      "Ġep": 3558,
      "Ġremo": 3559,
      "Ġenorm": 3560,
      "Ġfaces": 3561,
      "Ġcof": 3562,
      "Ġclimate": 3563,
      "Ġcauses": 3564,
      "Ġflight": 3565,
      "Ġhelping": 3566,
      "Ġbelief": 3567,
      "Ġtrials": 3568,
      "Ġcorpor": 3569,
      "Ġfarm": 3570,
      "Ġleader": 3571,
      "Ġdepression": 3572,
      "Ġspending": 3573,
      "Ġsuffering": 3574,
      "Ġelectricity": 3575,
      "Ġtrouble": 3576,
      "Ġetc": 3577,
      "Ġgentle": 3578,
      "ball": 3579,
      "know": 3580,
      "wise": 3581,
      "Ġbag": 3582,
      "Ġdin": 3583,
      "those": 3584,
      "Ġgar": 3585,
      "leg": 3586,
      "lled": 3587,
      "child": 3588,
      "Ġlibr": 3589,
      "Ġmexic": 3590,
      "antic": 3591,
      "Ġspect": 3592,
      "Ġthanks": 3593,
      "Ġamb": 3594,
      "Ġtrial": 3595,
      "Ġsolutions": 3596,
      "ission": 3597,
      "Ġcorner": 3598,
      "Ġmatters": 3599,
      "Ġstream": 3600,
      "idden": 3601,
      "Ġradio": 3602,
      "Ġnegative": 3603,
      "Ġdepartment": 3604,
      "gl": 3605,
      "ray": 3606,
      "Ġnone": 3607,
      "Ġdog": 3608,
      "rap": 3609,
      "Ġsea": 3610,
      "Ġselect": 3611,
      "Ġspo": 3612,
      "aging": 3613,
      "athy": 3614,
      "Ġscri": 3615,
      "ording": 3616,
      "Ġ300": 3617,
      "Ġfinal": 3618,
      "Ġstuck": 3619,
      "Ġgender": 3620,
      "Ġdescribe": 3621,
      "Ġbritish": 3622,
      "Ġentrepreneurs": 3623,
      "Ġchimpanze": 3624,
      "Ġaustral": 3625,
      "Ġur": 3626,
      "inct": 3627,
      "Ġiron": 3628,
      "aling": 3629,
      "icking": 3630,
      "Ġweight": 3631,
      "oty": 3632,
      "Ġang": 3633,
      "Ġking": 3634,
      "ada": 3635,
      "Ġjustice": 3636,
      "Ġanywhere": 3637,
      "Ġcloud": 3638,
      "Ġrare": 3639,
      "connect": 3640,
      "aced": 3641,
      "Ġfully": 3642,
      "Ġsky": 3643,
      "Ġjoy": 3644,
      "Ġbusinesses": 3645,
      "Ġconduct": 3646,
      "Ġmagaz": 3647,
      "Ġcircle": 3648,
      "Ġdemand": 3649,
      "Ġdirectly": 3650,
      "Ġflying": 3651,
      "Ġresponsibility": 3652,
      "Ġexperiences": 3653,
      "load": 3654,
      "cil": 3655,
      "gress": 3656,
      "Ġten": 3657,
      "Ġwood": 3658,
      "Ġcateg": 3659,
      "Ġdrop": 3660,
      "Ġwhom": 3661,
      "Ġforg": 3662,
      "umb": 3663,
      "osy": 3664,
      "Ġcontract": 3665,
      "Ġcommer": 3666,
      "Ġcommit": 3667,
      "Ġcreates": 3668,
      "ibilities": 3669,
      "Ġartists": 3670,
      "Ġconser": 3671,
      "Ġpresident": 3672,
      "Ġfollowed": 3673,
      "Ġnewsp": 3674,
      "Ġresponsible": 3675,
      "Ġadults": 3676,
      "Ġmosquit": 3677,
      "bble": 3678,
      "ked": 3679,
      "me": 3680,
      "ront": 3681,
      "take": 3682,
      "wide": 3683,
      "ypt": 3684,
      "Ġbound": 3685,
      "Ġbacter": 3686,
      "Ġholes": 3687,
      "Ġfashion": 3688,
      "edd": 3689,
      "Ġgard": 3690,
      "Ġshop": 3691,
      "Ġexer": 3692,
      "Ġclo": 3693,
      "Ġparty": 3694,
      "ensity": 3695,
      "Ġmostly": 3696,
      "Ġexperts": 3697,
      "Ġaccom": 3698,
      "Ġlanguages": 3699,
      "Ġmarkets": 3700,
      "Ġbringing": 3701,
      "Ġtreated": 3702,
      "Ġafrican": 3703,
      "Ġmembers": 3704,
      "Ġfighting": 3705,
      "Ġshoes": 3706,
      "Ġchris": 3707,
      "Ġframe": 3708,
      "Ġyellow": 3709,
      "Ġnetworks": 3710,
      "Ġslightly": 3711,
      "Ġiraq": 3712,
      "Ġintellect": 3713,
      "la": 3714,
      "Ġhate": 3715,
      "term": 3716,
      "ension": 3717,
      "Ġinvented": 3718,
      "Ġlesson": 3719,
      "Ġeasily": 3720,
      "Ġelectron": 3721,
      "Ġbroken": 3722,
      "Ġscientist": 3723,
      "Ġdreams": 3724,
      "Ġecosy": 3725,
      "Ġhusband": 3726,
      "Ġecosystem": 3727,
      "cope": 3728,
      "ufact": 3729,
      "Ġwars": 3730,
      "nds": 3731,
      "Ġcand": 3732,
      "anc": 3733,
      "arian": 3734,
      "lear": 3735,
      "Ġrepe": 3736,
      "Ġhabit": 3737,
      "Ġwaste": 3738,
      "Ġkn": 3739,
      "Ġdefe": 3740,
      "Ġfrank": 3741,
      "Ġvast": 3742,
      "Ġseemed": 3743,
      "Ġrout": 3744,
      "apers": 3745,
      "Ġindian": 3746,
      "Ġgenes": 3747,
      "ception": 3748,
      "Ġconference": 3749,
      "Ġlegal": 3750,
      "Ġsurvive": 3751,
      "Ġtotal": 3752,
      "Ġdoctors": 3753,
      "Ġsustainable": 3754,
      "Ġvolunte": 3755,
      "ios": 3756,
      "Ġtrem": 3757,
      "Ġmad": 3758,
      "Ġtor": 3759,
      "Ġdar": 3760,
      "Ġwear": 3761,
      "lling": 3762,
      "Ġkore": 3763,
      "ume": 3764,
      "Ġaltern": 3765,
      "Ġrise": 3766,
      "osph": 3767,
      "Ġtrick": 3768,
      "Ġquant": 3769,
      "Ġevolved": 3770,
      "Ġriver": 3771,
      "Ġtwitter": 3772,
      "Ġgotten": 3773,
      "Ġfoundation": 3774,
      "Ġregret": 3775,
      "Ġpaint": 3776,
      "Ġenvironmental": 3777,
      "Ġdirection": 3778,
      "Ġfrequ": 3779,
      "board": 3780,
      "Ġbillions": 3781,
      "Ġbenefits": 3782,
      "Ġdiagn": 3783,
      "Ġdestroy": 3784,
      "Ġlaugh": 3785,
      "based": 3786,
      "win": 3787,
      "yle": 3788,
      "Ġwis": 3789,
      "Ġprou": 3790,
      "orge": 3791,
      "thm": 3792,
      "three": 3793,
      "Ġgift": 3794,
      "lement": 3795,
      "Ġstren": 3796,
      "Ġfort": 3797,
      "Ġshock": 3798,
      "tery": 3799,
      "estic": 3800,
      "Ġmaint": 3801,
      "Ġalthough": 3802,
      "Ġspaces": 3803,
      "Ġens": 3804,
      "while": 3805,
      "Ġmanufact": 3806,
      "Ġappear": 3807,
      "Ġdisc": 3808,
      "Ġdecide": 3809,
      "Ġbelow": 3810,
      "Ġattract": 3811,
      "Ġpossibility": 3812,
      "Ġdaily": 3813,
      "Ġpengu": 3814,
      "Ġsurvival": 3815,
      "Ġinterview": 3816,
      "Ġopposite": 3817,
      "Ġdavid": 3818,
      "iest": 3819,
      "tell": 3820,
      "Ġrough": 3821,
      "Ġsick": 3822,
      "Ġcru": 3823,
      "Ġmir": 3824,
      "Ġnut": 3825,
      "itor": 3826,
      "Ġeld": 3827,
      "Ġeating": 3828,
      "Ġreco": 3829,
      "Ġhair": 3830,
      "eter": 3831,
      "Ġhell": 3832,
      "ulous": 3833,
      "Ġfrust": 3834,
      "Ġeveryday": 3835,
      "Ġaging": 3836,
      "Ġrapid": 3837,
      "Ġinterp": 3838,
      "Ġcrowd": 3839,
      "Ġ196": 3840,
      "Ġ197": 3841,
      "Ġswitch": 3842,
      "Ġsympt": 3843,
      "Ġgrandmo": 3844,
      "Ġeuropean": 3845,
      "Ġunfortunately": 3846,
      "Ġreceived": 3847,
      "Ġlandscape": 3848,
      "Ġarab": 3849,
      "gar": 3850,
      "Ġil": 3851,
      "Ġhomes": 3852,
      "ening": 3853,
      "Ġfle": 3854,
      "Ġnav": 3855,
      "Ġweird": 3856,
      "Ġwire": 3857,
      "Ġforced": 3858,
      "Ġlies": 3859,
      "Ġund": 3860,
      "Ġabs": 3861,
      "Ġnote": 3862,
      "Ġknowing": 3863,
      "which": 3864,
      "Ġprime": 3865,
      "Ġacad": 3866,
      "Ġprotest": 3867,
      "Ġleading": 3868,
      "Ġaddition": 3869,
      "Ġforever": 3870,
      "Ġsexual": 3871,
      "Ġopportunities": 3872,
      "Ġmovies": 3873,
      "Ġdrawing": 3874,
      "Ġidentity": 3875,
      "Ġsurprising": 3876,
      "instein": 3877,
      "Ġreligion": 3878,
      "Ġnecessary": 3879,
      "Ġtarget": 3880,
      "Ġsignificant": 3881,
      "Ġpurpose": 3882,
      "Ġegypt": 3883,
      "Ġcoffe": 3884,
      "Ġscript": 3885,
      "care": 3886,
      "his": 3887,
      "lim": 3888,
      "parent": 3889,
      "vant": 3890,
      "rel": 3891,
      "Ġbon": 3892,
      "Ġban": 3893,
      "Ġbattle": 3894,
      "Ġmer": 3895,
      "Ġfol": 3896,
      "orry": 3897,
      "Ġgut": 3898,
      "Ġgun": 3899,
      "Ġmeas": 3900,
      "Ġshark": 3901,
      "Ġsharing": 3902,
      "Ġcha": 3903,
      "cks": 3904,
      "Ġsaf": 3905,
      "itely": 3906,
      "Ġfactory": 3907,
      "Ġcarbon": 3908,
      "Ġbrother": 3909,
      "Ġconstantly": 3910,
      "Ġholding": 3911,
      "Ġmission": 3912,
      "Ġsumm": 3913,
      "Ġcivilization": 3914,
      "Ġultimately": 3915,
      "Ġtissue": 3916,
      "Ġcognitive": 3917,
      "fl": 3918,
      "ike": 3919,
      "mark": 3920,
      "isms": 3921,
      "itude": 3922,
      "vere": 3923,
      "using": 3924,
      "Ġrot": 3925,
      "Ġarm": 3926,
      "Ġadapt": 3927,
      "Ġscul": 3928,
      "Ġsmell": 3929,
      "Ġpossibly": 3930,
      "Ġsignal": 3931,
      "Ġpassed": 3932,
      "Ġsucceed": 3933,
      "Ġforeign": 3934,
      "Ġuniversal": 3935,
      "Ġharv": 3936,
      "onym": 3937,
      "Ġexperienced": 3938,
      "Ġcounter": 3939,
      "Ġleaving": 3940,
      "bly": 3941,
      "iers": 3942,
      "life": 3943,
      "val": 3944,
      "Ġtro": 3945,
      "Ġsmo": 3946,
      "Ġcort": 3947,
      "Ġhiv": 3948,
      "Ġhidden": 3949,
      "Ġfir": 3950,
      "alk": 3951,
      "Ġlin": 3952,
      "Ġepid": 3953,
      "Ġreward": 3954,
      "irt": 3955,
      "Ġanaly": 3956,
      "thern": 3957,
      "aining": 3958,
      "bled": 3959,
      "Ġinvited": 3960,
      "Ġbelieved": 3961,
      "Ġbasis": 3962,
      "Ġregular": 3963,
      "Ġresearchers": 3964,
      "Ġentirely": 3965,
      "Ġstructures": 3966,
      "Ġbalance": 3967,
      "Ġenormous": 3968,
      "Ġcoffee": 3969,
      "dp": 3970,
      "gans": 3971,
      "iation": 3972,
      "Ġcore": 3973,
      "Ġbath": 3974,
      "Ġbang": 3975,
      "Ġmaster": 3976,
      "Ġpages": 3977,
      "Ġfrench": 3978,
      "Ġdere": 3979,
      "Ġgap": 3980,
      "Ġgps": 3981,
      "Ġreve": 3982,
      "see": 3983,
      "ston": 3984,
      "Ġforces": 3985,
      "riage": 3986,
      "Ġunp": 3987,
      "Ġpole": 3988,
      "Ġbackground": 3989,
      "Ġcaught": 3990,
      "Ġregions": 3991,
      "Ġeasier": 3992,
      "Ġamazon": 3993,
      "Ġcollective": 3994,
      "Ġlimited": 3995,
      "Ġanti": 3996,
      "Ġconvin": 3997,
      "Ġpaid": 3998,
      "Ġmountain": 3999,
      "Ġdisappear": 4000,
      "Ġgalaxies": 4001,
      "aur": 4002,
      "cles": 4003,
      "dy": 4004,
      "wood": 4005,
      "your": 4006,
      "Ġodd": 4007,
      "Ġsnow": 4008,
      "Ġcos": 4009,
      "encies": 4010,
      "Ġdiction": 4011,
      "Ġnuc": 4012,
      "enty": 4013,
      "state": 4014,
      "ulf": 4015,
      "alled": 4016,
      "empt": 4017,
      "Ġfaith": 4018,
      "Ġfellow": 4019,
      "Ġclick": 4020,
      "Ġpartners": 4021,
      "Ġexpert": 4022,
      "Ġinvol": 4023,
      "Ġimportantly": 4024,
      "Ġconsid": 4025,
      "Ġedge": 4026,
      "Ġdiversity": 4027,
      "Ġvisit": 4028,
      "Ġfailure": 4029,
      "Ġsurprise": 4030,
      "Ġpressure": 4031,
      "Ġslowly": 4032,
      "Ġdamage": 4033,
      "Ġbirthday": 4034,
      "Ġphenomenon": 4035,
      "hand": 4036,
      "rating": 4037,
      "Ġthri": 4038,
      "Ġsorry": 4039,
      "eral": 4040,
      "Ġcook": 4041,
      "Ġcatch": 4042,
      "Ġbow": 4043,
      "Ġlu": 4044,
      "thetic": 4045,
      "Ġprove": 4046,
      "iforn": 4047,
      "Ġorch": 4048,
      "cked": 4049,
      "Ġfab": 4050,
      "Ġfacing": 4051,
      "Ġlegs": 4052,
      "Ġquiet": 4053,
      "Ġletter": 4054,
      "Ġgene": 4055,
      "Ġarticle": 4056,
      "Ġtrip": 4057,
      "Ġpatent": 4058,
      "Ġvalu": 4059,
      "Ġlawy": 4060,
      "Ġmicros": 4061,
      "Ġengineering": 4062,
      "Ġreduce": 4063,
      "Ġlucky": 4064,
      "Ġfascinating": 4065,
      "Ġkenya": 4066,
      "Ġtremend": 4067,
      "ifornia": 4068,
      "yes": 4069,
      "Ġaid": 4070,
      "Ġsight": 4071,
      "Ġmouse": 4072,
      "arm": 4073,
      "Ġgh": 4074,
      "Ġstation": 4075,
      "Ġlie": 4076,
      "Ġmoves": 4077,
      "Ġmyster": 4078,
      "Ġnotes": 4079,
      "Ġvoices": 4080,
      "Ġworldwide": 4081,
      "Ġcla": 4082,
      "Ġprep": 4083,
      "Ġstudying": 4084,
      "bling": 4085,
      "Ġsimpl": 4086,
      "Ġhelps": 4087,
      "Ġslide": 4088,
      "Ġopened": 4089,
      "Ġdiscovery": 4090,
      "Ġadvant": 4091,
      "Ġharm": 4092,
      "Ġcalifornia": 4093,
      "Ġfailed": 4094,
      "Ġprofessor": 4095,
      "Ġsummer": 4096,
      "Ġveh": 4097,
      "Ġnecessarily": 4098,
      "Ġdouble": 4099,
      "Ġseparate": 4100,
      "Ġstrategy": 4101,
      "Ġconsequences": 4102,
      "Ġcriminal": 4103,
      "Ġwisdom": 4104,
      "each": 4105,
      "lin": 4106,
      "Ġtast": 4107,
      "Ġwon": 4108,
      "oun": 4109,
      "Ġcred": 4110,
      "icate": 4111,
      "Ġwearing": 4112,
      "Ġmel": 4113,
      "Ġheld": 4114,
      "Ġshel": 4115,
      "Ġsport": 4116,
      "ival": 4117,
      "Ġarms": 4118,
      "angers": 4119,
      "Ġpoet": 4120,
      "Ġboat": 4121,
      "Ġyounger": 4122,
      "Ġproduced": 4123,
      "Ġstupid": 4124,
      "Ġleads": 4125,
      "Ġbegins": 4126,
      "Ġprofit": 4127,
      "Ġinvestig": 4128,
      "Ġelements": 4129,
      "Ġperfectly": 4130,
      "Ġextreme": 4131,
      "Ġoriginal": 4132,
      "Ġlady": 4133,
      "Ġmathematics": 4134,
      "Ġindependent": 4135,
      "Ġmortality": 4136,
      "Ġstrength": 4137,
      "Ġilleg": 4138,
      "Ġfolks": 4139,
      "bing": 4140,
      "mber": 4141,
      "oom": 4142,
      "reg": 4143,
      "Ġmars": 4144,
      "Ġtoile": 4145,
      "Ġfal": 4146,
      "Ġfed": 4147,
      "Ġflex": 4148,
      "asion": 4149,
      "Ġrecy": 4150,
      "oted": 4151,
      "Ġmyth": 4152,
      "Ġorgans": 4153,
      "Ġmaps": 4154,
      "ques": 4155,
      "Ġcoast": 4156,
      "ford": 4157,
      "Ġresc": 4158,
      "Ġprevious": 4159,
      "Ġpossibilities": 4160,
      "Ġgrade": 4161,
      "Ġcultures": 4162,
      "Ġmarried": 4163,
      "Ġdrink": 4164,
      "Ġpaying": 4165,
      "Ġstatistics": 4166,
      "Ġmolecules": 4167,
      "imensional": 4168,
      "Ġlosing": 4169,
      "Ġmultiple": 4170,
      "Ġdinner": 4171,
      "Ġmexico": 4172,
      "Ġsafety": 4173,
      "Ġsculpt": 4174,
      "four": 4175,
      "uge": 4176,
      "vity": 4177,
      "Ġtum": 4178,
      "Ġwit": 4179,
      "rees": 4180,
      "Ġsen": 4181,
      "Ġbear": 4182,
      "Ġstood": 4183,
      "Ġdoz": 4184,
      "rael": 4185,
      "ament": 4186,
      "riend": 4187,
      "Ġchart": 4188,
      "quality": 4189,
      "heim": 4190,
      "Ġcontact": 4191,
      "Ġstudied": 4192,
      "Ġcapable": 4193,
      "Ġplanning": 4194,
      "Ġharder": 4195,
      "Ġ400": 4196,
      "Ġdistance": 4197,
      "Ġparad": 4198,
      "Ġrestaur": 4199,
      "Ġfears": 4200,
      "Ġhorri": 4201,
      "Ġtypical": 4202,
      "Ġbright": 4203,
      "Ġessential": 4204,
      "Ġsilence": 4205,
      "Ġbudget": 4206,
      "Ġshapes": 4207,
      "Ġsequence": 4208,
      "osphere": 4209,
      "ipped": 4210,
      "tle": 4211,
      "inate": 4212,
      "Ġmit": 4213,
      "Ġhide": 4214,
      "Ġdue": 4215,
      "Ġeinstein": 4216,
      "Ġbee": 4217,
      "Ġancient": 4218,
      "Ġfranc": 4219,
      "Ġvote": 4220,
      "istry": 4221,
      "iger": 4222,
      "Ġcompared": 4223,
      "Ġunless": 4224,
      "Ġappe": 4225,
      "Ġperce": 4226,
      "resh": 4227,
      "Ġtwice": 4228,
      "acters": 4229,
      "ints": 4230,
      "Ġprefer": 4231,
      "Ġinvis": 4232,
      "Ġtransm": 4233,
      "Ġcreatures": 4234,
      "Ġaccording": 4235,
      "Ġcharacters": 4236,
      "Ġinvestment": 4237,
      "Ġprotection": 4238,
      "Ġmotor": 4239,
      "Ġmotion": 4240,
      "Ġhorse": 4241,
      "Ġmicrobes": 4242,
      "Ġempathy": 4243,
      "Ġcircum": 4244,
      "Ġconversations": 4245,
      "Ġpromise": 4246,
      "Ġreligious": 4247,
      "Ġfeedback": 4248,
      "Ġleaves": 4249,
      "Ġemploye": 4250,
      "Ġdocument": 4251,
      "Ġlaunched": 4252,
      "Ġslavery": 4253,
      "Ġnarrative": 4254,
      "Ġweapons": 4255,
      "Ġmagazine": 4256,
      "Ġintellectual": 4257,
      "Ġproud": 4258,
      "Ġcosm": 4259,
      "cra": 4260,
      "cap": 4261,
      "iat": 4262,
      "mak": 4263,
      "ties": 4264,
      "Ġtwe": 4265,
      "Ġax": 4266,
      "Ġcere": 4267,
      "Ġpil": 4268,
      "Ġnar": 4269,
      "arter": 4270,
      "Ġwhist": 4271,
      "Ġstress": 4272,
      "Ġju": 4273,
      "Ġship": 4274,
      "Ġchap": 4275,
      "Ġvul": 4276,
      "Ġevents": 4277,
      "Ġ22": 4278,
      "ruption": 4279,
      "Ġprecise": 4280,
      "Ġhighest": 4281,
      "Ġenter": 4282,
      "Ġattach": 4283,
      "Ġeconomics": 4284,
      "Ġaccident": 4285,
      "rete": 4286,
      "ographic": 4287,
      "Ġeffectively": 4288,
      "Ġwatched": 4289,
      "Ġconstruct": 4290,
      "Ġlimit": 4291,
      "Ġprofessional": 4292,
      "Ġbenefit": 4293,
      "Ġturning": 4294,
      "Ġtomorrow": 4295,
      "known": 4296,
      "gust": 4297,
      "hi": 4298,
      "sometimes": 4299,
      "Ġtour": 4300,
      "reci": 4301,
      "erve": 4302,
      "Ġburn": 4303,
      "Ġhoney": 4304,
      "Ġfro": 4305,
      "anes": 4306,
      "Ġlions": 4307,
      "Ġloss": 4308,
      "omy": 4309,
      "uries": 4310,
      "iration": 4311,
      "amb": 4312,
      "ulated": 4313,
      "ifically": 4314,
      "osis": 4315,
      "izes": 4316,
      "Ġmanaged": 4317,
      "Ġquote": 4318,
      "iable": 4319,
      "Ġtrained": 4320,
      "Ġpuzz": 4321,
      "Ġends": 4322,
      "Ġinsight": 4323,
      "Ġfinished": 4324,
      "Ġsubm": 4325,
      "Ġsubst": 4326,
      "Ġbiological": 4327,
      "Ġconnections": 4328,
      "Ġordinary": 4329,
      "Ġequal": 4330,
      "Ġavoid": 4331,
      "Ġautism": 4332,
      "Ġbrill": 4333,
      "Ġtemper": 4334,
      "Ġgalaxy": 4335,
      "Ġcartoon": 4336,
      "Ġinfluence": 4337,
      "Ġdistribution": 4338,
      "Ġcomfortable": 4339,
      "hythm": 4340,
      "Ġplatform": 4341,
      "Ġlibrary": 4342,
      "Ġbacteria": 4343,
      "Ġgrandmother": 4344,
      "Ġwitness": 4345,
      "heimer": 4346,
      "fo": 4347,
      "rit": 4348,
      "zheimer": 4349,
      "Ġband": 4350,
      "Ġdip": 4351,
      "Ġrecon": 4352,
      "Ġchann": 4353,
      "their": 4354,
      "cket": 4355,
      "Ġalt": 4356,
      "Ġspot": 4357,
      "Ġsugar": 4358,
      "iving": 4359,
      "Ġclim": 4360,
      "Ġphones": 4361,
      "Ġpregn": 4362,
      "ysis": 4363,
      "Ġbrings": 4364,
      "neath": 4365,
      "Ġdiet": 4366,
      "Ġplane": 4367,
      "Ġvideos": 4368,
      "Ġinfin": 4369,
      "Ġinfrast": 4370,
      "Ġjoin": 4371,
      "Ġknee": 4372,
      "Ġradical": 4373,
      "Ġdemocratic": 4374,
      "Ġsurprised": 4375,
      "Ġmolecular": 4376,
      "Ġcurrently": 4377,
      "Ġblocks": 4378,
      "Ġproperty": 4379,
      "Ġdetails": 4380,
      "Ġconsciousness": 4381,
      "Ġbombs": 4382,
      "Ġroughly": 4383,
      "Ġnavig": 4384,
      "Ġtremendous": 4385,
      "Ġinfrastruct": 4386,
      "cop": 4387,
      "cast": 4388,
      "ik": 4389,
      "spe": 4390,
      "ubl": 4391,
      "Ġing": 4392,
      "Ġtens": 4393,
      "inking": 4394,
      "inated": 4395,
      "Ġbare": 4396,
      "Ġtoward": 4397,
      "Ġfing": 4398,
      "Ġanonym": 4399,
      "Ġroof": 4400,
      "Ġempt": 4401,
      "Ġgrown": 4402,
      "Ġbridge": 4403,
      "Ġfactors": 4404,
      "Ġflies": 4405,
      "Ġstudio": 4406,
      "Ġtranspl": 4407,
      "Ġremote": 4408,
      "Ġbits": 4409,
      "olds": 4410,
      "however": 4411,
      "Ġphysic": 4412,
      "Ġkeeping": 4413,
      "Ġmarriage": 4414,
      "Ġlocation": 4415,
      "Ġcheap": 4416,
      "Ġmessages": 4417,
      "Ġinstitution": 4418,
      "Ġstatus": 4419,
      "Ġtonight": 4420,
      "Ġgerman": 4421,
      "Ġarrived": 4422,
      "Ġdynamic": 4423,
      "Ġconcerned": 4424,
      "Ġincreasingly": 4425,
      "Ġefficient": 4426,
      "Ġaustralia": 4427,
      "Ġsymptoms": 4428,
      "Ġcortex": 4429,
      "Ġderek": 4430,
      "Ġadvantage": 4431,
      "Ġillegal": 4432,
      "Ġfrancisco": 4433,
      "Ġinvisible": 4434,
      "Ġvulner": 4435,
      "bur": 4436,
      "cest": 4437,
      "ius": 4438,
      "ncy": 4439,
      "since": 4440,
      "Ġera": 4441,
      "Ġtough": 4442,
      "Ġcure": 4443,
      "Ġgiant": 4444,
      "Ġisol": 4445,
      "Ġisrael": 4446,
      "urch": 4447,
      "Ġug": 4448,
      "Ġabst": 4449,
      "Ġcanada": 4450,
      "anted": 4451,
      "Ġalzheimer": 4452,
      "Ġrub": 4453,
      "Ġwhenever": 4454,
      "Ġthinks": 4455,
      "Ġunus": 4456,
      "Ġapple": 4457,
      "Ġages": 4458,
      "ablish": 4459,
      "Ġdisgust": 4460,
      "Ġclosed": 4461,
      "Ġunderneath": 4462,
      "Ġgrid": 4463,
      "aked": 4464,
      "cont": 4465,
      "Ġgenome": 4466,
      "Ġbelong": 4467,
      "Ġfeelings": 4468,
      "Ġdollar": 4469,
      "Ġwheel": 4470,
      "Ġrefuge": 4471,
      "Ġdefine": 4472,
      "Ġairpl": 4473,
      "Ġadvanced": 4474,
      "Ġtedt": 4475,
      "Ġdeeper": 4476,
      "Ġcollection": 4477,
      "Ġhypo": 4478,
      "Ġnegot": 4479,
      "Ġdomestic": 4480,
      "Ġfairly": 4481,
      "Ġstruggle": 4482,
      "Ġassociated": 4483,
      "build": 4484,
      "Ġcustomers": 4485,
      "parency": 4486,
      "Ġsurvey": 4487,
      "Ġwashington": 4488,
      "Ġdisplay": 4489,
      "Ġsector": 4490,
      "Ġexercise": 4491,
      "lom": 4492,
      "Ġaids": 4493,
      "Ġsate": 4494,
      "enes": 4495,
      "once": 4496,
      "through": 4497,
      "Ġweather": 4498,
      "Ġresol": 4499,
      "otic": 4500,
      "Ġancest": 4501,
      "Ġmothers": 4502,
      "Ġworried": 4503,
      "pper": 4504,
      "Ġexch": 4505,
      "Ġfaced": 4506,
      "Ġotherwise": 4507,
      "Ġcovered": 4508,
      "Ġscene": 4509,
      "Ġgoods": 4510,
      "Ġflower": 4511,
      "Ġtechnical": 4512,
      "Ġmusical": 4513,
      "Ġrelated": 4514,
      "Ġhunt": 4515,
      "Ġdesigners": 4516,
      "ification": 4517,
      "Ġproto": 4518,
      "Ġcourage": 4519,
      "ometers": 4520,
      "Ġcamer": 4521,
      "Ġcurious": 4522,
      "Ġ150": 4523,
      "Ġhyper": 4524,
      "Ġpleasure": 4525,
      "Ġengineers": 4526,
      "Ġcycle": 4527,
      "Ġrelease": 4528,
      "Ġtracking": 4529,
      "Ġestablish": 4530,
      "Ġelephant": 4531,
      "Ġhouses": 4532,
      "Ġforgot": 4533,
      "Ġgarden": 4534,
      "Ġconvinced": 4535,
      "Ġinfrastructure": 4536,
      "Ġsatell": 4537,
      "bal": 4538,
      "cal": 4539,
      "fortunately": 4540,
      "gment": 4541,
      "house": 4542,
      "ns": 4543,
      "pes": 4544,
      "ta": 4545,
      "vit": 4546,
      "Ġround": 4547,
      "Ġthr": 4548,
      "Ġip": 4549,
      "Ġhom": 4550,
      "enn": 4551,
      "Ġfiction": 4552,
      "Ġgree": 4553,
      "Ġgather": 4554,
      "Ġweak": 4555,
      "cend": 4556,
      "Ġmeat": 4557,
      "Ġexhib": 4558,
      "Ġven": 4559,
      "Ġmak": 4560,
      "Ġrat": 4561,
      "Ġsaved": 4562,
      "emy": 4563,
      "ief": 4564,
      "whel": 4565,
      "Ġuncle": 4566,
      "Ġexpand": 4567,
      "Ġdisp": 4568,
      "Ġoverwhel": 4569,
      "Ġcalling": 4570,
      "Ġblog": 4571,
      "Ġscr": 4572,
      "Ġdecl": 4573,
      "Ġletters": 4574,
      "Ġstorytell": 4575,
      "Ġcreation": 4576,
      "Ġorganized": 4577,
      "Ġpoliticians": 4578,
      "Ġheads": 4579,
      "Ġassign": 4580,
      "Ġconstruction": 4581,
      "Ġfigured": 4582,
      "Ġoperating": 4583,
      "Ġhonor": 4584,
      "Ġillness": 4585,
      "Ġfalling": 4586,
      "Ġparticipate": 4587,
      "Ġlifet": 4588,
      "Ġdefinition": 4589,
      "Ġislamic": 4590,
      "bb": 4591,
      "comes": 4592,
      "ox": 4593,
      "rim": 4594,
      "vous": 4595,
      "Ġtun": 4596,
      "Ġmas": 4597,
      "Ġfresh": 4598,
      "Ġdry": 4599,
      "Ġdots": 4600,
      "Ġlect": 4601,
      "ara": 4602,
      "Ġyouth": 4603,
      "Ġears": 4604,
      "idents": 4605,
      "Ġheat": 4606,
      "Ġgoals": 4607,
      "Ġchip": 4608,
      "ils": 4609,
      "Ġusers": 4610,
      "agers": 4611,
      "Ġappreci": 4612,
      "Ġfell": 4613,
      "Ġdisorder": 4614,
      "force": 4615,
      "Ġroll": 4616,
      "Ġpray": 4617,
      "Ġcontain": 4618,
      "Ġphr": 4619,
      "Ġadvert": 4620,
      "Ġdesper": 4621,
      "aks": 4622,
      "Ġfuel": 4623,
      "Ġopin": 4624,
      "Ġattempt": 4625,
      "Ġparticles": 4626,
      "Ġvisible": 4627,
      "Ġkilling": 4628,
      "Ġtesting": 4629,
      "Ġreview": 4630,
      "Ġcutting": 4631,
      "Ġpicked": 4632,
      "Ġabsolute": 4633,
      "Ġmajority": 4634,
      "Ġreplace": 4635,
      "Ġrequire": 4636,
      "Ġ1990": 4637,
      "Ġbomb": 4638,
      "Ġtransportation": 4639,
      "Ġresistance": 4640,
      "Ġembrace": 4641,
      "Ġinterpret": 4642,
      "Ġorchest": 4643,
      "Ġunusual": 4644,
      "20": 4645,
      "au": 4646,
      "aci": 4647,
      "den": 4648,
      "dimensional": 4649,
      "ec": 4650,
      "ky": 4651,
      "off": 4652,
      "ras": 4653,
      "sa": 4654,
      "uary": 4655,
      "zing": 4656,
      "Ġwow": 4657,
      "Ġsoph": 4658,
      "Ġbone": 4659,
      "Ġmich": 4660,
      "Ġdimens": 4661,
      "Ġdensity": 4662,
      "Ġinj": 4663,
      "Ġincent": 4664,
      "icated": 4665,
      "Ġkno": 4666,
      "Ġassem": 4667,
      "Ġjan": 4668,
      "Ġjail": 4669,
      "Ġatm": 4670,
      "Ġcongress": 4671,
      "uments": 4672,
      "again": 4673,
      "Ġunit": 4674,
      "Ġqual": 4675,
      "Ġagric": 4676,
      "Ġarmy": 4677,
      "being": 4678,
      "Ġcontrast": 4679,
      "Ġbrown": 4680,
      "Ġcourt": 4681,
      "Ġartific": 4682,
      "Ġdesigner": 4683,
      "hips": 4684,
      "Ġgenerate": 4685,
      "Ġgenerations": 4686,
      "Ġopening": 4687,
      "Ġvalley": 4688,
      "Ġelectrical": 4689,
      "Ġparal": 4690,
      "Ġsoul": 4691,
      "Ġelement": 4692,
      "Ġcomplexity": 4693,
      "Ġexpected": 4694,
      "Ġdirector": 4695,
      "Ġliterature": 4696,
      "Ġsteel": 4697,
      "Ġinclude": 4698,
      "Ġprivacy": 4699,
      "Ġsatis": 4700,
      "Ġsuffer": 4701,
      "Ġversus": 4702,
      "Ġpaul": 4703,
      "Ġflowers": 4704,
      "Ġencourage": 4705,
      "Ġvictims": 4706,
      "Ġheavy": 4707,
      "Ġfortun": 4708,
      "Ġbrilliant": 4709,
      "Ġdiplom": 4710,
      "Ġagricult": 4711,
      "fin": 4712,
      "would": 4713,
      "Ġtape": 4714,
      "Ġaug": 4715,
      "atures": 4716,
      "Ġber": 4717,
      "Ġpoo": 4718,
      "Ġpounds": 4719,
      "oration": 4720,
      "Ġinput": 4721,
      "Ġloud": 4722,
      "urally": 4723,
      "Ġshake": 4724,
      "Ġnotion": 4725,
      "Ġrural": 4726,
      "Ġhowever": 4727,
      "Ġcompare": 4728,
      "Ġperman": 4729,
      "Ġarrest": 4730,
      "Ġimplic": 4731,
      "Ġcalls": 4732,
      "Ġgray": 4733,
      "Ġcave": 4734,
      "Ġafterno": 4735,
      "Ġplayer": 4736,
      "Ġcorruption": 4737,
      "Ġprocessing": 4738,
      "Ġprocesses": 4739,
      "Ġsignals": 4740,
      "Ġkeeps": 4741,
      "Ġwondering": 4742,
      "Ġconstant": 4743,
      "Ġincreased": 4744,
      "Ġmarketing": 4745,
      "Ġhyd": 4746,
      "Ġengineer": 4747,
      "Ġexistence": 4748,
      "Ġmulti": 4749,
      "Ġpulled": 4750,
      "Ġrequires": 4751,
      "Ġterrif": 4752,
      "Ġseriously": 4753,
      "Ġawareness": 4754,
      "Ġdegree": 4755,
      "Ġdegrees": 4756,
      "Ġargue": 4757,
      "Ġdebate": 4758,
      "Ġcollaboration": 4759,
      "Ġiran": 4760,
      "Ġclinical": 4761,
      "Ġtitle": 4762,
      "children": 4763,
      "Ġabstract": 4764,
      "30": 4765,
      "car": 4766,
      "gue": 4767,
      "hum": 4768,
      "list": 4769,
      "night": 4770,
      "zed": 4771,
      "Ġtick": 4772,
      "Ġtherap": 4773,
      "reed": 4774,
      "Ġooh": 4775,
      "Ġmur": 4776,
      "ingu": 4777,
      "Ġtoy": 4778,
      "Ġped": 4779,
      "Ġpurs": 4780,
      "Ġfif": 4781,
      "Ġnan": 4782,
      "lying": 4783,
      "Ġreject": 4784,
      "Ġstations": 4785,
      "rogen": 4786,
      "osition": 4787,
      "berg": 4788,
      "Ġboston": 4789,
      "Ġcommand": 4790,
      "Ġpersonality": 4791,
      "Ġstring": 4792,
      "Ġreprodu": 4793,
      "Ġplanets": 4794,
      "Ġmeters": 4795,
      "Ġsetting": 4796,
      "retch": 4797,
      "Ġenvironments": 4798,
      "Ġviolent": 4799,
      "Ġoperation": 4800,
      "Ġsentence": 4801,
      "everything": 4802,
      "Ġshoot": 4803,
      "Ġsending": 4804,
      "Ġadmit": 4805,
      "Ġconcrete": 4806,
      "Ġsymmetry": 4807,
      "Ġcooperation": 4808,
      "Ġmentioned": 4809,
      "Ġvaccine": 4810,
      "Ġchimpanzees": 4811,
      "Ġconsidered": 4812,
      "Ġempty": 4813,
      "Ġnegoti": 4814,
      "Ġartificial": 4815,
      "ev": 4816,
      "lines": 4817,
      "mas": 4818,
      "under": 4819,
      "Ã©": 4820,
      "Ġ&": 4821,
      "Ġmr": 4822,
      "Ġhol": 4823,
      "Ġpure": 4824,
      "throp": 4825,
      "Ġnames": 4826,
      "icles": 4827,
      "Ġyout": 4828,
      "Ġstock": 4829,
      "Ġliked": 4830,
      "Ġange": 4831,
      "Ġabuse": 4832,
      "Ġasia": 4833,
      "Ġjer": 4834,
      "Ġshad": 4835,
      "Ġchair": 4836,
      "Ġchurch": 4837,
      "essed": 4838,
      "Ġoutcomes": 4839,
      "Ġintu": 4840,
      "Ġrates": 4841,
      "Ġplate": 4842,
      "Ġsuit": 4843,
      "Ġfacial": 4844,
      "Ġmanip": 4845,
      "resp": 4846,
      "Ġsmile": 4847,
      "Ġtalks": 4848,
      "Ġtransparency": 4849,
      "Ġarts": 4850,
      "Ġdesigning": 4851,
      "Ġfright": 4852,
      "Ġcarefully": 4853,
      "Ġpublish": 4854,
      "gged": 4855,
      "Ġbias": 4856,
      "Ġelection": 4857,
      "Ġwake": 4858,
      "Ġairport": 4859,
      "Ġprize": 4860,
      "Ġrisks": 4861,
      "Ġmeetings": 4862,
      "Ġcyber": 4863,
      "Ġrepresents": 4864,
      "Ġdescribed": 4865,
      "Ġillust": 4866,
      "Ġcircuit": 4867,
      "Ġactivities": 4868,
      "Ġnervous": 4869,
      "Ġdefinitely": 4870,
      "Ġastron": 4871,
      "Ġprinciple": 4872,
      "conscious": 4873,
      "Ġgraduate": 4874,
      "Ġoxygen": 4875,
      "Ġrussia": 4876,
      "Ġgentlemen": 4877,
      "Ġelder": 4878,
      "Ġcircumst": 4879,
      "craft": 4880,
      "Ġprotocell": 4881,
      "Ġscratch": 4882,
      "Ġafternoon": 4883,
      "down": 4884,
      "gets": 4885,
      "har": 4886,
      "hab": 4887,
      "oll": 4888,
      "rict": 4889,
      "ss": 4890,
      "ym": 4891,
      "Ġbread": 4892,
      "Ġmarch": 4893,
      "Ġpra": 4894,
      "Ġpul": 4895,
      "Ġpms": 4896,
      "anch": 4897,
      "oran": 4898,
      "Ġlunch": 4899,
      "Ġgdp": 4900,
      "itarian": 4901,
      "entally": 4902,
      "ctions": 4903,
      "irty": 4904,
      "Ġkick": 4905,
      "Ġcomet": 4906,
      "ession": 4907,
      "Ġvan": 4908,
      "Ġvent": 4909,
      "isters": 4910,
      "Ġrow": 4911,
      "Ġtruck": 4912,
      "apse": 4913,
      "Ġuncom": 4914,
      "Ġunlike": 4915,
      "ores": 4916,
      "Ġhappier": 4917,
      "abilities": 4918,
      "Ġblow": 4919,
      "place": 4920,
      "Ġgenoc": 4921,
      "Ġpersonally": 4922,
      "Ġinstruct": 4923,
      "Ġremain": 4924,
      "Ġimportance": 4925,
      "Ġfinish": 4926,
      "Ġskill": 4927,
      "Ġmetal": 4928,
      "Ġawful": 4929,
      "Ġequality": 4930,
      "Ġprior": 4931,
      "Ġhoriz": 4932,
      "Ġbarri": 4933,
      "Ġprofession": 4934,
      "Ġneighbors": 4935,
      "Ġvolume": 4936,
      "porary": 4937,
      "Ġintelligent": 4938,
      "Ġhotel": 4939,
      "Ġdancing": 4940,
      "Ġargument": 4941,
      "Ġreaction": 4942,
      "Ġfilled": 4943,
      "Ġgermany": 4944,
      "Ġutter": 4945,
      "Ġaccurate": 4946,
      "Ġangry": 4947,
      "Ġcommercial": 4948,
      "Ġaccompl": 4949,
      "Ġchaos": 4950,
      "Ġtransplant": 4951,
      "Ġlifetime": 4952,
      "Ġsophistic": 4953,
      "Ġyoutube": 4954,
      "bre": 4955,
      "mates": 4956,
      "making": 4957,
      "uits": 4958,
      "viol": 4959,
      "Ġtheater": 4960,
      "Ġcash": 4961,
      "eng": 4962,
      "orter": 4963,
      "asa": 4964,
      "Ġstro": 4965,
      "aming": 4966,
      "Ġshut": 4967,
      "Ġshall": 4968,
      "ulations": 4969,
      "ulating": 4970,
      "Ġconcent": 4971,
      "Ġtea": 4972,
      "Ġrw": 4973,
      "Ġrating": 4974,
      "Ġacts": 4975,
      "Ġsacri": 4976,
      "Ġque": 4977,
      "Ġ2000": 4978,
      "forms": 4979,
      "Ġbubble": 4980,
      "bert": 4981,
      "actually": 4982,
      "Ġscared": 4983,
      "forest": 4984,
      "Ġtransition": 4985,
      "Ġglaci": 4986,
      "Ġfourth": 4987,
      "Ġminim": 4988,
      "tocin": 4989,
      "Ġconfront": 4990,
      "Ġspecifically": 4991,
      "Ġhopefully": 4992,
      "Ġcharge": 4993,
      "Ġgeorge": 4994,
      "Ġaudio": 4995,
      "ropri": 4996,
      "Ġtechnological": 4997,
      "Ġsteps": 4998,
      "Ġfeminist": 4999,
      "Ġconvince": 5000,
      "Ġveget": 5001,
      "Ġultimate": 5002,
      "Ġmountains": 5003,
      "Ġpaintings": 5004,
      "Ġspiritual": 5005,
      "Ġmistake": 5006,
      "Ġinequality": 5007,
      "Ġanalog": 5008,
      "Ġnewspaper": 5009,
      "Ġdarwin": 5010,
      "Ġrapidly": 5011,
      "Ġvaluable": 5012,
      "Ġclaim": 5013,
      "Ġemployees": 5014,
      "Ġsacrif": 5015,
      "iors": 5016,
      "tra": 5017,
      "ued": 5018,
      "vas": 5019,
      "yet": 5020,
      "Ġsides": 5021,
      "ndered": 5022,
      "Ġcast": 5023,
      "Ġborder": 5024,
      "Ġfib": 5025,
      "Ġded": 5026,
      "aled": 5027,
      "alous": 5028,
      "Ġinit": 5029,
      "Ġlying": 5030,
      "arct": 5031,
      "Ġegg": 5032,
      "Ġliver": 5033,
      "Ġsees": 5034,
      "olit": 5035,
      "Ġvib": 5036,
      "cience": 5037,
      "Ġworlds": 5038,
      "Ġfake": 5039,
      "Ġevol": 5040,
      "Ġrio": 5041,
      "Ġdisorders": 5042,
      "Ġbrave": 5043,
      "Ġpercentage": 5044,
      "Ġpolar": 5045,
      "Ġcreature": 5046,
      "Ġcrash": 5047,
      "Ġ194": 5048,
      "Ġmovements": 5049,
      "Ġregard": 5050,
      "Ġruns": 5051,
      "Ġjoined": 5052,
      "Ġreference": 5053,
      "Ġtopic": 5054,
      "Ġteams": 5055,
      "Ġtrend": 5056,
      "Ġwindows": 5057,
      "Ġinteraction": 5058,
      "Ġcivic": 5059,
      "Ġprivile": 5060,
      "Ġidentify": 5061,
      "Ġinstitute": 5062,
      "Ġtransformed": 5063,
      "Ġtranslate": 5064,
      "Ġcapture": 5065,
      "Ġadminist": 5066,
      "Ġintroduce": 5067,
      "Ġintroduced": 5068,
      "Ġentrepreneur": 5069,
      "Ġprinciples": 5070,
      "Ġdynam": 5071,
      "Ġoxytocin": 5072,
      "Ġapplications": 5073,
      "Ġalgorithms": 5074,
      "Ġflew": 5075,
      "did": 5076,
      "last": 5077,
      "obe": 5078,
      "Ġcas": 5079,
      "Ġcow": 5080,
      "Ġpow": 5081,
      "Ġpun": 5082,
      "Ġpip": 5083,
      "Ġpitch": 5084,
      "Ġdut": 5085,
      "Ġdress": 5086,
      "Ġdense": 5087,
      "Ġlic": 5088,
      "eds": 5089,
      "Ġgain": 5090,
      "icy": 5091,
      "Ġreef": 5092,
      "sec": 5093,
      "Ġstands": 5094,
      "stic": 5095,
      "celer": 5096,
      "Ġkitch": 5097,
      "Ġsevere": 5098,
      "Ġuser": 5099,
      "Ġsuic": 5100,
      "ago": 5101,
      "Ġexpression": 5102,
      "Ġimplement": 5103,
      "Ġdesire": 5104,
      "Ġcaused": 5105,
      "Ġfactor": 5106,
      "Ġflat": 5107,
      "Ġdatab": 5108,
      "Ġminister": 5109,
      "Ġsolid": 5110,
      "Ġcoral": 5111,
      "Ġformer": 5112,
      "Ġadded": 5113,
      "Ġbroke": 5114,
      "Ġbrothers": 5115,
      "llywood": 5116,
      "Ġequip": 5117,
      "Ġassist": 5118,
      "Ġoperations": 5119,
      "Ġhorm": 5120,
      "Ġantic": 5121,
      "Ġsituations": 5122,
      "Ġmechanical": 5123,
      "Ġ2010": 5124,
      "Ġpassionate": 5125,
      "Ġjapanese": 5126,
      "Ġtechniques": 5127,
      "Ġcomponents": 5128,
      "Ġclothes": 5129,
      "Ġnuclear": 5130,
      "Ġtoilet": 5131,
      "Ġrestaurant": 5132,
      "ault": 5133,
      "could": 5134,
      "col": 5135,
      "certain": 5136,
      "father": 5137,
      "hop": 5138,
      "ij": 5139,
      "ipp": 5140,
      "lation": 5141,
      "Ġ/": 5142,
      "Ġsources": 5143,
      "Ġborders": 5144,
      "Ġpy": 5145,
      "Ġpool": 5146,
      "Ġpink": 5147,
      "Ġpair": 5148,
      "organ": 5149,
      "alks": 5150,
      "Ġlens": 5151,
      "edia": 5152,
      "Ġgall": 5153,
      "Ġwel": 5154,
      "Ġstaff": 5155,
      "stand": 5156,
      "Ġwik": 5157,
      "Ġanx": 5158,
      "ams": 5159,
      "Ġseas": 5160,
      "Ġchain": 5161,
      "Ġexists": 5162,
      "Ġfrance": 5163,
      "Ġbutton": 5164,
      "Ġteles": 5165,
      "Ġru": 5166,
      "Ġacting": 5167,
      "Ġnowhere": 5168,
      "ptions": 5169,
      "Ġacceler": 5170,
      "Ġpref": 5171,
      "Ġputs": 5172,
      "Ġsurge": 5173,
      "Ġrelate": 5174,
      "Ġartistic": 5175,
      "Ġprototy": 5176,
      "Ġconnecting": 5177,
      "Ġgrad": 5178,
      "Ġphysically": 5179,
      "ocol": 5180,
      "Ġfilms": 5181,
      "Ġviruses": 5182,
      "Ġhost": 5183,
      "Ġcollaps": 5184,
      "Ġneuros": 5185,
      "Ġtraveling": 5186,
      "Ġbrief": 5187,
      "Ġrecorded": 5188,
      "Ġstronger": 5189,
      "Ġapartment": 5190,
      "Ġemerging": 5191,
      "Ġinnovative": 5192,
      "Ġmanagement": 5193,
      "Ġsurrounded": 5194,
      "Ġspectrum": 5195,
      "Ġcommitment": 5196,
      "Ġmosquito": 5197,
      "Ġcandid": 5198,
      "Ġdefend": 5199,
      "Ġkorea": 5200,
      "Ġalternative": 5201,
      "Ġquantum": 5202,
      "Ġdestroyed": 5203,
      "Ġmaintain": 5204,
      "Ġpenguins": 5205,
      "ublic": 5206,
      "Ġcameras": 5207,
      "Ġequipment": 5208,
      "fit": 5209,
      "kind": 5210,
      "ole": 5211,
      "water": 5212,
      "Ġwave": 5213,
      "Ġsom": 5214,
      "ata": 5215,
      "Ġcup": 5216,
      "Ġcards": 5217,
      "Ġbay": 5218,
      "Ġmand": 5219,
      "Ġmart": 5220,
      "ener": 5221,
      "Ġpian": 5222,
      "Ġgates": 5223,
      "itals": 5224,
      "icit": 5225,
      "andering": 5226,
      "Ġstretch": 5227,
      "rog": 5228,
      "Ġasp": 5229,
      "ifest": 5230,
      "Ġconcl": 5231,
      "Ġspin": 5232,
      "Ġspan": 5233,
      "Ġring": 5234,
      "Ġlapt": 5235,
      "Ġactions": 5236,
      "Ġunknown": 5237,
      "Ġmanifest": 5238,
      "abled": 5239,
      "Ġideal": 5240,
      "conf": 5241,
      "acles": 5242,
      "Ġmonkey": 5243,
      "Ġstrangers": 5244,
      "Ġlessons": 5245,
      "Ġeconomies": 5246,
      "Ġorganic": 5247,
      "Ġdrives": 5248,
      "entional": 5249,
      "Ġzoom": 5250,
      "Ġ2008": 5251,
      "Ġmember": 5252,
      "Ġadvent": 5253,
      "Ġdrum": 5254,
      "tech": 5255,
      "Ġproviding": 5256,
      "Ġarchitects": 5257,
      "Ġphotographs": 5258,
      "Ġboxes": 5259,
      "Ġreached": 5260,
      "Ġempower": 5261,
      "Ġaffected": 5262,
      "Ġroads": 5263,
      "Ġcaptured": 5264,
      "Ġselling": 5265,
      "Ġballs": 5266,
      "Ġerror": 5267,
      "Ġladies": 5268,
      "Ġhurt": 5269,
      "Ġkilometers": 5270,
      "Ġvaccines": 5271,
      "Ġrelatively": 5272,
      "Ġcorporate": 5273,
      "Ġconservation": 5274,
      "Ġdictionary": 5275,
      "Ġmicroscope": 5276,
      "Ġfalse": 5277,
      "Ġpuzzle": 5278,
      "Ġpermanent": 5279,
      "Ġsophisticated": 5280,
      "11": 5281,
      "bor": 5282,
      "hol": 5283,
      "oe": 5284,
      "pet": 5285,
      "sing": 5286,
      "tt": 5287,
      "yeah": 5288,
      "Ġske": 5289,
      "Ġcod": 5290,
      "Ġcooking": 5291,
      "Ġbicy": 5292,
      "Ġhat": 5293,
      "Ġpin": 5294,
      "Ġdial": 5295,
      "third": 5296,
      "ita": 5297,
      "llion": 5298,
      "Ġreci": 5299,
      "Ġreven": 5300,
      "Ġdece": 5301,
      "terday": 5302,
      "Ġvot": 5303,
      "cipl": 5304,
      "illy": 5305,
      "Ġcompl": 5306,
      "Ġagencies": 5307,
      "Ġworker": 5308,
      "Ġclar": 5309,
      "athers": 5310,
      "Ġ27": 5311,
      "Ġload": 5312,
      "century": 5313,
      "Ġresource": 5314,
      "Ġscar": 5315,
      "Ġindic": 5316,
      "perhaps": 5317,
      "Ġthoughts": 5318,
      "Ġconsist": 5319,
      "Ġengland": 5320,
      "Ġextract": 5321,
      "Ġgenerally": 5322,
      "Ġbike": 5323,
      "Ġdriver": 5324,
      "Ġrefer": 5325,
      "Ġdefined": 5326,
      "pected": 5327,
      "Ġmemories": 5328,
      "Ġequival": 5329,
      "Ġdigit": 5330,
      "Ġspeaker": 5331,
      "Ġcollected": 5332,
      "Ġaccessible": 5333,
      "Ġantarct": 5334,
      "Ġtypically": 5335,
      "Ġinspiration": 5336,
      "Ġdealing": 5337,
      "Ġfields": 5338,
      "Ġdestruction": 5339,
      "Ġtranslation": 5340,
      "Ġreleased": 5341,
      "Ġsuggests": 5342,
      "Ġparticipation": 5343,
      "Ġsoldiers": 5344,
      "Ġdoub": 5345,
      "Ġestim": 5346,
      "Ġbritain": 5347,
      "Ġislam": 5348,
      "Ġdiscussion": 5349,
      "Ġportra": 5350,
      "Ġcelebrate": 5351,
      "Ġridic": 5352,
      "Ġphilosophy": 5353,
      "Ġepidemic": 5354,
      "Ġtemperature": 5355,
      "Ġanonymous": 5356,
      "Ġexchange": 5357,
      "Ġjanuary": 5358,
      "der": 5359,
      "gra": 5360,
      "hen": 5361,
      "ja": 5362,
      "min": 5363,
      "son": 5364,
      "uel": 5365,
      "Ġtut": 5366,
      "Ġah": 5367,
      "Ġsets": 5368,
      "ato": 5369,
      "Ġcents": 5370,
      "Ġbats": 5371,
      "Ġmc": 5372,
      "enced": 5373,
      "only": 5374,
      "ania": 5375,
      "itution": 5376,
      "Ġrent": 5377,
      "Ġstim": 5378,
      "keep": 5379,
      "Ġanat": 5380,
      "Ġsept": 5381,
      "Ġmeg": 5382,
      "Ġmax": 5383,
      "oses": 5384,
      "Ġplaced": 5385,
      "Ġevil": 5386,
      "Ġrig": 5387,
      "abol": 5388,
      "Ġdish": 5389,
      "anging": 5390,
      "Ġimpl": 5391,
      "Ġimpress": 5392,
      "Ġdownload": 5393,
      "Ġflor": 5394,
      "Ġinstrum": 5395,
      "Ġplayers": 5396,
      "Ġmush": 5397,
      "Ġmuscle": 5398,
      "Ġ35": 5399,
      "Ġentertain": 5400,
      "Ġcorresp": 5401,
      "Ġexplan": 5402,
      "Ġrooms": 5403,
      "Ġgrab": 5404,
      "Ġsigns": 5405,
      "Ġparli": 5406,
      "Ġuniversities": 5407,
      "Ġfunding": 5408,
      "Ġclosely": 5409,
      "Ġgrandfather": 5410,
      "Ġsenses": 5411,
      "Ġtraveled": 5412,
      "arrass": 5413,
      "Ġachieved": 5414,
      "Ġcombination": 5415,
      "Ġmeaningful": 5416,
      "Ġforests": 5417,
      "Ġcrying": 5418,
      "Ġencoura": 5419,
      "Ġprimary": 5420,
      "Ġofficial": 5421,
      "Ġmathematical": 5422,
      "Ġbattery": 5423,
      "Ġprosper": 5424,
      "Ġanalysis": 5425,
      "Ġbeliefs": 5426,
      "Ġcategories": 5427,
      "Ġframework": 5428,
      "Ġfirm": 5429,
      "Ġpregnant": 5430,
      "Ġsatellite": 5431,
      "Ġlecture": 5432,
      "Ġatmosphere": 5433,
      "Ġrwanda": 5434,
      "Ġseptember": 5435,
      "Ġcorrespond": 5436,
      "ael": 5437,
      "da": 5438,
      "fast": 5439,
      "hu": 5440,
      "have": 5441,
      "rich": 5442,
      "ups": 5443,
      "women": 5444,
      "nday": 5445,
      "Ġcath": 5446,
      "Ġhal": 5447,
      "Ġhun": 5448,
      "Ġhung": 5449,
      "Ġtow": 5450,
      "Ġtoler": 5451,
      "Ġtoxic": 5452,
      "Ġfet": 5453,
      "Ġinner": 5454,
      "Ġlen": 5455,
      "Ġanderson": 5456,
      "omas": 5457,
      "lel": 5458,
      "Ġbeach": 5459,
      "entions": 5460,
      "uration": 5461,
      "roph": 5462,
      "amin": 5463,
      "Ġjun": 5464,
      "Ġshar": 5465,
      "ests": 5466,
      "unfortunately": 5467,
      "Ġwanting": 5468,
      "Ġperception": 5469,
      "def": 5470,
      "Ġbull": 5471,
      "Ġacqu": 5472,
      "Ġadop": 5473,
      "Ġdesk": 5474,
      "Ġgrass": 5475,
      "Ġoffered": 5476,
      "Ġgenetic": 5477,
      "Ġinvention": 5478,
      "Ġcenters": 5479,
      "Ġfinance": 5480,
      "Ġsolving": 5481,
      "Ġhealthcare": 5482,
      "Ġglobalization": 5483,
      "Ġlargely": 5484,
      "Ġelev": 5485,
      "Ġ75": 5486,
      "Ġcollapse": 5487,
      "Ġembarrass": 5488,
      "Ġoption": 5489,
      "Ġnormally": 5490,
      "Ġbottle": 5491,
      "Ġrelevant": 5492,
      "Ġburning": 5493,
      "Ġreligions": 5494,
      "Ġproperties": 5495,
      "Ġcolleague": 5496,
      "Ġcouncil": 5497,
      "Ġcompetition": 5498,
      "Ġdepends": 5499,
      "Ġauthority": 5500,
      "Ġterrorism": 5501,
      "Ġvariety": 5502,
      "Ġtapir": 5503,
      "Ġcopyright": 5504,
      "Ġaspects": 5505,
      "Ġtechnique": 5506,
      "connected": 5507,
      "Ġmanufacturing": 5508,
      "Ġharvard": 5509,
      "Ġprepared": 5510,
      "Ġflexible": 5511,
      "Ġhorrible": 5512,
      "foot": 5513,
      "Ġkitchen": 5514,
      "Ġequivalent": 5515,
      "five": 5516,
      "su": 5517,
      "vable": 5518,
      "Ġtall": 5519,
      "Ġsque": 5520,
      "Ġpapers": 5521,
      "Ġdot": 5522,
      "Ġdate": 5523,
      "Ġiniti": 5524,
      "Ġniger": 5525,
      "icing": 5526,
      "usive": 5527,
      "lyn": 5528,
      "Ġbell": 5529,
      "Ġstone": 5530,
      "opath": 5531,
      "opia": 5532,
      "rbit": 5533,
      "Ġsem": 5534,
      "Ġatl": 5535,
      "Ġspl": 5536,
      "Ġrush": 5537,
      "illing": 5538,
      "Ġtail": 5539,
      "Ġarrow": 5540,
      "Ġsheep": 5541,
      "Ġherself": 5542,
      "Ġdesert": 5543,
      "ending": 5544,
      "Ġpersu": 5545,
      "Ġcolon": 5546,
      "new": 5547,
      "Ġtriang": 5548,
      "Ġfewer": 5549,
      "archy": 5550,
      "lson": 5551,
      "Ġgenerated": 5552,
      "Ġmetabol": 5553,
      "Ġallowing": 5554,
      "Ġ2007": 5555,
      "Ġmarry": 5556,
      "Ġclassic": 5557,
      "print": 5558,
      "Ġadvice": 5559,
      "Ġrising": 5560,
      "Ġdrinking": 5561,
      "Ġyesterday": 5562,
      "Ġbehaviors": 5563,
      "Ġoperate": 5564,
      "Ġsuccessfully": 5565,
      "Ġcute": 5566,
      "Ġsensitive": 5567,
      "Ġinteractive": 5568,
      "Ġpractices": 5569,
      "everybody": 5570,
      "Ġceo": 5571,
      "box": 5572,
      "Ġrecording": 5573,
      "Ġessence": 5574,
      "Ġtranslated": 5575,
      "Ġmeasured": 5576,
      "Ġcritic": 5577,
      "Ġmolecule": 5578,
      "Ġdebt": 5579,
      "Ġlaboratory": 5580,
      "Ġsample": 5581,
      "Ġcarrying": 5582,
      "Ġcapitalism": 5583,
      "Ġefforts": 5584,
      "Ġapplication": 5585,
      "Ġcomponent": 5586,
      "Ġbags": 5587,
      "Ġlinks": 5588,
      "Ġcredit": 5589,
      "Ġrecyc": 5590,
      "Ġhypothes": 5591,
      "Ġcircumstances": 5592,
      "Ġgenocide": 5593,
      "ee": 5594,
      "ey": 5595,
      "mp": 5596,
      "aters": 5597,
      "Ġcub": 5598,
      "Ġbes": 5599,
      "Ġder": 5600,
      "Ġdict": 5601,
      "Ġink": 5602,
      "omp": 5603,
      "Ġeve": 5604,
      "Ġitem": 5605,
      "ett": 5606,
      "Ġstan": 5607,
      "rill": 5608,
      "Ġheight": 5609,
      "Ġjack": 5610,
      "Ġshif": 5611,
      "Ġcomment": 5612,
      "Ġvoc": 5613,
      "Ġmac": 5614,
      "Ġactors": 5615,
      "Ġenable": 5616,
      "about": 5617,
      "Ġoverall": 5618,
      "Ġbuying": 5619,
      "Ġcontrad": 5620,
      "acle": 5621,
      "Ġinstall": 5622,
      "Ġcaring": 5623,
      "gging": 5624,
      "Ġswed": 5625,
      "Ġzone": 5626,
      "Ġ2004": 5627,
      "Ġlabel": 5628,
      "Ġmilk": 5629,
      "Ġearthqu": 5630,
      "Ġrevol": 5631,
      "Ġlimits": 5632,
      "Ġpotentially": 5633,
      "Ġinteracting": 5634,
      "Ġfemin": 5635,
      "Ġoccup": 5636,
      "Ġconsumer": 5637,
      "Ġ2011": 5638,
      "Ġamongst": 5639,
      "Ġnerve": 5640,
      "bola": 5641,
      "Ġbreathe": 5642,
      "Ġpalest": 5643,
      "Ġhackers": 5644,
      "Ġlinked": 5645,
      "Ġbreathing": 5646,
      "Ġspoke": 5647,
      "Ġsharks": 5648,
      "Ġlawyers": 5649,
      "Ġghana": 5650,
      "Ġvehicle": 5651,
      "Ġpilot": 5652,
      "Ġprecisely": 5653,
      "Ġelderly": 5654,
      "Ġmushroom": 5655,
      "Ġparliament": 5656,
      "cers": 5657,
      "mat": 5658,
      "rument": 5659,
      "und": 5660,
      "uity": 5661,
      "vest": 5662,
      "Ġtired": 5663,
      "Ġtube": 5664,
      "inc": 5665,
      "inals": 5666,
      "Ġii": 5667,
      "Ġcro": 5668,
      "Ġmig": 5669,
      "isy": 5670,
      "isons": 5671,
      "Ġnord": 5672,
      "Ġgang": 5673,
      "Ġbeer": 5674,
      "Ġrebuild": 5675,
      "Ġstyle": 5676,
      "chr": 5677,
      "Ġdogs": 5678,
      "Ġneither": 5679,
      "Ġjim": 5680,
      "Ġshr": 5681,
      "Ġintense": 5682,
      "Ġspring": 5683,
      "Ġplus": 5684,
      "Ġplast": 5685,
      "eline": 5686,
      "emen": 5687,
      "Ġwhereas": 5688,
      "Ġargu": 5689,
      "Ġclip": 5690,
      "Ġ23": 5691,
      "Ġloop": 5692,
      "Ġpoem": 5693,
      "Ġadam": 5694,
      "Ġinterface": 5695,
      "Ġwriter": 5696,
      "Ġowners": 5697,
      "Ġtransfer": 5698,
      "Ġinstrument": 5699,
      "Ġ1950": 5700,
      "Ġbehave": 5701,
      "thanks": 5702,
      "Ġpresence": 5703,
      "Ġwarm": 5704,
      "Ġdriven": 5705,
      "Ġeastern": 5706,
      "Ġkiller": 5707,
      "does": 5708,
      "Ġcrack": 5709,
      "Ġpractical": 5710,
      "Ġinspiring": 5711,
      "going": 5712,
      "Ġsilent": 5713,
      "Ġtempt": 5714,
      "Ġparticipants": 5715,
      "ynman": 5716,
      "ĠâĻª": 5717,
      "Ġjew": 5718,
      "Ġcharacteristics": 5719,
      "Ġtons": 5720,
      "Ġsweet": 5721,
      "Ġchemicals": 5722,
      "Ġoptimistic": 5723,
      "Ġcontribute": 5724,
      "Ġsavings": 5725,
      "belie": 5726,
      "Ġdramatic": 5727,
      "Ġalgorithm": 5728,
      "Ġremove": 5729,
      "Ġperceive": 5730,
      "Ġingred": 5731,
      "Ġparallel": 5732,
      "Ġanticip": 5733,
      "Ġpiano": 5734,
      "Ġlaptop": 5735,
      "bage": 5736,
      "ek": 5737,
      "faces": 5738,
      "gr": 5739,
      "rates": 5740,
      "Ġtight": 5741,
      "Ġack": 5742,
      "Ġobl": 5743,
      "Ġicon": 5744,
      "Ġbos": 5745,
      "Ġtony": 5746,
      "Ġduck": 5747,
      "Ġgand": 5748,
      "Ġgro": 5749,
      "Ġgri": 5750,
      "Ġrecept": 5751,
      "Ġreverse": 5752,
      "ooth": 5753,
      "ami": 5754,
      "ria": 5755,
      "Ġsoil": 5756,
      "Ġatoms": 5757,
      "Ġpeer": 5758,
      "Ġfruit": 5759,
      "Ġves": 5760,
      "eless": 5761,
      "Ġcompar": 5762,
      "Ġunion": 5763,
      "athan": 5764,
      "Ġscary": 5765,
      "Ġscott": 5766,
      "Ġbond": 5767,
      "Ġflash": 5768,
      "Ġfox": 5769,
      "Ġschol": 5770,
      "Ġobst": 5771,
      "Ġinstinct": 5772,
      "Ġmuslim": 5773,
      "Ġglobe": 5774,
      "Ġinterests": 5775,
      "Ġtries": 5776,
      "Ġengaged": 5777,
      "Ġinternal": 5778,
      "lfriend": 5779,
      "Ġformed": 5780,
      "Ġsinging": 5781,
      "Ġ45": 5782,
      "Ġeducational": 5783,
      "Ġopposed": 5784,
      "Ġstatement": 5785,
      "Ġfigures": 5786,
      "Ġdevast": 5787,
      "Ġcheaper": 5788,
      "Ġsoup": 5789,
      "Ġsouthern": 5790,
      "Ġsurely": 5791,
      "Ġhollywood": 5792,
      "Ġexpectations": 5793,
      "Ġsensory": 5794,
      "Ġauton": 5795,
      "Ġembedd": 5796,
      "Ġpsychiat": 5797,
      "Ġrichard": 5798,
      "Ġwinter": 5799,
      "Ġcombine": 5800,
      "Ġcombined": 5801,
      "Ġpushing": 5802,
      "Ġmechanism": 5803,
      "Ġmainly": 5804,
      "Ġpollen": 5805,
      "Ġimprovement": 5806,
      "Ġreminded": 5807,
      "Ġmistakes": 5808,
      "Ġchristmas": 5809,
      "Ġswimming": 5810,
      "Ġlatin": 5811,
      "Ġrepeated": 5812,
      "parents": 5813,
      "Ġmeasuring": 5814,
      "Ġtaste": 5815,
      "Ġvulnerable": 5816,
      "enesis": 5817,
      "Ġphrase": 5818,
      "Ġuncomfort": 5819,
      "Ġeggs": 5820,
      "Ġdatabase": 5821,
      "Ġearthquake": 5822,
      "aud": 5823,
      "eins": 5824,
      "gos": 5825,
      "ias": 5826,
      "lies": 5827,
      "oint": 5828,
      "rhythm": 5829,
      "sum": 5830,
      "Ġtear": 5831,
      "Ġthrew": 5832,
      "Ġwedd": 5833,
      "erable": 5834,
      "Ġba": 5835,
      "Ġboring": 5836,
      "Ġmere": 5837,
      "Ġtoys": 5838,
      "Ġpig": 5839,
      "Ġdy": 5840,
      "Ġgest": 5841,
      "omb": 5842,
      "iters": 5843,
      "Ġrein": 5844,
      "etch": 5845,
      "urt": 5846,
      "Ġdood": 5847,
      "Ġlift": 5848,
      "Ġkoran": 5849,
      "Ġshout": 5850,
      "Ġchose": 5851,
      "Ġchick": 5852,
      "iled": 5853,
      "wel": 5854,
      "ifying": 5855,
      "Ġconvert": 5856,
      "Ġoutput": 5857,
      "Ġoutcome": 5858,
      "Ġrit": 5859,
      "osing": 5860,
      "osion": 5861,
      "Ġappropri": 5862,
      "Ġquarter": 5863,
      "Ġfeature": 5864,
      "abet": 5865,
      "Ġdisaster": 5866,
      "Ġapplied": 5867,
      "icked": 5868,
      "Ġgranted": 5869,
      "Ġbranch": 5870,
      "Ġsmith": 5871,
      "Ġdesigns": 5872,
      "Ġminor": 5873,
      "Ġbusy": 5874,
      "Ġregener": 5875,
      "Ġnaturally": 5876,
      "Ġsett": 5877,
      "Ġpainful": 5878,
      "Ġdistinct": 5879,
      "Ġtreatments": 5880,
      "Ġparking": 5881,
      "remember": 5882,
      "Ġretire": 5883,
      "Ġretina": 5884,
      "Ġassess": 5885,
      "Ġconstra": 5886,
      "Ġdirections": 5887,
      "Ġcommunications": 5888,
      "Ġexplained": 5889,
      "Ġidentical": 5890,
      "Ġvillages": 5891,
      "Ġrecognition": 5892,
      "Ġcitizen": 5893,
      "gener": 5894,
      "Ġfundamentally": 5895,
      "Ġsubjects": 5896,
      "Ġfunctional": 5897,
      "Ġjealous": 5898,
      "Ġbudd": 5899,
      "Ġconcert": 5900,
      "Ġassume": 5901,
      "Ġlogic": 5902,
      "scale": 5903,
      "Ġhipp": 5904,
      "Ġtrafficking": 5905,
      "Ġelephants": 5906,
      "Ġdetermine": 5907,
      "Ġremoved": 5908,
      "Ġlux": 5909,
      "Ġnarrow": 5910,
      "Ġwhistling": 5911,
      "Ġchannel": 5912,
      "Ġancestors": 5913,
      "Ġstorytelling": 5914,
      "Ġopinion": 5915,
      "finally": 5916,
      "Ġaugust": 5917,
      "Ġpoorest": 5918,
      "Ġglacier": 5919,
      "Ġsuicide": 5920,
      "Ġantarctica": 5921,
      "Ġdoubt": 5922,
      "Ġlength": 5923,
      "Ġnorden": 5924,
      "Ġembedded": 5925,
      "Ġuncomfortable": 5926,
      "bas": 5927,
      "gic": 5928,
      "iot": 5929,
      "ivers": 5930,
      "rary": 5931,
      "sm": 5932,
      "sim": 5933,
      "turn": 5934,
      "view": 5935,
      "wr": 5936,
      "Ġ0": 5937,
      "Ġvert": 5938,
      "Ġthomas": 5939,
      "Ġsilly": 5940,
      "Ġbones": 5941,
      "ingly": 5942,
      "enar": 5943,
      "Ġpill": 5944,
      "Ġpour": 5945,
      "Ġpix": 5946,
      "Ġdu": 5947,
      "esh": 5948,
      "anz": 5949,
      "thet": 5950,
      "Ġgam": 5951,
      "Ġebola": 5952,
      "iday": 5953,
      "rian": 5954,
      "Ġgolf": 5955,
      "Ġchos": 5956,
      "ula": 5957,
      "ulin": 5958,
      "Ġproc": 5959,
      "Ġteeth": 5960,
      "Ġsphere": 5961,
      "Ġlaid": 5962,
      "Ġlake": 5963,
      "Ġplans": 5964,
      "emb": 5965,
      "iveness": 5966,
      "Ġunex": 5967,
      "Ġexped": 5968,
      "Ġagency": 5969,
      "Ġcoal": 5970,
      "Ġpartner": 5971,
      "angible": 5972,
      "Ġlock": 5973,
      "Ġadoles": 5974,
      "Ġblame": 5975,
      "Ġblank": 5976,
      "Ġunderground": 5977,
      "Ġraising": 5978,
      "Ġfacts": 5979,
      "Ġinstant": 5980,
      "Ġglad": 5981,
      "Ġmont": 5982,
      "Ġtrillion": 5983,
      "Ġcenturies": 5984,
      "Ġserve": 5985,
      "Ġcapita": 5986,
      "Ġbush": 5987,
      "Ġrecru": 5988,
      "Ġrepair": 5989,
      "Ġgirlfriend": 5990,
      "Ġexplo": 5991,
      "Ġexploring": 5992,
      "Ġprescri": 5993,
      "Ġmatt": 5994,
      "Ġze": 5995,
      "Ġwaves": 5996,
      "Ġbreaking": 5997,
      "Ġchallenging": 5998,
      "Ġparis": 5999,
      "Ġadvance": 6000,
      "Ġcontinent": 6001,
      "bye": 6002,
      "Ġmales": 6003,
      "Ġshooting": 6004,
      "Ġtransformation": 6005,
      "Ġconcepts": 6006,
      "Ġdivide": 6007,
      "Ġmechanisms": 6008,
      "Ġstruck": 6009,
      "Ġsearching": 6010,
      "Ġaccepted": 6011,
      "Ġconclud": 6012,
      "Ġattacks": 6013,
      "Ġoptimism": 6014,
      "Ġstruggling": 6015,
      "Ġcooperate": 6016,
      "Ġwidely": 6017,
      "Ġfixed": 6018,
      "Ġromantic": 6019,
      "Ġdramatically": 6020,
      "Ġmosquitos": 6021,
      "Ġfrustrated": 6022,
      "Ġ1970": 6023,
      "ounced": 6024,
      "Ġpoetry": 6025,
      "Ġrescue": 6026,
      "Ġinfinite": 6027,
      "Ġbarely": 6028,
      "Ġinstruments": 6029,
      "Ġplastics": 6030,
      "Ġchosen": 6031,
      "aa": 6032,
      "bits": 6033,
      "born": 6034,
      "ds": 6035,
      "fish": 6036,
      "ixt": 6037,
      "ipping": 6038,
      "ost": 6039,
      "pa": 6040,
      "pal": 6041,
      "va": 6042,
      "vent": 6043,
      "yal": 6044,
      "zero": 6045,
      "Ġthick": 6046,
      "Ġod": 6047,
      "Ġsin": 6048,
      "Ġsir": 6049,
      "Ġiphone": 6050,
      "Ġbars": 6051,
      "Ġmice": 6052,
      "Ġmile": 6053,
      "oned": 6054,
      "Ġdign": 6055,
      "org": 6056,
      "Ġlas": 6057,
      "Ġnurs": 6058,
      "Ġgre": 6059,
      "omos": 6060,
      "icity": 6061,
      "Ġwhit": 6062,
      "Ġhaw": 6063,
      "sey": 6064,
      "Ġlikes": 6065,
      "imeter": 6066,
      "Ġanthrop": 6067,
      "americ": 6068,
      "Ġjames": 6069,
      "Ġate": 6070,
      "umn": 6071,
      "ivered": 6072,
      "rous": 6073,
      "Ġrational": 6074,
      "Ġplenty": 6075,
      "Ġyours": 6076,
      "ughters": 6077,
      "Ġclock": 6078,
      "Ġimper": 6079,
      "Ġpocket": 6080,
      "ipedia": 6081,
      "Ġcontem": 6082,
      "Ġevening": 6083,
      "Ġunderlying": 6084,
      "icted": 6085,
      "Ġpersist": 6086,
      "Ġbrut": 6087,
      "akistan": 6088,
      "lets": 6089,
      "acc": 6090,
      "Ġinsulin": 6091,
      "Ġimagined": 6092,
      "Ġcarried": 6093,
      "Ġmedium": 6094,
      "Ġlovely": 6095,
      "Ġeconomists": 6096,
      "Ġproteins": 6097,
      "Ġfunctions": 6098,
      "Ġconfig": 6099,
      "Ġelections": 6100,
      "Ġdistant": 6101,
      "rones": 6102,
      "Ġtests": 6103,
      "Ġcollecting": 6104,
      "Ġproductivity": 6105,
      "Ġmillenn": 6106,
      "apping": 6107,
      "Ġchromos": 6108,
      "Ġpsychopath": 6109,
      "class": 6110,
      "Ġreaching": 6111,
      "Ġreplicate": 6112,
      "Ġrequired": 6113,
      "Ġcaptain": 6114,
      "Ġ250": 6115,
      "Ġhospitals": 6116,
      "Ġreceive": 6117,
      "point": 6118,
      "Ġspreading": 6119,
      "Ġpanel": 6120,
      "Ġdiagram": 6121,
      "Ġlayer": 6122,
      "Ġhoping": 6123,
      "Ġofficer": 6124,
      "Ġsymmetries": 6125,
      "Ġconsequence": 6126,
      "Ġ1980": 6127,
      "Ġjournalist": 6128,
      "Ġautomatically": 6129,
      "Ġlatest": 6130,
      "Ġignore": 6131,
      "Ġvolunteer": 6132,
      "Ġ1960": 6133,
      "Ġaltru": 6134,
      "Ġisolated": 6135,
      "Ġuganda": 6136,
      "Ġfifth": 6137,
      "Ġwelcome": 6138,
      "Ġvessel": 6139,
      "called": 6140,
      "ecut": 6141,
      "gun": 6142,
      "hour": 6143,
      "kward": 6144,
      "oso": 6145,
      "oons": 6146,
      "rition": 6147,
      "uous": 6148,
      "Ġtub": 6149,
      "inating": 6150,
      "Ġcig": 6151,
      "Ġhook": 6152,
      "Ġhire": 6153,
      "Ġhits": 6154,
      "Ġpakistan": 6155,
      "Ġyemen": 6156,
      "icious": 6157,
      "Ġital": 6158,
      "ander": 6159,
      "Ġrely": 6160,
      "Ġstere": 6161,
      "Ġsticks": 6162,
      "road": 6163,
      "erences": 6164,
      "soever": 6165,
      "Ġkiss": 6166,
      "Ġsection": 6167,
      "Ġwhatsoever": 6168,
      "Ġdeploy": 6169,
      "Ġproced": 6170,
      "Ġpeak": 6171,
      "Ġconven": 6172,
      "umble": 6173,
      "allow": 6174,
      "Ġride": 6175,
      "Ġleap": 6176,
      "ardo": 6177,
      "Ġexposed": 6178,
      "Ġmanh": 6179,
      "Ġapparent": 6180,
      "ache": 6181,
      "Ġdisag": 6182,
      "Ġdisrupt": 6183,
      "Ġphase": 6184,
      "Ġsynd": 6185,
      "cover": 6186,
      "Ġemph": 6187,
      "interest": 6188,
      "Ġindus": 6189,
      "Ġremains": 6190,
      "Ġinsur": 6191,
      "Ġhighlight": 6192,
      "Ġ36": 6193,
      "Ġengaging": 6194,
      "Ġattribut": 6195,
      "Ġextent": 6196,
      "Ġdiverse": 6197,
      "Ġwondered": 6198,
      "Ġprotein": 6199,
      "Ġhandle": 6200,
      "herent": 6201,
      "Ġcontrovers": 6202,
      "lessly": 6203,
      "Ġcompleted": 6204,
      "Ġsites": 6205,
      "Ġobjective": 6206,
      "Ġawkward": 6207,
      "Ġadvoc": 6208,
      "Ġhearts": 6209,
      "Ġholds": 6210,
      "Ġsensors": 6211,
      "Ġpresented": 6212,
      "Ġbehavioral": 6213,
      "Ġoptions": 6214,
      "Ġinspire": 6215,
      "Ġceiling": 6216,
      "Ġphotographed": 6217,
      "Ġstatist": 6218,
      "Ġfishing": 6219,
      "Ġpushed": 6220,
      "Ġdamaged": 6221,
      "Ġpanic": 6222,
      "Ġlifes": 6223,
      "Ġimmune": 6224,
      "Ġdonor": 6225,
      "Ġdocuments": 6226,
      "anyway": 6227,
      "Ġinevit": 6228,
      "Ġsymbols": 6229,
      "Ġoccurred": 6230,
      "Ġspoken": 6231,
      "Ġboundaries": 6232,
      "Ġtort": 6233,
      "Ġfrequency": 6234,
      "Ġdiagnosed": 6235,
      "Ġfabulous": 6236,
      "Ġrefugee": 6237,
      "Ġairplane": 6238,
      "Ġmichael": 6239,
      "Ġarrested": 6240,
      "Ġprivilege": 6241,
      "Ġpowers": 6242,
      "Ġlicense": 6243,
      "Ġconclusion": 6244,
      "Ġbicycle": 6245,
      "Ġwedding": 6246,
      "500": 6247,
      "eared": 6248,
      "hh": 6249,
      "iver": 6250,
      "iety": 6251,
      "lock": 6252,
      "mr": 6253,
      "wl": 6254,
      "Ġtank": 6255,
      "Ġtatt": 6256,
      "inction": 6257,
      "Ġwol": 6258,
      "Ġwound": 6259,
      "Ġsed": 6260,
      "Ġsisters": 6261,
      "ounce": 6262,
      "Ġboss": 6263,
      "Ġmim": 6264,
      "Ġfan": 6265,
      "Ġfate": 6266,
      "Ġfulf": 6267,
      "Ġlung": 6268,
      "Ġgay": 6269,
      "Ġgate": 6270,
      "oman": 6271,
      "itors": 6272,
      "icago": 6273,
      "urable": 6274,
      "Ġdoors": 6275,
      "opard": 6276,
      "Ġaband": 6277,
      "Ġabilities": 6278,
      "Ġjaz": 6279,
      "add": 6280,
      "ulum": 6281,
      "Ġexcell": 6282,
      "Ġdelight": 6283,
      "Ġcomed": 6284,
      "Ġproof": 6285,
      "Ġbutter": 6286,
      "Ġtheme": 6287,
      "Ġspark": 6288,
      "Ġplot": 6289,
      "ogue": 6290,
      "Ġenforce": 6291,
      "Ġtack": 6292,
      "Ġleather": 6293,
      "agn": 6294,
      "ague": 6295,
      "Ġuns": 6296,
      "Ġfeynman": 6297,
      "Ġagreed": 6298,
      "Ġdiscipl": 6299,
      "forward": 6300,
      "ologically": 6301,
      "ishment": 6302,
      "Ġcommission": 6303,
      "phones": 6304,
      "Ġincar": 6305,
      "chnology": 6306,
      "Ġhelic": 6307,
      "Ġtransparent": 6308,
      "Ġobama": 6309,
      "Ġplays": 6310,
      "Ġgrows": 6311,
      "ternal": 6312,
      "Ġorganize": 6313,
      "Ġanimation": 6314,
      "Ġ2009": 6315,
      "Ġstandards": 6316,
      "Ġclasses": 6317,
      "Ġfilter": 6318,
      "Ġdrag": 6319,
      "Ġ600": 6320,
      "Ġmagical": 6321,
      "Ġvirgin": 6322,
      "Ġviews": 6323,
      "Ġdaughters": 6324,
      "Ġsensor": 6325,
      "Ġlegis": 6326,
      "Ġdeaths": 6327,
      "Ġmissed": 6328,
      "Ġescape": 6329,
      "Ġincluded": 6330,
      "Ġpleas": 6331,
      "Ġamounts": 6332,
      "Ġpsychological": 6333,
      "Ġconventional": 6334,
      "Ġstayed": 6335,
      "Ġsecretary": 6336,
      "Ġaccountability": 6337,
      "Ġfootball": 6338,
      "Ġsongs": 6339,
      "Ġaston": 6340,
      "Ġreturned": 6341,
      "Ġdropped": 6342,
      "Ġclinic": 6343,
      "Ġjudge": 6344,
      "Ġtissues": 6345,
      "Ġfacilities": 6346,
      "Ġdelivered": 6347,
      "Ġhistorical": 6348,
      "Ġnewspapers": 6349,
      "Ġensure": 6350,
      "Ġmystery": 6351,
      "copes": 6352,
      "Ġthrown": 6353,
      "Ġappreciate": 6354,
      "Ġsatisf": 6355,
      "Ġastronom": 6356,
      "Ġsacrifice": 6357,
      "Ġdynamics": 6358,
      "Ġwikipedia": 6359,
      "Ġacknow": 6360,
      "Ġunexpected": 6361,
      "Ġcigare": 6362,
      "bial": 6363,
      "han": 6364,
      "happ": 6365,
      "iw": 6366,
      "iate": 6367,
      "jo": 6368,
      "ka": 6369,
      "nam": 6370,
      "pm": 6371,
      "rant": 6372,
      "rors": 6373,
      "ull": 6374,
      "vo": 6375,
      "war": 6376,
      "Ġtent": 6377,
      "Ġaes": 6378,
      "Ġcats": 6379,
      "Ġmood": 6380,
      "Ġpicking": 6381,
      "Ġfiring": 6382,
      "Ġdow": 6383,
      "Ġinject": 6384,
      "Ġlone": 6385,
      "Ġnasa": 6386,
      "level": 6387,
      "ication": 6388,
      "Ġweigh": 6389,
      "Ġwhis": 6390,
      "Ġredef": 6391,
      "ida": 6392,
      "rah": 6393,
      "Ġanger": 6394,
      "Ġjune": 6395,
      "Ġshame": 6396,
      "Ġchicago": 6397,
      "Ġexecut": 6398,
      "Ġsomewhat": 6399,
      "Ġalb": 6400,
      "Ġseek": 6401,
      "Ġactor": 6402,
      "ema": 6403,
      "Ġnose": 6404,
      "agger": 6405,
      "Ġappears": 6406,
      "Ġquit": 6407,
      "Ġperm": 6408,
      "Ġwherever": 6409,
      "Ġcock": 6410,
      "bees": 6411,
      "Ġroots": 6412,
      "Ġtraum": 6413,
      "cohol": 6414,
      "Ġscenar": 6415,
      "Ġraw": 6416,
      "Ġcausing": 6417,
      "Ġoffers": 6418,
      "obile": 6419,
      "Ġmayor": 6420,
      "Ġguer": 6421,
      "Ġgenius": 6422,
      "Ġpupp": 6423,
      "Ġinvite": 6424,
      "Ġearn": 6425,
      "Ġregime": 6426,
      "Ġnorthern": 6427,
      "Ġsubway": 6428,
      "Ġjoint": 6429,
      "Ġconfidence": 6430,
      "Ġgravity": 6431,
      "Ġcurios": 6432,
      "Ġdefense": 6433,
      "Ġtested": 6434,
      "Ġ99": 6435,
      "Ġprovided": 6436,
      "Ġprovides": 6437,
      "Ġlego": 6438,
      "Ġprotected": 6439,
      "attan": 6440,
      "Ġphotography": 6441,
      "Ġchoosing": 6442,
      "Ġsuggesting": 6443,
      "Ġchemistry": 6444,
      "Ġdivided": 6445,
      "Ġconsume": 6446,
      "Ġfeeding": 6447,
      "Ġreported": 6448,
      "Ġthreats": 6449,
      "Ġobserve": 6450,
      "Ġimmediate": 6451,
      "Ġstrategies": 6452,
      "Ġvictim": 6453,
      "Ġshaped": 6454,
      "Ġinfected": 6455,
      "Ġliberal": 6456,
      "Ġtitan": 6457,
      "Ġhanging": 6458,
      "Ġhousing": 6459,
      "Ġfarmers": 6460,
      "Ġchimpanzee": 6461,
      "Ġconserv": 6462,
      "Ġroute": 6463,
      "Ġroutine": 6464,
      "Ġvolunteers": 6465,
      "Ġrecover": 6466,
      "Ġacademic": 6467,
      "Ġfederal": 6468,
      "Ġsenior": 6469,
      "Ġdozen": 6470,
      "capes": 6471,
      "maker": 6472,
      "Ġbombsight": 6473,
      "Ġtedtalks": 6474,
      "Ġresolution": 6475,
      "Ġforgotten": 6476,
      "Ġoverwhelming": 6477,
      "Ġorchestra": 6478,
      "Ġdimensions": 6479,
      "Ġagriculture": 6480,
      "Ġberlin": 6481,
      "human": 6482,
      "Ġexplanation": 6483,
      "Ġnigeria": 6484,
      "Ġstanford": 6485,
      "basically": 6486,
      "Ġsyndr": 6487,
      "Ġincarcer": 6488,
      "Ġhelicop": 6489,
      "bj": 6490,
      "case": 6491,
      "dri": 6492,
      "eed": 6493,
      "free": 6494,
      "field": 6495,
      "greg": 6496,
      "hist": 6497,
      "iel": 6498,
      "lims": 6499,
      "made": 6500,
      "nter": 6501,
      "oying": 6502,
      "Ġtears": 6503,
      "Ġoct": 6504,
      "Ġought": 6505,
      "Ġcows": 6506,
      "Ġpir": 6507,
      "Ġpunch": 6508,
      "Ġdrones": 6509,
      "isa": 6510,
      "Ġnick": 6511,
      "ari": 6512,
      "vey": 6513,
      "Ġbears": 6514,
      "sters": 6515,
      "Ġliqu": 6516,
      "amine": 6517,
      "Ġmoz": 6518,
      "Ġsel": 6519,
      "Ġseat": 6520,
      "Ġneural": 6521,
      "Ġchocol": 6522,
      "Ġdear": 6523,
      "Ġvoting": 6524,
      "Ġmail": 6525,
      "Ġours": 6526,
      "ortion": 6527,
      "Ġsav": 6528,
      "Ġenlight": 6529,
      "Ġtables": 6530,
      "Ġleon": 6531,
      "Ġlean": 6532,
      "Ġunconscious": 6533,
      "Ġfeatures": 6534,
      "Ġdisability": 6535,
      "Ġpharm": 6536,
      "Ġprem": 6537,
      "Ġprepare": 6538,
      "pled": 6539,
      "Ġletting": 6540,
      "acing": 6541,
      "Ġmuscles": 6542,
      "Ġtribe": 6543,
      "Ġextend": 6544,
      "Ġhomework": 6545,
      "Ġrepublic": 6546,
      "Ġsuppose": 6547,
      "Ġopenness": 6548,
      "Ġsubtle": 6549,
      "together": 6550,
      "Ġjoke": 6551,
      "Ġmarker": 6552,
      "Ġdepth": 6553,
      "Ġdisturb": 6554,
      "Ġdistrict": 6555,
      "Ġglobally": 6556,
      "Ġparaly": 6557,
      "Ġexcl": 6558,
      "Ġequation": 6559,
      "Ġholy": 6560,
      "Ġviewer": 6561,
      "Ġproductive": 6562,
      "something": 6563,
      "Ġpresentation": 6564,
      "aneously": 6565,
      "Ġsentences": 6566,
      "Ġantib": 6567,
      "Ġtextbook": 6568,
      "Ġperforming": 6569,
      "Ġencount": 6570,
      "Ġrecords": 6571,
      "Ġcompassionate": 6572,
      "Ġsilic": 6573,
      "Ġobsessed": 6574,
      "Ġversions": 6575,
      "Ġoccasion": 6576,
      "Ġconsumption": 6577,
      "Ġblindness": 6578,
      "Ġdisappeared": 6579,
      "Ġobservation": 6580,
      "Ġdepending": 6581,
      "Ġcryst": 6582,
      "Ġencounter": 6583,
      "Ġinfection": 6584,
      "Ġcontinued": 6585,
      "Ġprinting": 6586,
      "Ġdistributed": 6587,
      "Ġinnovations": 6588,
      "Ġfascinated": 6589,
      "profit": 6590,
      "Ġrainforest": 6591,
      "Ġbenj": 6592,
      "Ġambig": 6593,
      "Ġecosystems": 6594,
      "Ġfrankly": 6595,
      "Ġpenguin": 6596,
      "Ġguns": 6597,
      "Ġsmoke": 6598,
      "Ġreveal": 6599,
      "Ġmysterious": 6600,
      "Ġsports": 6601,
      "makers": 6602,
      "ecd": 6603,
      "Ġpedest": 6604,
      "Ġshadow": 6605,
      "Ġdedicated": 6606,
      "Ġevolve": 6607,
      "Ġprototype": 6608,
      "Ġspanish": 6609,
      "Ġridiculous": 6610,
      "Ġmaxim": 6611,
      "Ġentertainment": 6612,
      "Ġdignity": 6613,
      "Ġmanhattan": 6614,
      "Ġtattoo": 6615,
      "Ġenforcement": 6616,
      "Ġsyndrome": 6617,
      "dam": 6618,
      "ether": 6619,
      "looking": 6620,
      "mers": 6621,
      "mod": 6622,
      "nes": 6623,
      "net": 6624,
      "ois": 6625,
      "oft": 6626,
      "pat": 6627,
      "tr": 6628,
      "Ġtu": 6629,
      "Ġaim": 6630,
      "Ġari": 6631,
      "inations": 6632,
      "reens": 6633,
      "Ġsits": 6634,
      "Ġment": 6635,
      "Ġmast": 6636,
      "Ġpac": 6637,
      "Ġfathers": 6638,
      "ald": 6639,
      "Ġnu": 6640,
      "Ġnin": 6641,
      "Ġwet": 6642,
      "Ġech": 6643,
      "owered": 6644,
      "utical": 6645,
      "Ġreform": 6646,
      "Ġstack": 6647,
      "Ġash": 6648,
      "Ġjes": 6649,
      "Ġcham": 6650,
      "Ġatom": 6651,
      "Ġconce": 6652,
      "Ġalice": 6653,
      "Ġalcohol": 6654,
      "osure": 6655,
      "Ġsunday": 6656,
      "emics": 6657,
      "Ġnobel": 6658,
      "Ġuncertain": 6659,
      "Ġunbelie": 6660,
      "Ġmanager": 6661,
      "Ġperpet": 6662,
      "Ġcoach": 6663,
      "Ġ26": 6664,
      "before": 6665,
      "Ġpoison": 6666,
      "aceutical": 6667,
      "Ġbob": 6668,
      "Ġgrate": 6669,
      "Ġcommitted": 6670,
      "Ġcake": 6671,
      "Ġwriters": 6672,
      "Ġbrows": 6673,
      "Ġfactories": 6674,
      "Ġdecline": 6675,
      "lete": 6676,
      "next": 6677,
      "Ġentered": 6678,
      "Ġ191": 6679,
      "Ġelim": 6680,
      "Ġsolved": 6681,
      "Ġhardly": 6682,
      "Ġhardware": 6683,
      "Ġwalks": 6684,
      "Ġexploration": 6685,
      "Ġconfir": 6686,
      "Ġdrill": 6687,
      "Ġstops": 6688,
      "Ġpassing": 6689,
      "Ġ2005": 6690,
      "Ġmargin": 6691,
      "Ġmemor": 6692,
      "Ġhousehold": 6693,
      "Ġgeographic": 6694,
      "Ġuniverses": 6695,
      "Ġcraft": 6696,
      "Ġfocusing": 6697,
      "Ġgrandparents": 6698,
      "Ġexisted": 6699,
      "Ġnonviol": 6700,
      "Ġimprov": 6701,
      "Ġrepresented": 6702,
      "Ġstrongly": 6703,
      "Ġsuffered": 6704,
      "Ġimpacts": 6705,
      "Ġillusion": 6706,
      "Ġaffects": 6707,
      "Ġauthent": 6708,
      "Ġsecrets": 6709,
      "Ġballoon": 6710,
      "Ġmechanics": 6711,
      "Ġactivist": 6712,
      "Ġfootage": 6713,
      "Ġfluid": 6714,
      "Ġturkey": 6715,
      "Ġmiserable": 6716,
      "Ġsales": 6717,
      "Ġaffordable": 6718,
      "Ġpete": 6719,
      "haust": 6720,
      "Ġsuspect": 6721,
      "Ġengagement": 6722,
      "Ġjumped": 6723,
      "Ġcriminals": 6724,
      "Ġweapon": 6725,
      "Ġblend": 6726,
      "Ġgarbage": 6727,
      "Ġselection": 6728,
      "Ġshopping": 6729,
      "Ġcrucial": 6730,
      "Ġrecovery": 6731,
      "Ġharvest": 6732,
      "Ġappeared": 6733,
      "Ġreconst": 6734,
      "Ġimplications": 6735,
      "Ġhydrogen": 6736,
      "Ġanxiety": 6737,
      "Ġimpressive": 6738,
      "Ġtower": 6739,
      "Ġhypothesis": 6740,
      "Ġprocrast": 6741,
      "Ġitalian": 6742,
      "Ġdisagree": 6743,
      "Ġemphas": 6744,
      "Ġcuriosity": 6745,
      "bar": 6746,
      "cr": 6747,
      "iber": 6748,
      "lie": 6749,
      "lands": 6750,
      "mar": 6751,
      "mass": 6752,
      "py": 6753,
      "pass": 6754,
      "person": 6755,
      "rations": 6756,
      "range": 6757,
      "Ġtas": 6758,
      "Ġtied": 6759,
      "Ġol": 6760,
      "Ġmate": 6761,
      "Ġhind": 6762,
      "Ġhier": 6763,
      "Ġpause": 6764,
      "Ġpace": 6765,
      "onge": 6766,
      "Ġfurn": 6767,
      "Ġfoss": 6768,
      "Ġfought": 6769,
      "Ġdirty": 6770,
      "oral": 6771,
      "Ġlun": 6772,
      "thy": 6773,
      "omm": 6774,
      "omous": 6775,
      "iture": 6776,
      "itating": 6777,
      "Ġbeating": 6778,
      "otion": 6779,
      "Ġstor": 6780,
      "chool": 6781,
      "Ġangle": 6782,
      "Ġupper": 6783,
      "Ġneat": 6784,
      "Ġchest": 6785,
      "Ġchairs": 6786,
      "Ġdecent": 6787,
      "Ġproport": 6788,
      "Ġorange": 6789,
      "Ġlikeli": 6790,
      "ums": 6791,
      "Ġbutt": 6792,
      "Ġtech": 6793,
      "Ġintr": 6794,
      "Ġtricks": 6795,
      "Ġenables": 6796,
      "Ġenemy": 6797,
      "whether": 6798,
      "udes": 6799,
      "Ġarmed": 6800,
      "Ġovercome": 6801,
      "Ġpoly": 6802,
      "Ġtragic": 6803,
      "Ġscales": 6804,
      "Ġscreens": 6805,
      "Ġrealistic": 6806,
      "Ġgoodbye": 6807,
      "Ġprec": 6808,
      "obvious": 6809,
      "Ġincident": 6810,
      "Ġflag": 6811,
      "Ġflip": 6812,
      "Ġguide": 6813,
      "Ġinstantly": 6814,
      "Ġcourses": 6815,
      "Ġmonster": 6816,
      "Ġimaging": 6817,
      "Ġcarol": 6818,
      "Ġbelieves": 6819,
      "Ġparticle": 6820,
      "Ġextension": 6821,
      "Ġmusicians": 6822,
      "Ġcareful": 6823,
      "issions": 6824,
      "Ġsketch": 6825,
      "Ġgovernance": 6826,
      "Ġeducated": 6827,
      "Ġprofits": 6828,
      "Ġadding": 6829,
      "Ġbrook": 6830,
      "Ġmarrow": 6831,
      "Ġsecure": 6832,
      "Ġfiguring": 6833,
      "Ġincreases": 6834,
      "text": 6835,
      "Ġinvested": 6836,
      "Ġlegacy": 6837,
      "Ġprotecting": 6838,
      "Ġtrends": 6839,
      "Ġpsychologists": 6840,
      "Ġricher": 6841,
      "Ġtemporary": 6842,
      "Ġdivor": 6843,
      "Ġpollution": 6844,
      "Ġturk": 6845,
      "Ġimmig": 6846,
      "Ġbedroom": 6847,
      "Ġlayers": 6848,
      "Ġobserv": 6849,
      "Ġoceans": 6850,
      "Ġterrorist": 6851,
      "Ġterrorists": 6852,
      "Ġcatast": 6853,
      "Ġslaves": 6854,
      "Ġthrowing": 6855,
      "Ġdetector": 6856,
      "Ġsusp": 6857,
      "Ġethn": 6858,
      "Ġmotivated": 6859,
      "Ġaccuracy": 6860,
      "Ġconducted": 6861,
      "Ġknife": 6862,
      "Ġmanufacture": 6863,
      "Ġabsor": 6864,
      "related": 6865,
      "Ġbathroom": 6866,
      "Ġexpertise": 6867,
      "Ġfabric": 6868,
      "Ġlawyer": 6869,
      "Ġtumor": 6870,
      "Ġtweet": 6871,
      "Ġattached": 6872,
      "Ġknock": 6873,
      "Ġangeles": 6874,
      "Ġinstructions": 6875,
      "Ġstroke": 6876,
      "Ġadministration": 6877,
      "Ġseason": 6878,
      "Ġtelescope": 6879,
      "Ġrevenue": 6880,
      "Ġsharp": 6881,
      "Ġsweden": 6882,
      "Ġpalestin": 6883,
      "Ġstereoty": 6884,
      "Ġguerrill": 6885,
      "Ġliquid": 6886,
      "Ġchocolate": 6887,
      "Ġpharmaceutical": 6888,
      "Ġgrateful": 6889,
      "eur": 6890,
      "gger": 6891,
      "half": 6892,
      "rat": 6893,
      "uff": 6894,
      "word": 6895,
      "walk": 6896,
      "zen": 6897,
      "Ġq": 6898,
      "Ġtrop": 6899,
      "Ġtune": 6900,
      "Ġward": 6901,
      "Ġwaters": 6902,
      "nda": 6903,
      "Ġcable": 6904,
      "Ġcert": 6905,
      "Ġbatt": 6906,
      "Ġbamb": 6907,
      "Ġmri": 6908,
      "Ġhig": 6909,
      "enous": 6910,
      "onic": 6911,
      "Ġfires": 6912,
      "Ġdim": 6913,
      "Ġdust": 6914,
      "Ġdump": 6915,
      "Ġdumb": 6916,
      "Ġdirt": 6917,
      "also": 6918,
      "Ġnative": 6919,
      "Ġnaked": 6920,
      "Ġgram": 6921,
      "ione": 6922,
      "Ġrender": 6923,
      "section": 6924,
      "secut": 6925,
      "Ġstol": 6926,
      "Ġstatic": 6927,
      "step": 6928,
      "roll": 6929,
      "rain": 6930,
      "Ġkong": 6931,
      "Ġkoso": 6932,
      "Ġneck": 6933,
      "Ġjaw": 6934,
      "aded": 6935,
      "anta": 6936,
      "ilty": 6937,
      "Ġexhaust": 6938,
      "Ġcongo": 6939,
      "Ġplut": 6940,
      "Ġplain": 6941,
      "Ġsafer": 6942,
      "ogenesis": 6943,
      "izab": 6944,
      "Ġunhapp": 6945,
      "Ġexpans": 6946,
      "Ġdism": 6947,
      "Ġclay": 6948,
      "Ġprisons": 6949,
      "Ġspell": 6950,
      "Ġtalent": 6951,
      "Ġbless": 6952,
      "igned": 6953,
      "Ġresil": 6954,
      "Ġrab": 6955,
      "Ġuseless": 6956,
      "Ġindo": 6957,
      "Ġflood": 6958,
      "Ġdecre": 6959,
      "Ġserving": 6960,
      "Ġattend": 6961,
      "ails": 6962,
      "Ġski": 6963,
      "Ġaccum": 6964,
      "Ġheadlines": 6965,
      "Ġmomentum": 6966,
      "Ġzones": 6967,
      "Ġpainted": 6968,
      "Ġdistingu": 6969,
      "Ġcurve": 6970,
      "ocracy": 6971,
      "Ġsigned": 6972,
      "Ġtreating": 6973,
      "Ġ2006": 6974,
      "Ġexcite": 6975,
      "Ġequally": 6976,
      "Ġ65": 6977,
      "Ġspeakers": 6978,
      "Ġgrandchildren": 6979,
      "Ġexpectancy": 6980,
      "Ġharness": 6981,
      "Ġradically": 6982,
      "clock": 6983,
      "Ġbreakfast": 6984,
      "Ġempire": 6985,
      "Ġmedicines": 6986,
      "Ġpurch": 6987,
      "Ġproposed": 6988,
      "Ġrobotic": 6989,
      "Ġdeliber": 6990,
      "Ġcorrel": 6991,
      "Ġtouched": 6992,
      "Ġthreatened": 6993,
      "Ġexpressions": 6994,
      "Ġassumptions": 6995,
      "Ġchimps": 6996,
      "Ġheaven": 6997,
      "Ġneighborhoods": 6998,
      "Ġmotivation": 6999
    },
    "merges": [
      "Ġ t",
      "Ġt h",
      "Ġ a",
      "i n",
      "Ġ w",
      "Ġ ,",
      "Ġth e",
      "r e",
      "Ġ .",
      "Ġ o",
      "Ġ s",
      "Ġ i",
      "a t",
      "e r",
      "n d",
      "o u",
      "Ġ c",
      "Ġ b",
      "Ġ m",
      "Ġ h",
      "in g",
      "e n",
      "Ġt o",
      "Ġ p",
      "o n",
      "Ġ f",
      "Ġ d",
      "e s",
      "a n",
      "o r",
      "Ġo f",
      "a l",
      "Ġ in",
      "Ġ l",
      "t h",
      "Ġa nd",
      "e d",
      "i s",
      "Ġ n",
      "Ġ '",
      "a r",
      "Ġ y",
      "Ġth at",
      "Ġ g",
      "o m",
      "i t",
      "a s",
      "l e",
      "i c",
      "Ġw e",
      "v e",
      "Ġy ou",
      "Ġw h",
      "Ġ e",
      "u s",
      "l l",
      "l y",
      "Ġb e",
      "o w",
      "Ġi s",
      "Ġi t",
      "i on",
      "u t",
      "a nd",
      "Ġ re",
      "en t",
      "c t",
      "Ġo n",
      "Ġh a",
      "l d",
      "v er",
      "o t",
      "a y",
      "s e",
      "g h",
      "Ġ -",
      "e t",
      "Ġth is",
      "Ġs t",
      "s t",
      "i d",
      "u r",
      "r o",
      "c h",
      "Ġd o",
      "Ġw i",
      "k e",
      "e re",
      "Ġf or",
      "Ġ \"",
      "c e",
      "Ġl i",
      "Ġw as",
      "i r",
      "gh t",
      "o p",
      "r a",
      "r b",
      "i m",
      "Ġa n",
      "Ġa re",
      "Ġ u",
      "s o",
      "o o",
      "Ġha ve",
      "al ly",
      "om e",
      "Ġwi th",
      "Ġ k",
      "a m",
      "Ġthe y",
      "Ġm o",
      "r i",
      "Ġs e",
      "Ġa b",
      "at ion",
      "Ġs o",
      "Ġa s",
      "Ġw or",
      "Ġc an",
      "Ġwh at",
      "ou t",
      "g e",
      "Ġm e",
      "Ġn e",
      "Ġh e",
      "Ġ j",
      "us e",
      "Ġg o",
      "a d",
      "Ġs h",
      "Ġc h",
      "ver y",
      "Ġ ?",
      "' t",
      "p p",
      "ou ld",
      "o l",
      "er s",
      "Ġa t",
      "Ġab out",
      "Ġm y",
      "Ġn ot",
      "an t",
      "Ġa ll",
      "n ow",
      "u l",
      "us t",
      "i l",
      "Ġe x",
      "Ġd e",
      "t er",
      "Ġc om",
      "Ġp ro",
      "th er",
      "a use",
      "Ġp e",
      "w e",
      "Ġf r",
      "e ar",
      "i f",
      "Ġthe re",
      "Ġs ome",
      "th e",
      "es s",
      "op le",
      "ar t",
      "Ġo r",
      "Ġc on",
      "Ġon e",
      "Ġli ke",
      "Ġpe ople",
      "es t",
      "Ġ v",
      "at e",
      "u m",
      "Ġm a",
      "is t",
      "it y",
      "Ġo ur",
      "c k",
      "n t",
      "i ve",
      "u re",
      "Ġfr om",
      "Ġa l",
      "Ġ us",
      "l rb",
      "r rb",
      "b le",
      "in d",
      "i g",
      "Ġb ut",
      "e ct",
      "i es",
      "Ġbe c",
      "Ġt e",
      "al l",
      "r ou",
      "q u",
      "Ġo ut",
      "Ġj ust",
      "k ing",
      "Ġin t",
      "u n",
      "Ġthe m",
      "Ġs p",
      "Ġthe se",
      "Ġ :",
      "on e",
      "b ut",
      "Ġwh o",
      "Ġk now",
      "Ġi f",
      "Ġse e",
      "Ġth ing",
      "Ġ r",
      "Ġl a",
      "o s",
      "or t",
      "c i",
      "Ġ very",
      "Ġu p",
      "i ll",
      "Ġth in",
      "Ġa ct",
      "Ġg et",
      "Ġp l",
      "Ġwh en",
      "th ing",
      "Ġb y",
      "oo k",
      "Ġmo re",
      "Ġha d",
      "a in",
      "Ġwe re",
      "Ġthe ir",
      "ou r",
      "Ġyou r",
      "ic h",
      "m ent",
      "Ġ 1",
      "Ġi m",
      "Ġbec ause",
      "Ġs a",
      "Ġt im",
      "Ġt r",
      "Ġh ow",
      "Ġgo ing",
      "Ġs u",
      "e l",
      "Ġw ould",
      "a p",
      "Ġy ear",
      "e m",
      "in e",
      "i e",
      "a re",
      "Ġcom p",
      "i v",
      "Ġwor ld",
      "Ġthin k",
      "o g",
      "Ġn o",
      "Ġ en",
      "am e",
      "Ġf a",
      "Ġw ant",
      "as t",
      "ou s",
      "Ġt a",
      "Ġre ally",
      "i z",
      "0 0",
      "Ġwh ich",
      "re at",
      "Ġl e",
      "u ally",
      "w h",
      "u ght",
      "Ġw ay",
      "ar d",
      "an s",
      "i ght",
      "a g",
      "oo d",
      "Ġe very",
      "id e",
      "Ġh as",
      "Ġtim e",
      "Ġu n",
      "a ck",
      "o d",
      "o re",
      "Ġh ere",
      "Ġex p",
      "o se",
      "Ġm an",
      "ught er",
      "Ġa pp",
      "Ġthe n",
      "Ġth an",
      "u d",
      "ion s",
      "Ġ qu",
      "Ġp er",
      "Ġc ould",
      "en ce",
      "Ġf e",
      "a ge",
      "Ġint o",
      "Ġact ually",
      "Ġe v",
      "Ġla ughter",
      "Ġn ow",
      "i ld",
      "Ġa g",
      "Ġwh ere",
      "Ġwi ll",
      "Ġwor k",
      "Ġo ther",
      "it t",
      "Ġd id",
      "re s",
      "Ġl ook",
      "on g",
      "Ġa m",
      "Ġs ay",
      "if f",
      "f e",
      "Ġ ri",
      "Ġd iff",
      "Ġthing s",
      "a ch",
      "Ġyear s",
      "Ġne w",
      "ic al",
      "Ġha pp",
      "f f",
      "Ġma ke",
      "a b",
      "th is",
      "nd er",
      "Ġt w",
      "Ġd is",
      "Ġan y",
      "p t",
      "Ġa r",
      "Ġbe en",
      "Ġc o",
      "Ġne ed",
      "Ġc l",
      "Ġst art",
      "at h",
      "d e",
      "Ġo ver",
      "r y",
      "Ġsome thing",
      "Ġsa id",
      "y ou",
      "the y",
      "ic e",
      "Ġ 2",
      "Ġp art",
      "or y",
      "ir st",
      "f or",
      "Ġri ght",
      "an g",
      "Ġl o",
      "Ġdiff ere",
      "re d",
      "b e",
      "re e",
      "rou nd",
      "se l",
      "it e",
      "ou nd",
      "h e",
      "Ġim p",
      "v es",
      "ou nt",
      "Ġp o",
      "as s",
      "a ce",
      "Ġtw o",
      "Ġ ro",
      "Ġal so",
      "Ġb u",
      "en s",
      "Ġm u",
      "i p",
      "ul t",
      "Ġk ind",
      "Ġc all",
      "Ġf irst",
      "Ġp r",
      "ow n",
      "Ġsh e",
      "i a",
      "Ġsp e",
      "Ġa c",
      "Ġmu ch",
      "v ing",
      "Ġth ose",
      "itt le",
      "Ġb ack",
      "Ġg ot",
      "Ġapp l",
      "b er",
      "ol og",
      "Ġl ittle",
      "Ġli fe",
      "Ġd ay",
      "p le",
      "a ct",
      "Ġmo st",
      "ation s",
      "Ġbe t",
      "at er",
      "Ġcon t",
      "Ġp h",
      "Ġa d",
      "Ġl ot",
      "at ed",
      "Ġt al",
      "Ġev en",
      "c es",
      "Ġa f",
      "is h",
      "ve l",
      "Ġh is",
      "Ġs y",
      "c ent",
      "u e",
      "Ġb l",
      "ig n",
      "Ġon ly",
      "r u",
      "Ġh er",
      "w ay",
      "a ble",
      "m s",
      "Ġh um",
      "Ġappl ause",
      "Ġdiffere nt",
      "rou gh",
      "Ġre s",
      "Ġt ra",
      "od y",
      "Ġu nder",
      "c o",
      "Ġta ke",
      "ic t",
      "ic k",
      "Ġs c",
      "Ġe m",
      "Ġman y",
      "Ġa round",
      "Ġwe ll",
      "Ġb o",
      "Ġre al",
      "Ġg ood",
      "Ġth rough",
      "e p",
      "Ġd es",
      "Ġg r",
      "Ġcom m",
      "as e",
      "e nd",
      "in t",
      "c ess",
      "n ing",
      "Ġdo es",
      "Ġw om",
      "d ay",
      "ent s",
      "Ġbe ing",
      "Ġi de",
      "Ġte ll",
      "Ġp re",
      "j ect",
      "an ce",
      "p h",
      "p l",
      "i re",
      "Ġp ut",
      "Ġ ra",
      "or s",
      "Ġin ter",
      "for m",
      "Ġd own",
      "ad e",
      "Ġc a",
      "Ġw r",
      "Ġsh ow",
      "w n",
      "Ġof f",
      "e ll",
      "al s",
      "o b",
      "ar k",
      "th at",
      "Ġs ame",
      "Ġl ear",
      "Ġm ay",
      "x t",
      "Ġin c",
      "an ge",
      "i gh",
      "Ġc ount",
      "Ġch ild",
      "Ġtr y",
      "Ġp ers",
      "Ġ use",
      "Ġto o",
      "y s",
      "Ġb r",
      "d u",
      "re n",
      "ar y",
      "Ġhapp en",
      "Ġpro ble",
      "res s",
      "v ed",
      "ur n",
      "a k",
      "m o",
      "Ġfa ct",
      "Ġhum an",
      "Ġth ou",
      "Ġin d",
      "Ġc ome",
      "oo l",
      "Ġf l",
      "Ġst ud",
      "ch n",
      "Ġb ra",
      "Ġg reat",
      "st em",
      "Ġb ig",
      "Ġf ind",
      "sel f",
      "t ing",
      "i le",
      "f ul",
      "ar s",
      "p er",
      "Ġwh y",
      "Ġde c",
      "Ġte chn",
      "Ġl et",
      "le ct",
      "Ġc ol",
      "Ġexp er",
      "Ġg u",
      "i ble",
      "it ies",
      "th ere",
      "b l",
      "c on",
      "wh at",
      "Ġth ree",
      "ver s",
      "Ġso ci",
      "Ġs m",
      "Ġo wn",
      "Ġdo ing",
      "Ġs ur",
      "ic s",
      "Ġg en",
      "Ġag ain",
      "Ġsy stem",
      "ic ally",
      "f ore",
      "Ġto day",
      "Ġm ade",
      "le t",
      "n e",
      "u al",
      "at ing",
      "Ġtal k",
      "Ġf o",
      "Ġhe l",
      "or d",
      "Ġqu est",
      "an k",
      "it ion",
      "Ġbe l",
      "Ġaf ter",
      "i ous",
      "Ġcall ed",
      "ow er",
      "Ġp u",
      "Ġin v",
      "Ġs im",
      "on s",
      "Ġbu ild",
      "Ġs ch",
      "Ġper cent",
      "Ġfe el",
      "Ġtr ans",
      "b ody",
      "i al",
      "a c",
      "olog y",
      "Ġpers on",
      "Ġo b",
      "Ġ ;",
      "Ġp ol",
      "Ġe nd",
      "at es",
      "Ġin st",
      "Ġas k",
      "Ġre m",
      "Ġin s",
      "Ġc our",
      "ill ion",
      "Ġp os",
      "Ġl ong",
      "Ġh igh",
      "Ġc reat",
      "o ther",
      "Ġstart ed",
      "i b",
      "Ġpl ay",
      "Ġimp ort",
      "Ġhel p",
      "Ġm us",
      "Ġunder st",
      "Ġre l",
      "Ġwom en",
      "Ġsh ould",
      "Ġbra in",
      "t y",
      "Ġide a",
      "op e",
      "i ly",
      "Ġex am",
      "Ġh im",
      "Ġlear n",
      "iz e",
      "Ġch ange",
      "Ġe ar",
      "Ġt urn",
      "p e",
      "ge ther",
      "and s",
      "Ġst ory",
      "Ġf ound",
      "f t",
      "Ġimport ant",
      "Ġthou ght",
      "is e",
      "Ġar t",
      "Ġne ver",
      "Ġs ci",
      "Ġg ive",
      "Ġf am",
      "Ġto gether",
      "Ġg l",
      "Ġbe fore",
      "Ġm ight",
      "Ġm on",
      "Ġbet ter",
      "ere st",
      "Ġsch ool",
      "Ġcour se",
      "ul ar",
      "Ġim ag",
      "00 0",
      "Ġw ent",
      "Ġl ast",
      "Ġc r",
      "Ġc ar",
      "we ll",
      "i an",
      "Ġb it",
      "Ġst ill",
      "Ġproble m",
      "Ġbel ie",
      "Ġme an",
      "Ġe ach",
      "k es",
      "Ġ ke",
      "r ic",
      "Ġh u",
      "Ġunderst and",
      "k s",
      "Ġcomm un",
      "Ġb as",
      "g an",
      "Ġ 3",
      "ist s",
      "ath er",
      "Ġit s",
      "Ġint erest",
      "Ġt ri",
      "l es",
      "Ġan other",
      "Ġfe w",
      "Ġn um",
      "il ity",
      "Ġwor d",
      "es e",
      "it ed",
      "Ġm om",
      "ct ion",
      "c ed",
      "Ġm ed",
      "Ġd at",
      "o ld",
      "Ġ ent",
      "Ġre ad",
      "Ġ1 9",
      "ar ch",
      "Ġs l",
      "a ve",
      "er ic",
      "Ġne xt",
      "Ġpo int",
      "Ġo ld",
      "l s",
      "Ġk id",
      "Ġp ower",
      "Ġab le",
      "Ġcon s",
      "we en",
      "Ġen g",
      "vel op",
      "Ġf u",
      "a v",
      "Ġlo ve",
      "Ġdes ign",
      "en se",
      "co nd",
      "Ġbet ween",
      "Ġchild ren",
      "n ess",
      "Ġde velop",
      "Ġc ent",
      "in ess",
      "Ġquest ion",
      "Ġag o",
      "g er",
      "Ġ ed",
      "at ch",
      "Ġb ook",
      "Ġexam ple",
      "Ġc ame",
      "i x",
      "Ġe ver",
      "i ence",
      "Ġo p",
      "ut ion",
      "Ġs er",
      "Ġdat a",
      "ro s",
      "Ġat t",
      "n o",
      "Ġpart ic",
      "Ġf our",
      "Ġc ell",
      "Ġ2 0",
      "c y",
      "Ġm in",
      "Ġpl ace",
      "g in",
      "a z",
      "Ġli ve",
      "v en",
      "Ġf in",
      "Ġf ri",
      "Ġun i",
      "Ġp at",
      "Ġe l",
      "iz ed",
      "Ġe ff",
      "Ġt er",
      "one y",
      "Ġtechn ology",
      "w ard",
      "Ġbe h",
      "sel ves",
      "re ad",
      "Ġin form",
      "oo king",
      "Ġus ed",
      "Ġst r",
      "Ġmo ve",
      "Ġex t",
      "al th",
      "Ġmus ic",
      "Ġso l",
      "Ġc re",
      "Ġw ater",
      "Ġwant ed",
      "u c",
      "ou gh",
      "Ġc are",
      "ure s",
      "way s",
      "Ġyou n",
      "Ġd i",
      "ere d",
      "Ġam eric",
      "Ġpro du",
      "e ly",
      "ce pt",
      "Ġmo d",
      "Ġh ome",
      "Ġ1 0",
      "Ġgr ow",
      "h ip",
      "Ġd one",
      "ing s",
      "ra m",
      "er t",
      "is m",
      "Ġpro ject",
      "is s",
      "l i",
      "at ive",
      "Ġc ap",
      "Ġw o",
      "Ġb us",
      "Ġcount ry",
      "Ġcomp ut",
      "Ġsm all",
      "Ġpu bl",
      "wh en",
      "ment s",
      "Ġtry ing",
      "a il",
      "Ġinform ation",
      "th ank",
      "con om",
      "p s",
      "Ġre c",
      "Ġfri end",
      "Ġl ess",
      "Ġm en",
      "Ġre g",
      "Ġs ort",
      "Ġpos s",
      "er g",
      "Ġre p",
      "ver n",
      "Ġgen er",
      "Ġch ang",
      "Ġv is",
      "al e",
      "Ġte ach",
      "Ġpl an",
      "Ġse cond",
      "Ġsu pp",
      "Ġg iv",
      "Ġe conom",
      "Ġm oney",
      "ra ph",
      "Ġwor king",
      "Ġm ind",
      "Ġli ght",
      "Ġc or",
      "Ġst u",
      "Ġbelie ve",
      "Ġs k",
      "be c",
      "Ġh ard",
      "Ġre as",
      "Ġf ar",
      "Ġl ooking",
      "if ic",
      "Ġyoun g",
      "Ġm et",
      "or k",
      "et s",
      "Ġevery thing",
      "Ġr un",
      "Ġal ways",
      "Ġres p",
      "Ġme ans",
      "Ġpr ot",
      "Ġw al",
      "Ġcomp an",
      "Ġac c",
      "n ect",
      "Ġgo vern",
      "Ġc ou",
      "bec ause",
      "Ġ 5",
      "Ġle ad",
      "Ġop en",
      "ros s",
      "Ġl ar",
      "Ġbec ome",
      "Ġm illion",
      "Ġn or",
      "Ġg ir",
      "Ġc ity",
      "ri es",
      "Ġexp l",
      "Ġwho le",
      "Ġmay be",
      "h ow",
      "ir d",
      "Ġsu b",
      "Ġcre ate",
      "ra ct",
      "Ġf ut",
      "Ġsoci al",
      "or ies",
      "Ġh and",
      "Ġli ves",
      "Ġinter n",
      "Ġv ide",
      "mo st",
      "Ġa way",
      "Ġpro cess",
      "Ġthin king",
      "Ġtim es",
      "ab ly",
      "m an",
      "Ġp res",
      "Ġus ing",
      "t o",
      "Ġin f",
      "m y",
      "Ġsp ace",
      "Ġs ound",
      "g g",
      "l f",
      "Ġb est",
      "Ġfut ure",
      "ation al",
      "Ġb i",
      "t en",
      "it s",
      "Ġm at",
      "ur al",
      "a h",
      "in es",
      "u es",
      "Ġj o",
      "Ġnum ber",
      "Ġthan k",
      "k ay",
      "Ġp ict",
      "om et",
      "Ġf ive",
      "Ġw ar",
      "Ġn at",
      "it al",
      "ter n",
      "Ġro om",
      "Ġhe alth",
      "Ġor gan",
      "Ġmon th",
      "Ġpol it",
      "Ġfor m",
      "Ġhe ad",
      "ci al",
      "ang u",
      "c er",
      "Ġkid s",
      "a ut",
      "Ġf un",
      "Ġfa ce",
      "Ġs et",
      "Ġcon f",
      "Ġwe e",
      "Ġtoo k",
      "Ġg rou",
      "al ity",
      "Ġj ob",
      "n ce",
      "Ġs ing",
      "Ġel se",
      "al f",
      "Ġl angu",
      "it ing",
      "l ed",
      "re t",
      "ie w",
      "h ere",
      "Ġcon nect",
      "Ġm ark",
      "Ġ 4",
      "ic es",
      "Ġd ri",
      "ent ion",
      "Ġwith out",
      "Ġfam ily",
      "Ġl ist",
      "ot e",
      "Ġs ide",
      "Ġg ra",
      "Ġdo ll",
      "Ġv al",
      "wh ere",
      "s w",
      "Ġs ense",
      "on t",
      "Ġbe aut",
      "et y",
      "Ġmom ent",
      "ou se",
      "ru ct",
      "Ġpre t",
      "Ġsh are",
      "Ġbus iness",
      "Ġvide o",
      "Ġc am",
      "Ġcom es",
      "em ber",
      "Ġwh e",
      "Ġed uc",
      "Ġask ed",
      "ur ing",
      "Ġpro g",
      "Ġget ting",
      "Ġle ft",
      "Ġtal king",
      "c us",
      "y ing",
      "Ġb ody",
      "og raph",
      "Ġc ult",
      "Ġan im",
      "Ġma king",
      "Ġre se",
      "Ġinterest ing",
      "Ġhappen ed",
      "Ġbe gin",
      "ate ly",
      "Ġeff ect",
      "Ġe as",
      "Ġto ld",
      "in ce",
      "Ġde p",
      "Ġpro b",
      "Ġh our",
      "Ġph ot",
      "Ġ !",
      "Ġp ie",
      "Ġway s",
      "o ck",
      "Ġspe c",
      "Ġph ys",
      "Ġl ater",
      "Ġe lect",
      "Ġs w",
      "Ġh ope",
      "i ed",
      "Ġ z",
      "Ġp ain",
      "Ġli ving",
      "Ġpro f",
      "Ġsu ch",
      "Ġam az",
      "ll ow",
      "Ġma kes",
      "Ġqu ite",
      "Ġad d",
      "Ġp op",
      "Ġst re",
      "n er",
      "Ġc le",
      "Ġst op",
      "Ġall ow",
      "Ġpubl ic",
      "Ġd ist",
      "im es",
      "iz ation",
      "Ġcont ro",
      "Ġexper ience",
      "th ese",
      "l ess",
      "Ġc ur",
      "Ġh alf",
      "Ġse lf",
      "Ġen ough",
      "Ġgl ob",
      "Ġch in",
      "v ir",
      "Ġch ar",
      "Ġor d",
      "Ġrese arch",
      "Ġan sw",
      "o c",
      "Ġt y",
      "im e",
      "are nt",
      "Ġb ro",
      "Ġpret ty",
      "Ġo pp",
      "Ġh ist",
      "a ces",
      "o ice",
      "Ġe y",
      "ert ain",
      "th ers",
      "e ver",
      "Ġha ving",
      "Ġs ign",
      "Ġhe ar",
      "Ġcount ries",
      "Ġbr ing",
      "Ġke ep",
      "s he",
      "or n",
      "Ġcomp let",
      "id ed",
      "Ġsa w",
      "Ġins ide",
      "Ġpartic ular",
      "Ġreas on",
      "Ġp ass",
      "Ġma ch",
      "Ġbuild ing",
      "Ġt reat",
      "Ġmy self",
      "Ġa ge",
      "Ġprob ably",
      "Ġc ase",
      "Ġk ne",
      "vir on",
      "ort un",
      "Ġlangu age",
      "Ġen viron",
      "Ġsci ence",
      "id d",
      "Ġb ad",
      "all en",
      "Ġsci ent",
      "Ġdis e",
      "Ġ2 00",
      "ll y",
      "Ġst and",
      "Ġsim ple",
      "Ġw a",
      "Ġany thing",
      "Ġse en",
      "Ġhapp ens",
      "Ġglob al",
      "Ġm or",
      "Ġdoll ars",
      "r ow",
      "Ġre f",
      "Ġday s",
      "Ġcomput er",
      "Ġstu ff",
      "in k",
      "Ġd et",
      "Ġst ate",
      "Ġword s",
      "Ġla b",
      "Ġwom an",
      "Ġcell s",
      "l ine",
      "Ġsay s",
      "e ad",
      "Ġm ar",
      "Ġde f",
      "Ġs it",
      "Ġcl ass",
      "i th",
      "Ġth ous",
      "Ġw atch",
      "re en",
      "Ġwh ile",
      "Ġst ates",
      "Ġse c",
      "r s",
      "Ġto p",
      "Ġac ross",
      "in s",
      "Ġs ix",
      "m ed",
      "le x",
      "Ġb re",
      "Ġrem ember",
      "Ġwr ong",
      "Ġch allen",
      "Ġsome one",
      "Ġal most",
      "Ġfriend s",
      "g s",
      "in ed",
      "Ġlo c",
      "Ġaf ric",
      "u th",
      "Ġk ill",
      "ap s",
      "read y",
      "o nd",
      "Ġa ir",
      "Ġen erg",
      "Ġgovern ment",
      "ver se",
      "ot s",
      "Ġwhe ther",
      "Ġp ar",
      "iv id",
      "d o",
      "Ġpict ure",
      "Ġb ab",
      "Ġf ood",
      "Ġn ight",
      "Ġal ready",
      "Ġf il",
      "it er",
      "as h",
      "Ġmod el",
      "c ing",
      "Ġd ra",
      "as es",
      "Ġa ff",
      "er ing",
      "Ġsu c",
      "Ġbo th",
      "Ġob ject",
      "omet imes",
      "Ġmonth s",
      "Ġbl ack",
      "Ġimag ine",
      "p ect",
      "ur y",
      "un ch",
      "Ġwo nder",
      "i ol",
      "k en",
      "Ġre st",
      "Ġgo es",
      "ag es",
      "Ġex act",
      "Ġlook ed",
      "Ġsing le",
      "Ġno thing",
      "Ġwal k",
      "Ġa w",
      "Ġla w",
      "Ġbeaut if",
      "Ġex c",
      "r on",
      "Ġt est",
      "Ġm il",
      "Ġf ig",
      "os ed",
      "Ġco nd",
      "Ġgu y",
      "Ġmin ut",
      "Ġme m",
      "Ġdis co",
      "Ġproble ms",
      "Ġy et",
      "iv ity",
      "Ġenviron ment",
      "Ġenerg y",
      "i or",
      "it ive",
      "ol ution",
      "Ġcom ing",
      "i ent",
      "Ġo kay",
      "Ġe qu",
      "a ir",
      "re m",
      "so l",
      "Ġcommun ity",
      "Ġeduc ation",
      "nd red",
      "Ġp ri",
      "Ġre t",
      "p r",
      "Ġposs ible",
      "Ġstud ents",
      "Ġfo llow",
      "Ġlist en",
      "Ġof ten",
      "Ġhe ard",
      "ap e",
      "Ġ 6",
      "Ġamaz ing",
      "Ġf ore",
      "Ġde v",
      "i o",
      "Ġd ru",
      "ap er",
      "Ġad v",
      "Ġon ce",
      "Ġnew s",
      "b r",
      "Ġd ire",
      "Ġn et",
      "Ġu nt",
      "Ġun ited",
      "Ġlearn ed",
      "g et",
      "Ġear th",
      "ent al",
      "ot t",
      "Ġch e",
      "Ġmat ter",
      "Ġbeautif ul",
      "Ġpie ce",
      "i er",
      "o y",
      "om es",
      "Ġas s",
      "Ġhu ndred",
      "b s",
      "b ers",
      "Ġs ou",
      "Ġb illion",
      "Ġh ouse",
      "Ġmo ther",
      "ant s",
      "Ġc ertain",
      "Ġwith in",
      "Ġide as",
      "Ġrel ations",
      "Ġm ic",
      "Ġcon st",
      "Ġres ult",
      "Ġd ig",
      "Ġfr ont",
      "Ġsay ing",
      "t s",
      "Ġs ure",
      "Ġma g",
      "Ġour selves",
      "Ġre v",
      "ls b",
      "Ġintern et",
      "rs b",
      "c ri",
      "Ġle vel",
      "Ġem ot",
      "Ġent ire",
      "Ġgrou p",
      "Ġv ir",
      "Ġinc red",
      "Ġagain st",
      "Ġord er",
      "a ke",
      "Ġt ed",
      "Ġst ories",
      "Ġcontro l",
      "c le",
      "Ġro b",
      "Ġcont in",
      "Ġind ivid",
      "Ġde ep",
      "Ġkne w",
      "Ġm ater",
      "us h",
      "il t",
      "Ġ1 5",
      "ul ation",
      "Ġtr ue",
      "Ġlook s",
      "ist ic",
      "Ġlear ning",
      "Ġp arent",
      "v ious",
      "Ġspe nd",
      "Ġinc re",
      "Ġr is",
      "Ġsy m",
      "Ġhist ory",
      "Ġstud y",
      "s ide",
      "Ġh o",
      "Ġg e",
      "Ġbec ame",
      "Ġv iol",
      "Ġwork ed",
      "Ġco st",
      "l ing",
      "Ġ 9",
      "Ġa ud",
      "Ġto ol",
      "Ġf ree",
      "Ġv iew",
      "Ġexper im",
      "Ġansw er",
      "idd le",
      "re am",
      "Ġp ast",
      "Ġar ch",
      "i ans",
      "Ġs ince",
      "Ġd r",
      "Ġevery body",
      "Ġdec ided",
      "Ġcol le",
      "Ġuni vers",
      "w ork",
      "Ġ5 0",
      "Ġunt il",
      "b y",
      "Ġthem selves",
      "Ġsoci ety",
      "Ġbas ically",
      "Ġfu nd",
      "Ġs ometimes",
      "Ġp ay",
      "Ġis s",
      "Ġ3 0",
      "Ġm iddle",
      "en e",
      "Ġind ust",
      "Ġhour s",
      "l and",
      "t e",
      "Ġn ame",
      "ion al",
      "ro p",
      "Ġgo d",
      "are d",
      "Ġcreat ed",
      "l ud",
      "ic ult",
      "Ġhe art",
      "Ġl ine",
      "is ion",
      "itt ing",
      "Ġcou ple",
      "Ġwork s",
      "Ġexact ly",
      "u ck",
      "Ġ 8",
      "Ġd a",
      "Ġlar ge",
      "at s",
      "Ġta king",
      "Ġspe ak",
      "l ish",
      "at ic",
      "Ġc ra",
      "Ġm ust",
      "Ġsome body",
      "Ġinv est",
      "Ġkind s",
      "Ġhu ge",
      "g est",
      "Ġf ear",
      "Ġhapp y",
      "Ġturn s",
      "i red",
      "Ġevery one",
      "o f",
      "Ġpro v",
      "Ġy es",
      "Ġhappen ing",
      "Ġh old",
      "Ġe le",
      "Ġte am",
      "Ġpl aces",
      "Ġcol lect",
      "d d",
      "Ġ 7",
      "Ġa v",
      "Ġthou gh",
      "Ġbeh av",
      "Ġfig ure",
      "Ġrelations hip",
      "Ġo per",
      "Ġi d",
      "Ġme et",
      "Ġdiff icult",
      "Ġafric a",
      "Ġdiffere nce",
      "Ġo thers",
      "Ġm ass",
      "Ġco ll",
      "Ġfo cus",
      "Ġsuc cess",
      "Ġc ir",
      "Ġde m",
      "ie ld",
      "Ġcl ose",
      "Ġcomplet ely",
      "s y",
      "Ġj our",
      "Ġgr and",
      "Ġchang ed",
      "in ation",
      "Ġc ities",
      "Ġe ur",
      "og n",
      "Ġcompan y",
      "Ġc ut",
      "Ġinst ead",
      "Ġbeh ind",
      "Ġprodu ct",
      "as ter",
      "Ġf re",
      "Ġne ur",
      "Ġmark et",
      "Ġa p",
      "Ġm ess",
      "Ġin no",
      "Ġr ather",
      "Ġqu ick",
      "Ġear ly",
      "i en",
      "u p",
      "Ġcomp lex",
      "Ġexp ect",
      "Ġmach ine",
      "s ome",
      "Ġs ens",
      "Ġget s",
      "Ġle g",
      "Ġle ast",
      "Ġmed ia",
      "Ġg ave",
      "Ġse x",
      "wh y",
      "Ġprot ect",
      "n a",
      "at t",
      "as ure",
      "Ġ1 00",
      "Ġde ath",
      "Ġgu ys",
      "Ġt re",
      "Ġm iss",
      "Ġh ar",
      "Ġit self",
      "Ġre d",
      "Ġdise ase",
      "Ġc al",
      "ent ial",
      "Ġa ut",
      "Ġw all",
      "Ġpres ent",
      "e ah",
      "h aps",
      "Ġbu ilt",
      "Ġac cess",
      "ish ed",
      "Ġcompan ies",
      "Ġwee k",
      "a king",
      "Ġf ather",
      "Ġyour self",
      "Ġpolit ical",
      "Ġ es",
      "Ġo h",
      "Ġameric a",
      "Ġthous ands",
      "Ġm ot",
      "Ġh or",
      "Ġcent ury",
      "Ġchin a",
      "Ġdire ct",
      "iv es",
      "Ġbook s",
      "Ġfin ally",
      "Ġsupp ort",
      "an e",
      "Ġst ruct",
      "ri but",
      "Ġlot s",
      "Ġopp ortun",
      "v ation",
      "y ear",
      "Ġd uring",
      "Ġli m",
      "os s",
      "Ġcommun ic",
      "Ġm ill",
      "Ġp ick",
      "Ġde mo",
      "Ġfa il",
      "ib ly",
      "Ġgir ls",
      "c om",
      "Ġgir l",
      "Ġeur ope",
      "c c",
      "Ġin de",
      "Ġon es",
      "Ġth ird",
      "el t",
      "in ing",
      "pp ed",
      "Ġout side",
      "a f",
      "h ood",
      "Ġh y",
      "Ġp ot",
      "Ġtechn olog",
      "Ġquest ions",
      "Ġnat ure",
      "Ġh ands",
      "Ġst ep",
      "ab ility",
      "Ġcle ar",
      "Ġbehav ior",
      "Ġd ream",
      "f ect",
      "Ġp aper",
      "Ġf ly",
      "Ġy ork",
      "Ġneed ed",
      "Ġra d",
      "Ġplan et",
      "Ġparent s",
      "Ġp red",
      "Ġl iter",
      "Ġal ong",
      "Ġuni verse",
      "Ġw ind",
      "Ġf ight",
      "Ġl and",
      "id es",
      "qu e",
      "ast ic",
      "Ġsur v",
      "Ġcult ure",
      "r al",
      "is ed",
      "Ġeas y",
      "sol ut",
      "Ġst e",
      "Ġle ave",
      "Ġlong er",
      "Ġstre et",
      "as ed",
      "Ġem b",
      "Ġinc lud",
      "Ġminut es",
      "Ġdemo c",
      "Ġs ent",
      "Ġp le",
      "Ġan t",
      "Ġse ven",
      "Ġv ar",
      "Ġte xt",
      "Ġtra vel",
      "Ġinter act",
      "f u",
      "Ġf elt",
      "th en",
      "is on",
      "id ent",
      "Ġper form",
      "Ġeng ine",
      "Ġspec ies",
      "Ġty p",
      "Ġb ar",
      "Ġp ract",
      "Ġcan cer",
      "Ġfam il",
      "Ġprog ram",
      "on es",
      "Ġe ight",
      "Ġfu ll",
      "Ġameric an",
      "a pp",
      "at or",
      "Ġb ri",
      "Ġtra d",
      "Ġwr ite",
      "Ġgiv en",
      "Ġbegin ning",
      "Ġex ist",
      "ne y",
      "Ġser v",
      "im ate",
      "Ġim age",
      "Ġcomp ass",
      "Ġreal ized",
      "it ect",
      "Ġab solut",
      "Ġo pt",
      "Ġon line",
      "et ic",
      "ro om",
      "e very",
      "re w",
      "Ġc iv",
      "Ġm al",
      "Ġre cent",
      "Ġ1 2",
      "act er",
      "Ġsystem s",
      "Ġnor m",
      "Ġey es",
      "p ort",
      "Ġins p",
      "Ġsit u",
      "Ġloc al",
      "Ġc e",
      "Ġb orn",
      "Ġn on",
      "Ġimp ro",
      "Ġreal ity",
      "ward s",
      "Ġmo v",
      "Ġsh o",
      "Ġde al",
      "um p",
      "Ġsu per",
      "Ġeng lish",
      "l t",
      "p ly",
      "ar ing",
      "ve red",
      "if t",
      "Ġam ount",
      "Ġhum ans",
      "Ġg reen",
      "it ch",
      "am es",
      "Ġspe cial",
      "er a",
      "er n",
      "ver age",
      "Ġch r",
      "Ġsee ing",
      "pl es",
      "Ġanim als",
      "Ġarch itect",
      "ur s",
      "r or",
      "u b",
      "Ġb ott",
      "Ġf em",
      "ul es",
      "Ġsp ent",
      "Ġta kes",
      "Ġper fect",
      "Ġchallen ge",
      "sy ch",
      "Ġf ield",
      "it ions",
      "Ġen c",
      "Ġext ra",
      "g es",
      "Ġal one",
      "ci ous",
      "Ġperson al",
      "Ġob vious",
      "Ġpri v",
      "Ġc y",
      "Ġy eah",
      "Ġse nd",
      "Ġper haps",
      "Ġbu y",
      "Ġsim ply",
      "b o",
      "l ic",
      "m ing",
      "Ġrec ord",
      "Ġeconom ic",
      "Ġlead ers",
      "Ġexpl ain",
      "Ġphot ograph",
      "Ġdra w",
      "i ther",
      "Ġp sych",
      "id er",
      "Ġsh ort",
      "rou ght",
      "Ġcompass ion",
      "c l",
      "z e",
      "ict ion",
      "li ke",
      "i ents",
      "is ing",
      "id ence",
      "Ġapp ro",
      "Ġturn ed",
      "Ġnum bers",
      "Ġpower ful",
      "Ġrep res",
      "Ġ4 0",
      "in ary",
      "Ġs itting",
      "Ġta ken",
      "Ġd est",
      "od e",
      "Ġbo x",
      "p id",
      "Ġ ess",
      "Ġg ame",
      "Ġneed s",
      "Ġpo st",
      "led ge",
      "Ġmic ro",
      "on y",
      "ro du",
      "Ġcol or",
      "Ġphys ical",
      "Ġviol ence",
      "Ġs ize",
      "Ġto t",
      "Ġdig ital",
      "Ġid ent",
      "ut ions",
      "Ġma j",
      "iz ing",
      "Ġlo st",
      "Ġfeel ing",
      "Ġstr ong",
      "Ġpop ulation",
      "Ġfil m",
      "in y",
      "Ġc op",
      "ent ed",
      "op h",
      "Ġsur pr",
      "i ally",
      "at ors",
      "Ġm ath",
      "Ġ1 8",
      "Ġext rem",
      "g le",
      "n y",
      "ow s",
      "Ġsc ale",
      "Ġinst it",
      "ib ility",
      "Ġs at",
      "il ar",
      "ive ly",
      "g o",
      "Ġs un",
      "Ġfor ce",
      "ol ved",
      "Ġpo or",
      "Ġbre ak",
      "Ġrev olution",
      "j ust",
      "Ġwh ite",
      "Ġare a",
      "Ġcon v",
      "Ġmor ning",
      "Ġb rought",
      "Ġab ility",
      "Ġv oice",
      "Ġresp ons",
      "Ġwee ks",
      ". .",
      "a w",
      "f ace",
      "g u",
      "Ġbe gan",
      "ate g",
      "Ġimag es",
      "Ġprof ess",
      "fu lly",
      "g ed",
      "Ġl ow",
      "Ġre ach",
      "il ities",
      "Ġknow n",
      "Ġsu ff",
      "Ġfa v",
      "ard s",
      "Ġcent er",
      "Ġatt ention",
      "Ġpat tern",
      "Ġter ms",
      "Ġnat ural",
      "Ġs il",
      "Ġd ark",
      "ress ion",
      "Ġke y",
      "Ġmove ment",
      "n ed",
      "Ġs qu",
      "Ġr ich",
      "Ġshow s",
      "Ġtrans form",
      "Ġdevelop ment",
      "Ġvis ual",
      "s h",
      "Ġs um",
      "el s",
      "Ġimp act",
      "Ġdes cri",
      "Ġcomm on",
      "Ġob s",
      "Ġgrow th",
      "Ġi ce",
      "Ġst ay",
      "Ġbl ood",
      "ac y",
      "Ġgiv ing",
      "Ġris k",
      "Ġmaj or",
      "e x",
      "Ġm ult",
      "Ġh on",
      "Ġe at",
      "ill s",
      "Ġwr ote",
      "Ġpu ll",
      "Ġ vers",
      "Ġa ch",
      "Ġi ll",
      "at ure",
      "Ġc it",
      "Ġf all",
      "Ġmo ving",
      "Ġem p",
      "Ġgrow ing",
      "Ġ. ..",
      "st er",
      "Ġne igh",
      "Ġch oo",
      "Ġbl ue",
      "Ġwonder ful",
      "Ġfav or",
      "Ġneigh b",
      "a x",
      "p ar",
      "Ġo cc",
      "Ġpart s",
      "Ġreal ize",
      "Ġmed ic",
      "Ġval ue",
      "t ers",
      "in st",
      "re nt",
      "Ġst at",
      "Ġdo ct",
      "Ġne ar",
      "Ġind ia",
      "Ġtrans l",
      "Ġtri ed",
      "Ġcir c",
      "Ġch oice",
      "Ġaff ect",
      "Ġknow ledge",
      "ci ally",
      "dd en",
      "Ġp en",
      "Ġf ish",
      "Ġre pl",
      "Ġsu dden",
      "Ġbas ed",
      "Ġtool s",
      "Ġexperim ent",
      "Ġa uth",
      "Ġre qu",
      "ur b",
      "Ġv ill",
      "ell ig",
      "Ġbab y",
      "Ġ ve",
      "Ġtell ing",
      "Ġhundred s",
      "m ore",
      "an ces",
      "Ġme asure",
      "Ġcon vers",
      "Ġte m",
      "Ġaud ience",
      "z y",
      "Ġrec ogn",
      "Ġdru g",
      "i um",
      "Ġb ene",
      "ar r",
      "our ces",
      "Ġeconom y",
      "Ġmater ial",
      "Ġtrad ition",
      "c a",
      "l er",
      "Ġc ars",
      "Ġb al",
      "Ġre le",
      "ang er",
      "Ġpr om",
      "Ġindivid ual",
      "Ġopportun ity",
      "Ġcit iz",
      "c in",
      "Ġa verage",
      "Ġv ol",
      "Ġsu gg",
      "Ġro ad",
      "Ġcap t",
      "Ġquick ly",
      "Ġsugg est",
      "Ġc ool",
      "Ġd ie",
      "Ġunderstand ing",
      "Ġsou th",
      "m et",
      "Ġp ark",
      "us es",
      "Ġch em",
      "our ce",
      "pt ion",
      "Ġpartic ip",
      "Ġtechnolog ies",
      "er o",
      "Ġn ice",
      "Ġn ational",
      "Ġde ad",
      "Ġpe ace",
      "ag ed",
      "pl oy",
      "Ġexper ien",
      "Ġnor th",
      "Ġey e",
      "Ġciv il",
      "y ond",
      "Ġb ur",
      "Ġg al",
      "Ġse ll",
      "Ġstart ing",
      "Ġrun ning",
      "Ġabsolut ely",
      "b ook",
      "y n",
      "Ġp ress",
      "ri ed",
      "ad es",
      "Ġsim ilar",
      "Ġrel ig",
      "Ġsec ret",
      "Ġindust ry",
      "Ġsitu ation",
      "g en",
      "Ġte nd",
      "ain s",
      "Ġwr iting",
      "Ġcr it",
      "Ġinterest ed",
      "Ġmod ern",
      "Ġacc ount",
      "Ġcam p",
      "Ġincred ible",
      "Ġach ie",
      "â Ļ",
      "Ġg oo",
      "Ġev ent",
      "Ġad m",
      "l ight",
      "Ġw in",
      "Ġf ire",
      "Ġwe b",
      "Ġany one",
      "Ġph one",
      "i als",
      "p or",
      "Ġo ri",
      "Ġcon cept",
      "Ġbec omes",
      "Ġact ion",
      "Ġsa fe",
      "Ġnorm al",
      "Ġb all",
      "Ġbe yond",
      "Ġu lt",
      "Ġne g",
      "Ġcom b",
      "Ġlike ly",
      "Ġbo y",
      "Ġdevelop ed",
      "Ġfund am",
      "Ġmill ions",
      "Ġthe ory",
      "Ġo il",
      "or m",
      "ch an",
      "ri ght",
      "Ġsound s",
      "Ġscient ists",
      "Ġp ush",
      "Ġd iv",
      "Ġg round",
      "Ġwhat ever",
      "Ġsh ape",
      "Ġint ellig",
      "u nt",
      "pe ople",
      "Ġty pe",
      "Ġpred ict",
      "Ġappro ach",
      "t on",
      "Ġg one",
      "le c",
      "Ġas king",
      "Ġme chan",
      "Ġsee ms",
      "Ġcons um",
      "Ġdevelop ing",
      "Ġnet work",
      "l u",
      "l ict",
      "m a",
      "p an",
      "ra cy",
      "Ġso on",
      "Ġv ac",
      "os p",
      "Ġchin ese",
      "ore d",
      "Ġfe ed",
      "Ġstruct ure",
      "m er",
      "p ed",
      "al y",
      "Ġpat ients",
      "u als",
      "is ions",
      "Ġmo lec",
      "Ġma in",
      "Ġsee m",
      "Ġcur rent",
      "f ort",
      "w or",
      "Ġb ir",
      "ver t",
      "Ġtr ust",
      "Ġun f",
      "olog ical",
      "Ġgu ess",
      "Ġcreat ing",
      "Ġsl ow",
      "Ġter ri",
      "Ġobject s",
      "Ġav ail",
      "p ut",
      "w are",
      "Ġ âĻ",
      "Ġp ath",
      "ere nce",
      "Ġtr uth",
      "Ġshow ed",
      "g n",
      "r ation",
      "Ġt iny",
      "Ġw est",
      "Ġb ill",
      "Ġe ither",
      "Ġse ver",
      "um ent",
      "Ġpo ll",
      "Ġtra ck",
      "Ġread y",
      "Ġgener al",
      "Ġ8 0",
      "in al",
      "Ġp ur",
      "Ġl ed",
      "is ter",
      "am ed",
      "Ġma p",
      "Ġhapp iness",
      "Ġ2 5",
      "Ġbl ock",
      "Ġ19 9",
      "o ices",
      "ou ch",
      "Ġh osp",
      "en ces",
      "Ġmean ing",
      "Ġold er",
      "Ġgrou ps",
      "Ġ6 0",
      "Ġbene f",
      "Ġp a",
      "Ġd om",
      "Ġst age",
      "ur ity",
      "Ġpro p",
      "Ġpr ison",
      "Ġser ious",
      "Ġcolle ge",
      "Ġjour ney",
      "Ġbott om",
      "Ġre ce",
      "Ġact iv",
      "Ġpr in",
      "Ġfo ot",
      "Ġpol ice",
      "Ġplay ing",
      "Ġ20 1",
      "Ġchang es",
      "Ġsub ject",
      "Ġavail able",
      "o ve",
      "o kay",
      "p o",
      "t w",
      "Ġb ird",
      "Ġd am",
      "Ġwor th",
      "Ġsp read",
      "Ġqu ality",
      "ens ive",
      "Ġph il",
      "Ġfl u",
      "Ġproject s",
      "Ġfun ction",
      "Ġdru gs",
      "Ġrob ot",
      "Ġliter ally",
      "Ġbir th",
      "u it",
      "Ġt ur",
      "se ct",
      "id s",
      "Ġmo b",
      "Ġevery where",
      "Ġsurv iv",
      "Ġrecent ly",
      "n ot",
      "in a",
      "Ġs le",
      "Ġre du",
      "Ġso ft",
      "Ġam ong",
      "Ġrep ort",
      "Ġteach ers",
      "u le",
      "er m",
      "Ġp an",
      "Ġj e",
      "Ġpl ant",
      "Ġta ble",
      "Ġbl ind",
      "Ġpre v",
      "Ġhigh er",
      "pe cially",
      "Ġreas ons",
      "Ġanim al",
      "Ġdisco vered",
      "Ġlisten ing",
      "Ġap art",
      "re p",
      "Ġs on",
      "Ġc ode",
      "Ġb ud",
      "Ġst ra",
      "Ġpro per",
      "Ġev idence",
      "ab or",
      "Ġgener ation",
      "f er",
      "f irst",
      "h n",
      "x ic",
      "en cy",
      "or ing",
      "Ġli f",
      "Ġim m",
      "Ġput ting",
      "Ġfl ow",
      "Ġjob s",
      "Ġchar acter",
      "af ter",
      "Ġmov ie",
      "r ast",
      "Ġh ot",
      "Ġf ast",
      "Ġde li",
      "Ġte le",
      "iz ations",
      "Ġad ult",
      "Ġmed ical",
      "Ġdi ed",
      "Ġmil es",
      "Ġincred ibly",
      "Ġunivers ity",
      "Ġsever al",
      "Ġst ru",
      "Ġso ld",
      "Ġgiv es",
      "Ġpot ential",
      "Ġchoo se",
      "Ġfavor ite",
      "g ing",
      "Ġsp ir",
      "he ad",
      "Ġbig ger",
      "Ġsm art",
      "Ġcomput ers",
      "Ġbab ies",
      "Ġc ause",
      "Ġfor ward",
      "Ġdri ve",
      "Ġho le",
      "Ġcitiz ens",
      "c an",
      "p end",
      "w ith",
      "Ġd anger",
      "Ġst ar",
      "Ġst ore",
      "Ġne cess",
      "Ġoff ice",
      "Ġcor re",
      "Ġaw are",
      "Ġcolle ag",
      "u ly",
      "Ġb ed",
      "Ġd ou",
      "Ġd an",
      "om s",
      "ant ly",
      "Ġsc reen",
      "Ġfl o",
      "Ġdi ag",
      "Ġparticular ly",
      "Ġtre es",
      "Ġ est",
      "om en",
      "Ġr ules",
      "itt en",
      "Ġbas ic",
      "Ġsol ve",
      "Ġsol ution",
      "Ġintern ational",
      "Ġiss ue",
      "Ġiss ues",
      "Ġori gin",
      "b ed",
      "u g",
      "ou d",
      "Ġm ental",
      "as ing",
      "ent ially",
      "Ġli ved",
      "Ġare as",
      "Ġch ance",
      "ous ly",
      "Ġpol ic",
      "Ġpolit ics",
      "Ġfamil ies",
      "Ġgoo gle",
      "i ar",
      "Ġf ur",
      "Ġn er",
      "Ġse arch",
      "Ġsa ve",
      "ren e",
      "Ġstud ent",
      "Ġdec ision",
      "Ġprodu ce",
      "Ġchang ing",
      "Ġvis ion",
      "Ġelect ric",
      "Ġresult s",
      "Ġcl os",
      "Ġbig gest",
      "Ġcam era",
      "Ġscient ific",
      "Ġsec urity",
      "Ġes pecially",
      "Ġimpro ve",
      "c ome",
      "r om",
      "Ġ er",
      "Ġt ouch",
      "Ġm ount",
      "es tern",
      "Ġwas h",
      "Ġmess age",
      "i od",
      "i res",
      "Ġth reat",
      "Ġd on",
      "Ġdo or",
      "ol es",
      "Ġfa ir",
      "Ġper iod",
      "Ġstart s",
      "Ġpers pect",
      "Ġvir t",
      "b ol",
      "re st",
      "Ġo x",
      "Ġc ross",
      "Ġm is",
      "Ġto n",
      "Ġto wards",
      "Ġin sect",
      "Ġr ate",
      "Ġta ught",
      "Ġdis app",
      "Ġres ources",
      "ick s",
      "Ġsur face",
      "Ġrepres ent",
      "Ġvill age",
      "Ġo k",
      "om ing",
      "Ġwor se",
      "ust ain",
      "Ġde g",
      "Ġexp ress",
      "Ġem erg",
      "Ġsoci et",
      "Ġsk in",
      "Ġmath em",
      "Ġneighb or",
      "c ul",
      "g round",
      "Ġw ish",
      "Ġl ay",
      "ra ge",
      "Ġab ove",
      "Ġex cept",
      "if ied",
      "Ġen j",
      "Ġev olution",
      "Ġac cept",
      "Ġcont ent",
      "Ġbr it",
      "Ġdec isions",
      "Ġcou n",
      "Ġpain ting",
      "Ġfre ed",
      "Ġobs er",
      "th es",
      "am m",
      "Ġcomp et",
      "ff ic",
      "Ġar g",
      "Ġtalk ed",
      "Ġexam ples",
      "Ġdesign ed",
      "Ġdef in",
      "Ġneur ons",
      "Ġdemoc racy",
      "Ġextra ord",
      "Ġobvious ly",
      "Ġe c",
      "ut e",
      "Ġde b",
      "ap h",
      "Ġle a",
      "Ġlo ved",
      "Ġbrain s",
      "Ġread ing",
      "man y",
      "Ġpict ures",
      "Ġdep end",
      "Ġcle an",
      "Ġwa it",
      "med i",
      "Ġinno vation",
      "Ġinclud ing",
      "rep rene",
      "Ġs ong",
      "se t",
      "ra ms",
      "Ġmo ved",
      "Ġ1 4",
      "Ġro le",
      "Ġsk ills",
      "Ġdet ail",
      "Ġlab or",
      "Ġsle ep",
      "t ed",
      "ar ily",
      "as k",
      "Ġme ant",
      "ist an",
      "Ġint rodu",
      "Ġfe et",
      "Ġwork ers",
      "Ġspe ed",
      "Ġteach er",
      "Ġjo hn",
      "Ġorgan ization",
      "Ġexc iting",
      "Ġfundam ental",
      "Ġcon c",
      "Ġrem ind",
      "Ġpos itive",
      "Ġcons cious",
      "Ġallow ed",
      "Ġdev ice",
      "Ġsudden ly",
      "Ġauth or",
      "i et",
      "Ġo ce",
      "Ġf ant",
      "Ġd na",
      "Ġright s",
      "Ġfind ing",
      "Ġschool s",
      "Ġent reprene",
      "ortun ately",
      "Ġdise ases",
      "Ġfore st",
      "Ġ9 0",
      "Ġtradition al",
      "Ġgal ax",
      "Ġs al",
      "Ġb unch",
      "Ġh it",
      "an a",
      "it es",
      "us ed",
      "Ġre act",
      "Ġon to",
      "ure d",
      "Ġno body",
      "od ies",
      "Ġthous and",
      "Ġmil it",
      "Ġass um",
      "Ġcra zy",
      "Ġtot ally",
      "b es",
      "n al",
      "n ces",
      "o h",
      "Ġb reat",
      "on se",
      "Ġn ine",
      "us ion",
      "pp ing",
      "Ġany body",
      "Ġlar gest",
      "Ġconf lict",
      "Ġdisco ver",
      "m ay",
      "Ġw estern",
      "Ġs an",
      "Ġto m",
      "ar ies",
      "Ġinv olved",
      "Ġatt ack",
      "Ġmind s",
      "Ġresp ond",
      "cus s",
      "Ġaff ord",
      "Ġcontin ue",
      "Ġindivid uals",
      "Ġincre ase",
      "Ġcoll abor",
      "Ġsqu are",
      "t od",
      "Ġc ry",
      "Ġp age",
      "Ġl ad",
      "Ġn ation",
      "Ġsh own",
      "Ġcommun ities",
      "Ġsupp osed",
      "Ġpass ion",
      "Ġcertain ly",
      "Ġenc ou",
      "i ant",
      "Ġs ustain",
      "Ġi r",
      "ou ght",
      "Ġb om",
      "Ġg ames",
      "Ġis l",
      "id ing",
      "Ġwi fe",
      "Ġbeing s",
      "Ġshow ing",
      "Ġcreat ive",
      "Ġcons ider",
      "Ġpat ient",
      "Ġameric ans",
      "Ġconnect ed",
      "Ġfreed om",
      "tod ay",
      "n ers",
      "Ġwe bs",
      "Ġwant s",
      "Ġwatch ing",
      "Ġ7 0",
      "ĠâĻ «",
      "c ise",
      "e g",
      "l o",
      "Ġc art",
      "im ens",
      "ist ics",
      "Ġact ivity",
      "Ġdes p",
      "Ġrem ark",
      "Ġresp onse",
      "Ġwal king",
      "Ġkill ed",
      "Ġmater ials",
      "Ġinde ed",
      "Ġextrem ely",
      "b i",
      "b ack",
      "e f",
      "e ven",
      "Ġt rou",
      "Ġs am",
      "Ġf ill",
      "Ġg er",
      "us s",
      "Ġch im",
      "if y",
      "un g",
      "Ġknow s",
      "Ġro ck",
      "Ġstud ies",
      "Ġcond itions",
      "Ġple ase",
      "tw o",
      "Ġextraord inary",
      "c ies",
      "u be",
      "Ġfor get",
      "so ci",
      "Ġse par",
      "Ġcomp lic",
      "iv ed",
      "Ġdis cuss",
      "Ġpr im",
      "Ġem ploy",
      "Ġend ed",
      "Ġcar ry",
      "Ġcap ital",
      "Ġprog ress",
      "Ġtreat ment",
      "b it",
      "u ct",
      "Ġb ank",
      "Ġp ort",
      "Ġl og",
      "Ġn amed",
      "Ġk en",
      "Ġim medi",
      "Ġtr uly",
      "ru ction",
      "Ġthrough out",
      "Ġtell s",
      "Ġgreat est",
      "Ġear li",
      "Ġeff ort",
      "Ġter ror",
      "Ġstr ateg",
      "Ġmach ines",
      "Ġspir it",
      "Ġsociet ies",
      "Ġs we",
      "Ġf aster",
      "Ġst em",
      "Ġdo c",
      "Ġsome where",
      "un e",
      "Ġpl astic",
      "ud e",
      "Ġany more",
      "Ġinf lu",
      "urb an",
      "c ape",
      "e xt",
      "Ġa st",
      "se qu",
      "op er",
      "am ic",
      "Ġbo ys",
      "Ġmem ory",
      "Ġret urn",
      "Ġemot ional",
      "Ġvar i",
      "Ġprin ci",
      "Ġfur ther",
      "5 0",
      "m en",
      "r ing",
      "Ġh op",
      "Ġp et",
      "Ġd en",
      "an n",
      "im s",
      "im ag",
      "Ġv ict",
      "Ġbec oming",
      "Ġla unch",
      "Ġwr itten",
      "Ġfin an",
      "Ġeffect ive",
      "Ġz ero",
      "Ġconvers ation",
      "Ġhosp ital",
      "Ġperspect ive",
      "Ġs n",
      "er y",
      "Ġc at",
      "Ġd ro",
      "ar ia",
      "ic le",
      "Ġe ast",
      "ent ly",
      "Ġhe av",
      "Ġsh ap",
      "Ġinter v",
      "Ġphot o",
      "Ġf as",
      "Ġl os",
      "Ġl uck",
      "Ġg rew",
      "le y",
      "ce ll",
      "Ġmo s",
      "Ġoff ic",
      "Ġbuild ings",
      "Ġtrans port",
      "Ġgovern ments",
      "Ġinf ect",
      "Ġcult ural",
      "Ġref lect",
      "Ġmag ic",
      "Ġpract ice",
      "Ġchem ical",
      "Ġsoft ware",
      "e ch",
      "o ver",
      "v ision",
      "ic ed",
      "Ġse qu",
      "ord er",
      "Ġexc ited",
      "Ġminut e",
      "Ġsym met",
      "Ġopt im",
      "Ġfem ale",
      "Ġstru gg",
      "Ġmathem at",
      "h a",
      "Ġc ases",
      "Ġm ist",
      "Ġp al",
      "Ġl ands",
      "Ġha ck",
      "ri al",
      "Ġwor ry",
      "Ġco ld",
      "Ġcl in",
      "Ġbro ad",
      "Ġche ck",
      "Ġprov ide",
      "Ġserv ices",
      "Ġchr ist",
      "Ġintellig ence",
      "e in",
      "t ime",
      "Ġc ust",
      "it ation",
      "Ġus ually",
      "Ġcont ext",
      "Ġmet aph",
      "Ġlar ger",
      "Ġcontin u",
      "Ġachie ve",
      "Ġmob ile",
      "may be",
      "r ate",
      "le br",
      "and a",
      "Ġfor ms",
      "ra d",
      "Ġas soci",
      "ap an",
      "Ġcont ribut",
      "Ġorgan izations",
      "Ġda ughter",
      "att le",
      "Ġarchitect ure",
      "a i",
      "r ated",
      "Ġa ust",
      "Ġs ource",
      "ic a",
      "ke y",
      "Ġli ber",
      "Ġj ud",
      "Ġ1 6",
      "Ġar ri",
      "Ġpr int",
      "Ġtra ining",
      "Ġpos ition",
      "Ġgl ass",
      "Ġsl a",
      "Ġteach ing",
      "Ġbeaut y",
      "Ġspec ific",
      "Ġcost s",
      "Ġperform ance",
      "Ġmedic ine",
      "Ġcrit ical",
      "Ġmilit ary",
      "o k",
      "Ġt ar",
      "Ġth row",
      "Ġd yn",
      "Ġbe es",
      "ver ty",
      "im ately",
      "Ġr and",
      "Ġra ise",
      "Ġdep art",
      "Ġstre ets",
      "air s",
      "Ġce lebr",
      "Ġevent ually",
      "Ġf ine",
      "an y",
      "Ġan n",
      "Ġj apan",
      "Ġgo al",
      "Ġcon cer",
      "Ġem ail",
      "Ġter m",
      "Ġdist ribut",
      "Ġstand ing",
      "Ġdet ect",
      "Ġmass ive",
      "Ġhon est",
      "Ġenj oy",
      "Ġcomplic ated",
      "o on",
      "Ġs us",
      "Ġf it",
      "ear s",
      "Ġcon sequ",
      "Ġwill ing",
      "Ġ2 1",
      "ac ity",
      "Ġeng age",
      "Ġstr ange",
      "Ġsign ific",
      "Ġwalk ed",
      "Ġpattern s",
      "g th",
      "s c",
      "Ġ ver",
      "Ġt it",
      "Ġm ale",
      "is es",
      "Ġr an",
      "Ġco oper",
      "Ġimp oss",
      "ip s",
      "Ġhuman ity",
      "Ġhim self",
      "Ġmom ents",
      "Ġ19 8",
      "Ġemot ion",
      "Ġsuccess ful",
      "Ġjour nal",
      "o id",
      "p ing",
      "Ġ urban",
      "Ġt iss",
      "in ist",
      "at ory",
      "at ically",
      "Ġc ard",
      "Ġin e",
      "ir ing",
      "Ġsh ot",
      "Ġsh ift",
      "Ġcom fort",
      "if e",
      "un k",
      "Ġspe ech",
      "Ġcr ime",
      "Ġpie ces",
      "Ġallow s",
      "Ġclass room",
      "Ġaut om",
      "Ġdest ro",
      "Ġcolleag ues",
      "r um",
      "Ġ ut",
      "Ġs and",
      "Ġto wn",
      "Ġf ram",
      "Ġwe alth",
      "op s",
[...]
