{
  "version": "1.0",
  "truncation": null,
  "padding": null,
  "added_tokens": [
    {
      "id": 0,
      "content": "[PAD]",
      "single_word": false,
      "lstrip": false,
      "rstrip": false,
      "normalized": false,
      "special": true
    },
    {
      "id": 1,
      "content": "[START]",
      "single_word": false,
      "lstrip": false,
      "rstrip": false,
      "normalized": false,
      "special": true
    },
    {
      "id": 2,
      "content": "[END]",
      "single_word": false,
      "lstrip": false,
      "rstrip": false,
      "normalized": false,
      "special": true
    }
  ],
  "normalizer": null,
  "pre_tokenizer": {
    "type": "ByteLevel",
    "add_prefix_space": false,
    "trim_offsets": true,
    "use_regex": true
  },
  "post_processor": {
    "type": "TemplateProcessing",
    "single": [
      {
        "SpecialToken": {
          "id": "[START]",
          "type_id": 0
        }
      },
      {
        "Sequence": {
          "id": "A",
          "type_id": 0
        }
      },
      {
        "SpecialToken": {
          "id": "[END]",
          "type_id": 0
        }
      }
    ],
    "pair": [
      {
        "Sequence": {
          "id": "A",
          "type_id": 0
        }
      },
      {
        "Sequence": {
          "id": "B",
          "type_id": 1
        }
      }
    ],
    "special_tokens": {
      "[END]": {
        "id": "[END]",
        "ids": [
          2
        ],
        "tokens": [
          "[END]"
        ]
      },
      "[START]": {
        "id": "[START]",
        "ids": [
          1
        ],
        "tokens": [
          "[START]"
        ]
      }
    }
  },
  "decoder": {
    "type": "ByteLevel",
    "add_prefix_space": true,
    "trim_offsets": true,
    "use_regex": true
  },
  "model": {
    "type": "BPE",
    "dropout": null,
    "unk_token": null,
    "continuing_subword_prefix": null,
    "end_of_word_suffix": null,
    "fuse_unk": false,
    "byte_fallback": false,
    "vocab": {
      "[PAD]": 0,
      "[START]": 1,
      "[END]": 2,
      "!": 3,
      "\"": 4,
      "#": 5,
      "$": 6,
      "%": 7,
      "&": 8,
      "'": 9,
      "(": 10,
      ")": 11,
      "*": 12,
      "+": 13,
      ",": 14,
      "-": 15,
      ".": 16,
      "/": 17,
      "0": 18,
      "1": 19,
      "2": 20,
      "3": 21,
      "4": 22,
      "5": 23,
      "6": 24,
      "7": 25,
      "8": 26,
      "9": 27,
      ":": 28,
      ";": 29,
      "<": 30,
      "=": 31,
      ">": 32,
      "?": 33,
      "@": 34,
      "A": 35,
      "B": 36,
      "C": 37,
      "D": 38,
      "E": 39,
      "F": 40,
      "G": 41,
      "H": 42,
      "I": 43,
      "J": 44,
      "K": 45,
      "L": 46,
      "M": 47,
      "N": 48,
      "O": 49,
      "P": 50,
      "Q": 51,
      "R": 52,
      "S": 53,
      "T": 54,
      "U": 55,
      "V": 56,
      "W": 57,
      "X": 58,
      "Y": 59,
      "Z": 60,
      "[": 61,
      "\\": 62,
      "]": 63,
      "^": 64,
      "_": 65,
      "`": 66,
      "a": 67,
      "b": 68,
      "c": 69,
      "d": 70,
      "e": 71,
      "f": 72,
      "g": 73,
      "h": 74,
      "i": 75,
      "j": 76,
      "k": 77,
      "l": 78,
      "m": 79,
      "n": 80,
      "o": 81,
      "p": 82,
      "q": 83,
      "r": 84,
      "s": 85,
      "t": 86,
      "u": 87,
      "v": 88,
      "w": 89,
      "x": 90,
      "y": 91,
      "z": 92,
      "{": 93,
      "|": 94,
      "}": 95,
      "~": 96,
      "¡": 97,
      "¢": 98,
      "£": 99,
      "¤": 100,
      "¥": 101,
      "¦": 102,
      "§": 103,
      "¨": 104,
      "©": 105,
      "ª": 106,
      "«": 107,
      "¬": 108,
      "®": 109,
      "¯": 110,
      "°": 111,
      "±": 112,
      "²": 113,
      "³": 114,
      "´": 115,
      "µ": 116,
      "¶": 117,
      "·": 118,
      "¸": 119,
      "¹": 120,
      "º": 121,
      "»": 122,
      "¼": 123,
      "½": 124,
      "¾": 125,
      "¿": 126,
      "À": 127,
      "Á": 128,
      "Â": 129,
      "Ã": 130,
      "Ä": 131,
      "Å": 132,
      "Æ": 133,
      "Ç": 134,
      "È": 135,
      "É": 136,
      "Ê": 137,
      "Ë": 138,
      "Ì": 139,
      "Í": 140,
      "Î": 141,
      "Ï": 142,
      "Ð": 143,
      "Ñ": 144,
      "Ò": 145,
      "Ó": 146,
      "Ô": 147,
      "Õ": 148,
      "Ö": 149,
      "×": 150,
      "Ø": 151,
      "Ù": 152,
      "Ú": 153,
      "Û": 154,
      "Ü": 155,
      "Ý": 156,
      "Þ": 157,
      "ß": 158,
      "à": 159,
      "á": 160,
      "â": 161,
      "ã": 162,
      "ä": 163,
      "å": 164,
      "æ": 165,
      "ç": 166,
      "è": 167,
      "é": 168,
      "ê": 169,
      "ë": 170,
      "ì": 171,
      "í": 172,
      "î": 173,
      "ï": 174,
      "ð": 175,
      "ñ": 176,
      "ò": 177,
      "ó": 178,
      "ô": 179,
      "õ": 180,
      "ö": 181,
      "÷": 182,
      "ø": 183,
      "ù": 184,
      "ú": 185,
      "û": 186,
      "ü": 187,
      "ý": 188,
      "þ": 189,
      "ÿ": 190,
      "Ā": 191,
      "ā": 192,
      "Ă": 193,
      "ă": 194,
      "Ą": 195,
      "ą": 196,
      "Ć": 197,
      "ć": 198,
      "Ĉ": 199,
      "ĉ": 200,
      "Ċ": 201,
      "ċ": 202,
      "Č": 203,
      "č": 204,
      "Ď": 205,
      "ď": 206,
      "Đ": 207,
      "đ": 208,
      "Ē": 209,
      "ē": 210,
      "Ĕ": 211,
      "ĕ": 212,
      "Ė": 213,
      "ė": 214,
      "Ę": 215,
      "ę": 216,
      "Ě": 217,
      "ě": 218,
      "Ĝ": 219,
      "ĝ": 220,
      "Ğ": 221,
      "ğ": 222,
      "Ġ": 223,
      "ġ": 224,
      "Ģ": 225,
      "ģ": 226,
      "Ĥ": 227,
      "ĥ": 228,
      "Ħ": 229,
      "ħ": 230,
      "Ĩ": 231,
      "ĩ": 232,
      "Ī": 233,
      "ī": 234,
      "Ĭ": 235,
      "ĭ": 236,
      "Į": 237,
      "į": 238,
      "İ": 239,
      "ı": 240,
      "Ĳ": 241,
      "ĳ": 242,
      "Ĵ": 243,
      "ĵ": 244,
      "Ķ": 245,
      "ķ": 246,
      "ĸ": 247,
      "Ĺ": 248,
      "ĺ": 249,
      "Ļ": 250,
      "ļ": 251,
      "Ľ": 252,
      "ľ": 253,
      "Ŀ": 254,
      "ŀ": 255,
      "Ł": 256,
      "ł": 257,
      "Ń": 258,
      "ĠÐ": 259,
      "Ð¾": 260,
      "Ð°": 261,
      "Ð¸": 262,
      "ĠÑ": 263,
      "Ñĸ": 264,
      "Ð½": 265,
      "Ðµ": 266,
      "ÑĤ": 267,
      "Ð¾Ð": 268,
      "ÑĢ": 269,
      "Ð°Ð": 270,
      "Ñĥ": 271,
      "Ñģ": 272,
      "Ġ,": 273,
      "Ð²": 274,
      "Ðº": 275,
      "Ð»": 276,
      "ĠÐ²": 277,
      "ÑĮ": 278,
      "Ñı": 279,
      "Ð¼": 280,
      "ĠÐ¿": 281,
      "Ð´": 282,
      "ĠÐ½": 283,
      "Ġ.": 284,
      "ĠÐ·": 285,
      "ĠÑģ": 286,
      "Ð°Ñ": 287,
      "ĠÐ¼": 288,
      "ÑĤÐ¸": 289,
      "ĠÐ´": 290,
      "ĠÑĤ": 291,
      "Ñİ": 292,
      "Ð¿": 293,
      "ĠÑı": 294,
      "Ñĩ": 295,
      "Ñħ": 296,
      "Ð¾Ð²": 297,
      "Ð¹": 298,
      "ÑģÑĤ": 299,
      "Ð½Ð¸": 300,
      "ĠÐ±": 301,
      "ĠÑĸ": 302,
      "Ð½Ñĸ": 303,
      "Ð¾Ð¼": 304,
      "ÐµÑĢ": 305,
      "Ð°Ð»": 306,
      "ĠÐº": 307,
      "ĠÐ¿ÑĢ": 308,
      "ĠÑĢ": 309,
      "ÑĪ": 310,
      "Ð¾Ð³": 311,
      "ÑĤÑĮ": 312,
      "ĠÑī": 313,
      "Ð·": 314,
      "ĠÑĨ": 315,
      "Ð¾ÑĢ": 316,
      "Ð±": 317,
      "ÑĸÐ´": 318,
      "ÐµÐ½": 319,
      "Ð°Ð²": 320,
      "Ð»Ð¸": 321,
      "Ð¾Ð±": 322,
      "ĠÐ¾": 323,
      "Ð¾Ð»": 324,
      "Ð¶": 325,
      "ÑĨ": 326,
      "ĠÑıÐº": 327,
      "ĠÑīÐ¾": 328,
      "ĠÐ½Ð°": 329,
      "Ð¾Ð´": 330,
      "ÑģÑı": 331,
      "ĠÐ½Ðµ": 332,
      "ĠÐ²Ð¸": 333,
      "Ð°Ð½": 334,
      "ÑĹ": 335,
      "ÑĸÐ²": 336,
      "Ð°Ð¼": 337,
      "Ð¾Ð³Ð¾": 338,
      "ĠÑĥ": 339,
      "Ð½Ð¾": 340,
      "Ð°ÑĤÐ¸": 341,
      "Ð½Ñı": 342,
      "ÑĸÐ»": 343,
      "Ð³": 344,
      "ĠÑĩ": 345,
      "Ġ-": 346,
      "ÑģÑĮ": 347,
      "Ð¾Ð¶": 348,
      "ĠÐ°": 349,
      "Ð°Ðº": 350,
      "ÑĶ": 351,
      "ÑĥÐ²": 352,
      "ÐºÐ¸": 353,
      "Ð°ÑĶ": 354,
      "ĠÑĨÐµ": 355,
      "Ð¸Ð¼": 356,
      "ĠÐ»": 357,
      "Ð¾Ðº": 358,
      "Ð»Ñı": 359,
      "Ð°Ð´": 360,
      "ÑĤÐµ": 361,
      "ÑĸÐ½": 362,
      "ÑĸÐ»ÑĮ": 363,
      "Ġ\"": 364,
      "Ð¾Ð¼Ñĥ": 365,
      "Ð½Ð°": 366,
      "ĠÐ¼Ð¸": 367,
      "Ð¾Ð·": 368,
      "Ð¾ÑĤ": 369,
      "ĠÐ²ÑĸÐ´": 370,
      "Ð°ÑĢ": 371,
      "ĠÐ³": 372,
      "Ð°Ð·": 373,
      "ĠÑģÑĤ": 374,
      "ĠÐ¿ÑĢÐ¾": 375,
      "Ð°Ñģ": 376,
      "ÐµÑĢÐµ": 377,
      "Ð°Ð¹": 378,
      "ĠÐ±Ñĥ": 379,
      "ĠÐ´Ð¾": 380,
      "Ð¸Ð²": 381,
      "Ð¼Ð¾": 382,
      "Ð¸ÑĤÐ¸": 383,
      "Ð°Ñİ": 384,
      "Ð²Ð¾": 385,
      "Ð°ÑĤ": 386,
      "ÐºÑĥ": 387,
      "Ð»Ðµ": 388,
      "Ð¸Ñħ": 389,
      "Ð½Ñĥ": 390,
      "Ð¼Ð¸": 391,
      "Ð²Ñĸ": 392,
      "ĠÐ¶": 393,
      "ĠÑĤÐ°Ðº": 394,
      "ÑĤÑĮÑģÑı": 395,
      "rb": 396,
      "ĠÑģÐ¿": 397,
      "ĠÐ¿Ð¾": 398,
      "ĠÑħ": 399,
      "Ð°Ð»Ð¸": 400,
      "ÑĸÐ¹": 401,
      "Ð´Ð¸": 402,
      "Ð¼Ñĸ": 403,
      "Ð°Ñĩ": 404,
      "Ð°Ð³": 405,
      "Ð¸ÑĤ": 406,
      "Ñī": 407,
      "ĠÐ¼Ð¾Ð¶": 408,
      "ĠÐ²Ð¾": 409,
      "Ð¾Ð½": 410,
      "Ð¸Ð¹": 411,
      "ÑĨÑĸ": 412,
      "Ð°Ñħ": 413,
      "ĠÑĢÐ¾Ð·": 414,
      "ĠÑĹ": 415,
      "ÑĪÐµ": 416,
      "ĠÑĸÐ½": 417,
      "Ð½Ðµ": 418,
      "ÐµÐ½Ð½Ñı": 419,
      "Ð¶Ðµ": 420,
      "ĠÑĤÐµ": 421,
      "ĠÐ»Ñİ": 422,
      "Ð°Ð¶": 423,
      "Ð°ÑĨ": 424,
      "Ð°ÑĪ": 425,
      "ÑĩÐ¸": 426,
      "Ð°Ð¿": 427,
      "ĠÑĶ": 428,
      "Ð²Ð¸": 429,
      "ĠÑĤÐ°": 430,
      "Ð°Ð½Ð½Ñı": 431,
      "Ġ'": 432,
      "Ð¾Ð»Ð¸": 433,
      "Ð´Ðµ": 434,
      "ÑĢÑĸ": 435,
      "Ð»Ð°": 436,
      "ÑģÑĸ": 437,
      "ÑĢÐ¸": 438,
      "Ġ:": 439,
      "Ð»Ð¾": 440,
      "ÐºÐ°": 441,
      "ÑĨÐµ": 442,
      "ÑĢÑĥ": 443,
      "Ġ?": 444,
      "ÑĦ": 445,
      "Ð¾Ð¿": 446,
      "ĠÐ·Ð½": 447,
      "ĠÐ¿ÑĢÐ¸": 448,
      "Ð½Ð¸Ð¹": 449,
      "Ð°Ð»ÑĮ": 450,
      "Ð¾Ñİ": 451,
      "ÑĥÐ¼": 452,
      "ĠÑĪ": 453,
      "ĠÐ¼Ñĸ": 454,
      "Ð½Ð¸Ñħ": 455,
      "ÑģÑĤÑĮ": 456,
      "ĠÑĦ": 457,
      "ÑĢÐµ": 458,
      "ĠÐ¹": 459,
      "ÑĸÐº": 460,
      "ĠÐ·Ð°": 461,
      "ÑĤÑĥ": 462,
      "Ð°Ð¼Ð¸": 463,
      "ĠÑĢÐµ": 464,
      "ĠÐ¿ÐµÑĢÐµ": 465,
      "ĠÐ²Ð¾Ð½Ð¸": 466,
      "ĠÐ´Ðµ": 467,
      "ÑĢÐ°Ð²": 468,
      "ÑĥÐ²Ð°ÑĤÐ¸": 469,
      "ĠÐ´Ð»Ñı": 470,
      "ÑĤÑĢ": 471,
      "Ð»ÑĮ": 472,
      "ĠÐµ": 473,
      "Ð¾Ñĩ": 474,
      "ÑĸÑĹ": 475,
      "Ð°Ð½Ñĸ": 476,
      "Ð¾ÑĹ": 477,
      "ĠÑģÐº": 478,
      "ÑīÐ¾": 479,
      "Ð¾Ñģ": 480,
      "ÑĸÐ·": 481,
      "ĠÐ½Ð°Ñģ": 482,
      "ĠÑĩÐ¸": 483,
      "rrb": 484,
      "lrb": 485,
      "ĠÐ¼Ðµ": 486,
      "ÑĢÐ¾Ð±": 487,
      "Ð¾ÑĢÐ¸": 488,
      "Ð°Ð±": 489,
      "Ð°Ð»Ð°": 490,
      "ĠÐ¿Ð¾Ð²": 491,
      "ÑĥÑĤ": 492,
      "ÑģÑĤÑĸ": 493,
      "Ð»Ñĸ": 494,
      "Ð°ÑİÑĤÑĮ": 495,
      "Ð°Ð»Ðµ": 496,
      "ÑģÐµ": 497,
      "ĠÐ¿ÑĸÐ´": 498,
      "ÑĥÑĶ": 499,
      "Ð½Ð¾Ð³Ð¾": 500,
      "ĠÑĢÐ¾Ð±": 501,
      "ĠÐºÐ¾Ð»Ð¸": 502,
      "ĠÑıÐºÑĸ": 503,
      "ÑĤÑı": 504,
      "Ð¾Ð²Ñĸ": 505,
      "ĠÑģÐ²Ñĸ": 506,
      "ĠÐ¾Ð´": 507,
      "ÑĤÑĸ": 508,
      "Ð»Ð°Ð´": 509,
      "ĠÐ¼Ð¾Ð¶Ðµ": 510,
      "ÑĢÐ¾": 511,
      "ĠÐ½Ð°ÑĪ": 512,
      "ĠÑīÐ¾Ð±": 513,
      "ÑĤÐ¾": 514,
      "ĠÑĹÑħ": 515,
      "ĠÑĩÐ°Ñģ": 516,
      "ÑİÑĤÑĮ": 517,
      "ĠÐ½Ñĸ": 518,
      "Ð¾Ð´Ð¸": 519,
      "ĠÑĤÐ¾Ð¼Ñĥ": 520,
      "ĠÐ¾Ð±": 521,
      "ÑģÑĤÐ¸": 522,
      "Ð´Ñĸ": 523,
      "Ð»Ñİ": 524,
      "Ð²Ð¾ÑĢ": 525,
      "ĠÑģÐ°Ð¼": 526,
      "ÑĢÐ°Ñ": 527,
      "ĠÐ°Ð»Ðµ": 528,
      "ÑĥÑĤÑĮ": 529,
      "ÑıÐº": 530,
      "ĠÐ±ÑĸÐ»ÑĮ": 531,
      "ĠÐ¼ÐµÐ½": 532,
      "ĠÐ²ÑĸÐ½": 533,
      "ĠÐ¿Ð¾ÑĤ": 534,
      "ĠÐ½Ð°Ð²": 535,
      "ÐµÐ·": 536,
      "Ð°ÑĶÐ¼Ð¾": 537,
      "ÑģÐ¿": 538,
      "ÑĥÐ¿": 539,
      "ĠÐ¿Ð¾Ð´": 540,
      "ĠÑĢÐ¾Ðº": 541,
      "ĠÐ´Ñĥ": 542,
      "Ġ1": 543,
      "ÐµÐº": 544,
      "Ð½Ð¸Ð¼": 545,
      "ÑĥÐ´": 546,
      "ĠÑģÐ²Ð¾": 547,
      "ĠÑģÐ¸": 548,
      "ÑĮÐ¾Ð³Ð¾": 549,
      "ÐºÐ¾": 550,
      "ĠÐ²Ðµ": 551,
      "ĠÑĨÑĸ": 552,
      "Ð¼Ñĥ": 553,
      "ĠÑĸÐ½ÑĪ": 554,
      "ÑģÐ¸": 555,
      "ĠÐ¾Ð¿": 556,
      "ĠÐ²ÑģÐµ": 557,
      "ĠÐ±ÑĥÐ»Ð¾": 558,
      "Ð°ÑĶÑĤÑĮÑģÑı": 559,
      "ÑĸÐ»ÑĮÐºÐ¸": 560,
      "ÑĸÑĢ": 561,
      "Ð¸Ð¼Ð¸": 562,
      "ĠÐ´ÑĥÐ¶Ðµ": 563,
      "ÑģÐ»": 564,
      "ĠÐ½Ð°Ð¹": 565,
      "ÑİÐ²": 566,
      "ÑĸÑĤ": 567,
      "ĠÐ¹Ð¾Ð³Ð¾": 568,
      "ÑĸÑı": 569,
      "ĠÐ¼ÐµÐ½Ðµ": 570,
      "ĠÐ½Ð°Ð¼": 571,
      "ÐµÐ½ÑĮ": 572,
      "ĠÐ»ÑİÐ´Ð¸": 573,
      "ÑģÑĤÐ¾": 574,
      "ĠÐ·ÑĢÐ¾Ð±": 575,
      "ĠÐ·Ð°Ð¿": 576,
      "ĠÑıÐºÑīÐ¾": 577,
      "ĠÐ²Ð¸Ðº": 578,
      "ĠÑģÐ¼Ñĸ": 579,
      "ÐµÐ½ÑĤ": 580,
      "Ð½Ð¾Ñİ": 581,
      "ĠÐ½Ð°Ð´": 582,
      "Ð´ÐµÐ¹": 583,
      "Ð¸Ð»Ð¸": 584,
      "Ð½Ð¸Ðº": 585,
      "Ð¸Ð½": 586,
      "ĠÐ¶Ð¸ÑĤ": 587,
      "ĠÐ¾Ñģ": 588,
      "Ð»Ð¸Ð²Ð¾": 589,
      "ÑĸÑĩ": 590,
      "Ð²Ð°": 591,
      "ĠÐ¿Ð¾Ðº": 592,
      "ĠÑĤÐ¸": 593,
      "ĠÐºÐ¾Ð¼": 594,
      "00": 595,
      "Ð¼Ðµ": 596,
      "ĠÐ»ÑİÐ´ÐµÐ¹": 597,
      "ÑģÑĮÐº": 598,
      "Ð½Ð¾ÑĹ": 599,
      "ÑģÑĤÐµ": 600,
      "ĠÐ¿Ð¾Ñĩ": 601,
      "Ð°Ð»Ð¾": 602,
      "ĠÐ´Ñĸ": 603,
      "Ð°Ð³Ð°ÑĤ": 604,
      "ĠÐ´ÑĥÐ¼": 605,
      "ĠÐ²ÑģÑĸ": 606,
      "ÑĨÑı": 607,
      "ÑĩÑĸ": 608,
      "ĠÐ·Ð¼": 609,
      "ĠÑģÐ»": 610,
      "ĠÑģÐ¼ÑĸÑħ": 611,
      "ĠÐ·Ð²": 612,
      "ÑĥÐº": 613,
      "Ð¾Ð´Ñĸ": 614,
      "ĠÑħÐ¾Ñĩ": 615,
      "Ð¿Ð¾Ð²": 616,
      "Ð¾ÑĢÐ¸ÑģÑĤ": 617,
      "Ð¿ÐµÑĢ": 618,
      "ĠÐ¿Ð¾Ð»": 619,
      "Ð»Ð¸Ð²": 620,
      "Ð¾Ð²Ð¸": 621,
      "ĠÐ°Ð±": 622,
      "Ð°ÑĶÑĤÐµ": 623,
      "Ð¾Ð²Ñĥ": 624,
      "Ð¸Ð¼Ð¾": 625,
      "ĠÑĸÐ·": 626,
      "ĠÑĤÑĢ": 627,
      "Ð·Ð½": 628,
      "Ð°Ð»Ñĸ": 629,
      "Ð°Ð³Ð°ÑĤÐ¾": 630,
      "ĠÐ²Ð¾Ð½Ð°": 631,
      "ÑĥÐ²Ð°Ð½Ð½Ñı": 632,
      "ÑĤÐµÑĢ": 633,
      "ĠÑĤÐ¾Ð³Ð¾": 634,
      "Ð½ÑĸÑģÑĤÑĮ": 635,
      "ÑĤÑĢÐ¸Ð¼": 636,
      "ĠÐ±Ð°Ñĩ": 637,
      "ĠÑīÐµ": 638,
      "ĠÐ¼ÐµÐ½Ñĸ": 639,
      "Ð¸Ñģ": 640,
      "ĠÐ²Ð°Ð¼": 641,
      "ĠÐ¿ÐµÑĢ": 642,
      "ĠÐ·Ð°Ð²": 643,
      "ÑĸÑİ": 644,
      "ĠÐºÑĢÐ°Ñ": 645,
      "ĠÑĢÐ¾ÐºÑĸÐ²": 646,
      "Ð»Ð°Ñģ": 647,
      "ĠÐ¿ÑĢÐ°ÑĨ": 648,
      "ĠÑıÐºÐ¸Ð¹": 649,
      "ÑĢÐ°Ð²Ð´Ñĸ": 650,
      "Ð²ÑĸÐ´": 651,
      "ĠÐ»Ð¸": 652,
      "Ð½Ð¸Ð¼Ð¸": 653,
      "Ð½ÑĸÐ¹": 654,
      "ÑĸÑģ": 655,
      "ĠÑģÐºÐ°Ð·": 656,
      "Ð±Ð¸": 657,
      "ÑĸÑģÑĤÑĮ": 658,
      "ĠÐ±ÑĥÐ²": 659,
      "Ð´Ñĥ": 660,
      "Ð¾Ð»Ð¾Ð³": 661,
      "ÑĥÑħ": 662,
      "Ð¾Ð²Ð°": 663,
      "ĠÐ¶Ð¸ÑĤÑĤÑı": 664,
      "Ð½ÑĸÐ²": 665,
      "ÑĸÐ¼": 666,
      "ĠÑĨÑĮÐ¾Ð³Ð¾": 667,
      "ĠÐ½Ð°Ð¿": 668,
      "ĠÐ·Ð´": 669,
      "Ġ2": 670,
      "ÑĩÐµ": 671,
      "ĠÑĹÑĹ": 672,
      "ÑĥÐ²Ð°Ð»Ð¸": 673,
      "ĠÐ±ÐµÐ·": 674,
      "ĠÐ²ÐµÐ»Ð¸": 675,
      "ÐµÑĢÐµÐ´": 676,
      "ÑĸÑĤÑĮ": 677,
      "ÐºÑĸÐ²": 678,
      "ÑĮÐ¾Ð¼Ñĥ": 679,
      "ĠÑģÐµ": 680,
      "ĠÑģÐ²ÑĸÑĤ": 681,
      "ĠÐºÐ¾Ð½": 682,
      "ÑĪÐ¸": 683,
      "ĠÐ´Ð¾Ð¿": 684,
      "ÑĥÑĢ": 685,
      "ÐºÐ»Ð°Ð´": 686,
      "ĠÐ±ÑĸÐ»ÑĮÑĪÐµ": 687,
      "Ð°ÑĢÐ°Ð·": 688,
      "ÑģÑĤÐ¾ÑĢ": 689,
      "ĠÐ±ÑĥÐ´": 690,
      "ĠÐµÐº": 691,
      "ÐµÐ²": 692,
      "Ð´Ð¸Ð½": 693,
      "ĠÑĤÐ¾": 694,
      "ÑİÑĶ": 695,
      "ĠÐ²Ð¸ÐºÐ¾ÑĢÐ¸ÑģÑĤ": 696,
      "Ð½Ð¾Ð¼Ñĥ": 697,
      "ĠÑıÐ·": 698,
      "Ð½Ð¾ÑģÑĤÑĸ": 699,
      "ĠÐ½Ð°Ð·": 700,
      "ÑģÑĤÑĥÐ¿": 701,
      "ĠÑģÑĤÐ²Ð¾ÑĢ": 702,
      "Ð²Ð¾Ð½Ð¸": 703,
      "Ð¾Ð¹": 704,
      "ĠÐ¿ÑĢÐ¾Ð±": 705,
      "Ð²Ð¸Ñĩ": 706,
      "ĠÐ¿Ð¾Ð±": 707,
      "ĠÐ·Ð°Ñħ": 708,
      "ĠÑĤÐ°ÐºÐ¾Ð¶": 709,
      "ĠÐ±ÑĥÑĤÐ¸": 710,
      "ÐµÑĢÐµÐ·": 711,
      "ĠÐ±ÑĸÐ»ÑĮÑĪ": 712,
      "ĠÐ°Ð±Ð¾": 713,
      "ÑĤÐ°Ðº": 714,
      "Ð¾ÑĢÐ¼": 715,
      "ÑıÐ²": 716,
      "Ð´Ñı": 717,
      "ÑĥÐ»ÑĮ": 718,
      "ĠÑıÐºÐ°": 719,
      "ĠÐ±ÑĥÐ»Ð°": 720,
      "ÑģÑĤÑĢ": 721,
      "ÑĸÑĪ": 722,
      "ĠÐ¼Ð¾": 723,
      "ÐµÐ´": 724,
      "ĠÐ·Ð¼Ñĸ": 725,
      "ĠÐ¿ÑĢÐ¾ÑģÑĤÐ¾": 726,
      "ĠÐ±Ð°Ð³Ð°ÑĤÐ¾": 727,
      "ĠÐ¾ÑĤÑĢÐ¸Ð¼": 728,
      "ĠÐºÑĸÐ»ÑĮ": 729,
      "ÑĶÑİ": 730,
      "Ð²Ð°Ð¶": 731,
      "ĠÐ´Ð¾Ð¿Ð¾Ð¼": 732,
      "ĠÑĢÐ°Ð·": 733,
      "ĠÑģÐ²Ð¾ÑĹ": 734,
      "ĠÐ²Ð°Ñģ": 735,
      "ĠÐ¿ÑĢÐ°Ð²": 736,
      "ĠÐ¼ÑĸÑģ": 737,
      "ĠÐºÐ¾Ð¼Ð¿": 738,
      "ĠÐºÐ¾Ð¶": 739,
      "ĠÐ²Ð¿": 740,
      "ĠÐ²Ð°Ð¶": 741,
      "ÑĢÑĸÐ±": 742,
      "Ð°ÑĤÑĮ": 743,
      "Ð¿Ð¾Ð²ÑĸÐ´": 744,
      "ÐºÐ¾Ð»Ð¸": 745,
      "Ð¼Ð°": 746,
      "ĠÐ´Ð¾Ð²": 747,
      "Ð»ÐµÑģ": 748,
      "Ð±Ðµ": 749,
      "ĠÐ¿ÑĢÐ¾Ð±Ð»Ðµ": 750,
      "ĠÐ²Ð°ÑĪ": 751,
      "ĠÐ±ÑĥÐ»Ð¸": 752,
      "Ð°ÑĨÑĸÑĹ": 753,
      "ĠÐ»Ð¸ÑĪÐµ": 754,
      "ĠÐ¼Ñĥ": 755,
      "ĠÑĨÐµÐ¹": 756,
      "ÑĢÐ¾Ð·": 757,
      "ÑģÑĤÐ°Ð½": 758,
      "ÑĤÐ°": 759,
      "Ð²ÑĸÐ½": 760,
      "ĠÐºÑĢ": 761,
      "ĠÑĢÑĸÐ·": 762,
      "Ð²Ð¸ÑĩÐ°Ð¹": 763,
      "Ð¾ÑĤÐ¸": 764,
      "ĠÐ·Ñĸ": 765,
      "ĠÐ¿Ð¾Ð³": 766,
      "ĠÑĩÐµÑĢÐµÐ·": 767,
      "ÑĶÑĹ": 768,
      "ĠÐ½Ð¸Ñħ": 769,
      "ĠÐ¼Ð¾Ð¶Ð½Ð°": 770,
      "Ð»ÑıÐ´": 771,
      "ÑĤÐ¸Ð²": 772,
      "ĠÐ²Ð¸Ð¿": 773,
      "ĠÑĤÑĥÑĤ": 774,
      "ÐµÑĢÑĸ": 775,
      "ÑĥÐ¼Ñĸ": 776,
      "ÑĤÐ¾ÑĢ": 777,
      "Ð¶ÐµÐ½Ð½Ñı": 778,
      "Ð±ÑĸÐ»ÑĮ": 779,
      "ĠÑģÐ°Ð¼Ðµ": 780,
      "ÑĥÑİ": 781,
      "Ð»Ð¸Ð²Ñĸ": 782,
      "ĠÐ¼Ð°Ð»": 783,
      "Ð¸ÑĤÐµ": 784,
      "ĠÑīÐ¾ÑģÑĮ": 785,
      "ÑĨÑĮ": 786,
      "Ð·Ð½Ð°Ñĩ": 787,
      "Ð»ÐµÑģÐºÐ¸": 788,
      "ÑģÐ»ÑĸÐ´": 789,
      "ÑĢÑı": 790,
      "ĠÐ½Ð°Ð²ÑĸÑĤÑĮ": 791,
      "ĠÐ²Ð¸Ð³": 792,
      "ĠÐ¾Ð¿Ð»ÐµÑģÐºÐ¸": 793,
      "ÐºÐ¸Ð¹": 794,
      "Ð¼ÐµÑĢ": 795,
      "Ð¾Ð±Ñĸ": 796,
      "ĠÐ²Ð¶Ðµ": 797,
      "ÑıÐ³": 798,
      "Ð¾Ñħ": 799,
      "ÑĢÐ¾Ð´": 800,
      "ĠÐ³Ð¾Ð»": 801,
      "ÑĩÐ¸Ð½": 802,
      "ĠÐºÐ¾Ð»": 803,
      "ĠÐ¾ÑģÑĮ": 804,
      "Ð½ÑĥÑĤÐ¸": 805,
      "ÑİÐ²Ð°ÑĤÐ¸": 806,
      "ÑĢÐ°Ð·": 807,
      "ĠÑĤÑĸÐ»ÑĮÐºÐ¸": 808,
      "ĠÐ¶ÑĸÐ½": 809,
      "ĠÑħÑĤÐ¾": 810,
      "ÑĥÑİÑĤÑĮ": 811,
      "Ð¾Ð²Ð¾": 812,
      "ĠÑĸÑģÑĤÐ¾ÑĢ": 813,
      "ĠÐ·ÑĢÐ¾Ð±Ð¸ÑĤÐ¸": 814,
      "ĠÐ´Ð¸Ð²": 815,
      "ĠÐ³ÑĢ": 816,
      "Ð»ÐµÐ½Ð½Ñı": 817,
      "ÐºÑĢ": 818,
      "ÑĤÐ¸Ñĩ": 819,
      "ĠÐ±ÑĥÐ´Ðµ": 820,
      "ĠÑģÑĥ": 821,
      "ĠÐ´Ð¾Ð±": 822,
      "ĠÐºÑĢÐ°ÑĹ": 823,
      "ĠÐ¿Ð¾ÑĤÑĢÑĸÐ±": 824,
      "ÑĥÐ²Ð°Ð²": 825,
      "ĠÑģÐ¿ÑĢÐ°Ð²": 826,
      "ĠÐ½ÑĸÐ¶": 827,
      "ĠÐ¼Ð°Ð¹": 828,
      "ÑĤÐ¾Ð¼": 829,
      "Ð·Ð¸": 830,
      "Ð²Ðµ": 831,
      "ĠÐ¾Ð´Ð¸Ð½": 832,
      "Ð¾Ð´Ð½Ñĸ": 833,
      "Ð°ÑİÑĩÐ¸": 834,
      "ĠÐºÐ¾ÑĢ": 835,
      "Ð¾ÑģÑĮ": 836,
      "ÐºÐ¸Ñħ": 837,
      "Ð½Ð¾Ð²": 838,
      "ĠÐ¿Ð»": 839,
      "ĠÐ¿Ð¾ÑĢ": 840,
      "ĠÐ·Ð°Ðº": 841,
      "Ð²Ð¸Ð´": 842,
      "ÑĥÐ½": 843,
      "Ð½Ð¸ÑĤÐ¸": 844,
      "Ð°ÑİÑĤÑĮÑģÑı": 845,
      "ÑħÐ½": 846,
      "ÑģÑĤÐ°Ð²": 847,
      "ÑĢÐ°Ð¶": 848,
      "ĠÐ¿Ð¾Ð¼": 849,
      "ĠÐ²Ð·": 850,
      "ĠÐ¼Ð¾Ð¶ÐµÐ¼Ð¾": 851,
      "Ð¸ÑĤÑĮ": 852,
      "Ð²Ð¾Ð»": 853,
      "ĠÐ¿Ð¾Ð±Ð°Ñĩ": 854,
      "Ð°Ð½Ðµ": 855,
      "Ð¾Ð²Ð¾ÑĢ": 856,
      "ĠÐ¼Ð°ÑĶ": 857,
      "Ð½ÑĮ": 858,
      "ÑģÐ½Ð¾": 859,
      "ÑĤÑĸÐ²": 860,
      "ĠÑĨÑĮÐ¾Ð¼Ñĥ": 861,
      "ÐºÑĥÑİ": 862,
      "ĠÑģÐ¸ÑģÑĤÐµ": 863,
      "ĠÐ¿ÐµÑĢÐµÐ´": 864,
      "ĠÐ´ÑĢÑĥ": 865,
      "ÑĪÑĸ": 866,
      "ĠÐ²Ð»Ð°Ñģ": 867,
      "ĠÐ·Ð°ÑĢÐ°Ð·": 868,
      "ÑĸÐ½Ð½Ñı": 869,
      "ÐµÐ¼": 870,
      "ĠÑĨÑİ": 871,
      "ĠÐ¿ÑĢÐ¾Ð´": 872,
      "ĠÐ±Ð¾": 873,
      "Ð°ÑĤÐ¸ÑģÑı": 874,
      "ÑģÐº": 875,
      "ĠÐ²ÑĸÐ´Ñĩ": 876,
      "ÑıÐºÑīÐ¾": 877,
      "Ð½Ð¾Ð¼": 878,
      "ĠÐ½Ð¾Ð²": 879,
      "ĠÑģÐµÐ±Ðµ": 880,
      "Ð¾Ð³Ð¾Ð´Ð½Ñĸ": 881,
      "ĠÑĸÐ´Ðµ": 882,
      "Ð±ÑĸÐ»ÑĮÑĪ": 883,
      "Ð¾ÑĢÐ¾": 884,
      "ĠÑģÐºÐ»Ð°Ð´": 885,
      "ÑĦÐ¾ÑĢÐ¼": 886,
      "Ð¾Ð¶Ðµ": 887,
      "ĠÑģÑħ": 888,
      "ĠÑĥÑģÑĸ": 889,
      "ĠÐ»ÑİÐ´": 890,
      "ĠÑİ": 891,
      "ĠÐ½Ð°ÑģÐ¿": 892,
      "ĠÐ´Ð¾ÑģÐ»ÑĸÐ´": 893,
      "ĠÑĩÐ¾Ð¼Ñĥ": 894,
      "ĠÐ²ÑĸÐ´Ð±": 895,
      "ÑĥÑĶÐ¼Ð¾": 896,
      "ÑĨÑĸÐ²": 897,
      "ĠÐ½Ð°ÑģÐ¿ÑĢÐ°Ð²Ð´Ñĸ": 898,
      "Ð¿Ðµ": 899,
      "ĠÐ¼Ð¾Ð¶Ð»Ð¸Ð²Ð¾": 900,
      "ÑģÑĤÑİ": 901,
      "ĠÐ¾ÑĢ": 902,
      "ĠÐ¿ÑĢÐ¾Ð³": 903,
      "ĠÐ¼ÑĸÐ»ÑĮ": 904,
      "ĠÐ·Ð°Ð±": 905,
      "ĠÑĸÑģ": 906,
      "Ð·ÑĮ": 907,
      "Ð¸ÑĤÐ°Ð½Ð½Ñı": 908,
      "ĠÐ¿Ð¾ÐºÐ°Ð·": 909,
      "Ð¾ÑĨÑĸ": 910,
      "ĠÐ¼Ð¾Ð¶ÑĥÑĤÑĮ": 911,
      "ÑĨÑĸÑĹ": 912,
      "ÑħÐ½Ð¾Ð»Ð¾Ð³": 913,
      "ĠÑĨÐ¸Ñħ": 914,
      "ĠÐ²ÑĸÐ´Ð¿Ð¾Ð²ÑĸÐ´": 915,
      "ÑĢÐµÐ±": 916,
      "ĠÑģÐ¿Ð¾": 917,
      "ĠÑĤÐ°Ð¼": 918,
      "ÑĤÐ¾Ð¼Ñĥ": 919,
      "ĠÐ·Ð½Ð°Ð¹": 920,
      "ĠÑĩÐ°ÑģÑĤÐ¸": 921,
      "ĠÐ¿Ð¾Ð²ÐµÑĢ": 922,
      "ĠÐ¿ÑĢÐ¾Ð²": 923,
      "ĠÑħÐ¾ÑĤ": 924,
      "ĠÐ¼Ð¾Ð³": 925,
      "ÑģÑĥ": 926,
      "ÐºÑĸ": 927,
      "ÐºÐ¾Ð¼": 928,
      "ĠÐ¼Ð¾Ð¶ÐµÑĤÐµ": 929,
      "ĠÑĢÐ¾Ð±Ð¾ÑĤ": 930,
      "Ð¸Ð»Ð°": 931,
      "ÑĪÑĤ": 932,
      "ĠÐ·Ð±": 933,
      "ÐºÐ¾Ð»": 934,
      "Ð´Ð¶": 935,
      "ÑĢÑĸÑĪ": 936,
      "ĠÑĩÐ¾Ð»": 937,
      "ĠÐ¼ÑĸÐ¶": 938,
      "ĠÑĤÐ¾Ð´Ñĸ": 939,
      "ĠÐºÐ°ÑĢ": 940,
      "ĠÐ¿ÑĢÐ¸Ð¹": 941,
      "ĠÐ·ÑĢÐ¾Ð·": 942,
      "ĠÐ»Ðµ": 943,
      "ĠÐ¿ÐµÑĢÑĪ": 944,
      "ÑĸÐ±": 945,
      "Ð½Ñİ": 946,
      "ĠÑģÑĮ": 947,
      "ÑĤÐ¾Ð¶": 948,
      "ĠÑıÐºÑĥ": 949,
      "ĠÑĢÐ¾Ð·Ð¿": 950,
      "ĠÐ°Ð²": 951,
      "ÐºÐ¾Ñİ": 952,
      "ĠÑĤÐµÑħÐ½Ð¾Ð»Ð¾Ð³": 953,
      "Ð¾Ð´Ñĥ": 954,
      "Ð»ÑıÑĶ": 955,
      "ĠÐ¾ÑģÐ¾Ð±": 956,
      "Ð¼ÐµÐ½": 957,
      "ĠÐ²Ð¸Ð´": 958,
      "ÐµÑĤ": 959,
      "ĠÑģÐ¾Ð±Ñĸ": 960,
      "ĠÐºÐ°Ð¶": 961,
      "ĠÑĢÐµÑĩÑĸ": 962,
      "ÑĨÑĸÐ¹": 963,
      "ĠÑĢÐ¾Ð·Ð²": 964,
      "ÑĸÐºÐ°Ð²": 965,
      "ĠÐ¿Ð°ÑĢ": 966,
      "ĠÐ¿ÑĸÑģ": 967,
      "ĠÐ¼Ð¾Ð·": 968,
      "Ð¾Ð½Ð¾Ð¼": 969,
      "Ð½ÑĸÑĪ": 970,
      "ĠÐ¼Ð¾ÑĹ": 971,
      "ĠÐ²Ð²Ð°Ð¶": 972,
      "ĠÐ¿Ð¾Ð·": 973,
      "Ð°Ð¹ÑĤÐµ": 974,
      "Ð½ÑĥÑĶ": 975,
      "Ð³Ð°Ð½Ñĸ": 976,
      "ÑĥÑĩ": 977,
      "ĠÐ´ÑĸÐ¹": 978,
      "Ð¾ÑĤÐ¶Ðµ": 979,
      "ĠÐ±ÑĥÐ´ÑĮ": 980,
      "ÑĸÐ»Ð°": 981,
      "ĠÐ½ÐµÐ¼": 982,
      "ĠÐ¿Ð¾Ð»Ñĸ": 983,
      "ĠÑģÐµÑĢÐµÐ´": 984,
      "ĠÑħÐ¾ÑĩÑĥ": 985,
      "ÑıÑĤÑĮ": 986,
      "ĠÐ¶Ð¸Ð²": 987,
      "Ð²ÐµÑĢ": 988,
      "ĠÑĢÑĸÐ²": 989,
      "ĠÑĨÑı": 990,
      "ĠÐ°Ð½": 991,
      "ĠÐ·Ð½Ð°Ñĩ": 992,
      "Ð°ÑĨÑĸ": 993,
      "ĠÐ¼Ð¾Ð»": 994,
      "ĠÑĸÐ½ÑĦÐ¾ÑĢÐ¼": 995,
      "Òĳ": 996,
      "ĠÐ·Ð°Ð³": 997,
      "ĠÑĩÑĥÐ´": 998,
      "ĠÐ¼Ð°ÑİÑĤÑĮ": 999,
      "ĠÑģÐºÐ°Ð·Ð°Ð²": 1000,
      "ĠÐ¿Ð¾Ð²Ð¸Ð½": 1001,
      "ĠÑģÐ²": 1002,
      "ÑĩÐ°Ñģ": 1003,
      "ĠÐ²Ð¸Ð±": 1004,
      "ÑĢÐ°": 1005,
      "ĠÑģÑĮÐ¾Ð³Ð¾Ð´Ð½Ñĸ": 1006,
      "ĠÑģÐ²ÑĸÑĤÑĸ": 1007,
      "ĠÑĢÐ¾Ð±Ð¸ÑĤÐ¸": 1008,
      "ĠÐºÐ»Ñĸ": 1009,
      "ÑĢÐ°ÑĦ": 1010,
      "ĠÑĥÐ²": 1011,
      "ĠÑģÐ²ÑĸÑĤÑĥ": 1012,
      "ĠÐ½Ð°Ð²Ñĩ": 1013,
      "ÑĤÐ°ÑĤ": 1014,
      "ĠÑĤÐ¾Ð¹": 1015,
      "Ð»ÐµÐº": 1016,
      "Ð»ÐµÐ½": 1017,
      "ÑĢÐ°Ð¼": 1018,
      "ÐºÐ¾Ð²": 1019,
      "ÑĤÐµÐ¹": 1020,
      "ĠÐ½ÑĸÐº": 1021,
      "ÐµÐ¹": 1022,
      "ĠÐ²Ñĸ": 1023,
      "Ġ3": 1024,
      "Ð¸Ð»ÑĮ": 1025,
      "ĠÑĤÐ¸Ð¼": 1026,
      "Ð¸Ðº": 1027,
      "ĠÑĤÑĸ": 1028,
      "ĠÑĸÐ½ÑĪÐ¸Ñħ": 1029,
      "ĠÐ¿ÑĢÐ¾ÐµÐº": 1030,
      "ĠÑĢÑĥÑħ": 1031,
      "ĠÐ´Ð¶": 1032,
      "ĠÑģÐ¿ÑĸÐ²": 1033,
      "ĠÐ¿Ð¾Ð¿": 1034,
      "Ð²ÑĸÐ´Ð¾Ð¼": 1035,
      "ĠÐ·Ð°Ñģ": 1036,
      "ĠÐ³ÑĢÑĥ": 1037,
      "ĠÐ¼ÑĸÑģÑĨÐµ": 1038,
      "Ð°Ð»ÑĸÐ·": 1039,
      "ĠÐºÑĢÐ°Ñī": 1040,
      "ĠÐ½Ð°Ð·Ð¸Ð²": 1041,
      "ĠÐ½ÐµÐ·": 1042,
      "Ð°Ð½Ð°": 1043,
      "Ð¸Ð½Ð¸": 1044,
      "Ð½ÐµÑĢ": 1045,
      "ĠÐ»ÑĸÐº": 1046,
      "ĠÑĤÐµÐ¿ÐµÑĢ": 1047,
      "ĠÐ²ÑĸÐ´Ð±ÑĥÐ²": 1048,
      "Ġ!": 1049,
      "ĠÐ·Ð°Ð»Ð¸": 1050,
      "ÑħÑĸÐ´": 1051,
      "ĠÑĨÑĸÐºÐ°Ð²": 1052,
      "ÑĥÑĶÑĤÑĮÑģÑı": 1053,
      "ĠÐ½Ð°Ð¼Ð°Ð³": 1054,
      "Ð¸ÑĢ": 1055,
      "ĠÑıÐºÐ¸Ñħ": 1056,
      "ĠÑģÐµÑĢ": 1057,
      "ĠÐ±ÑĢ": 1058,
      "ĠÑĪÐ²Ð¸Ð´": 1059,
      "ĠÐ·Ð°Ð¹": 1060,
      "ĠÑħÐ¾ÑĩÐµ": 1061,
      "ÑħÐ¸": 1062,
      "Ð°ÑĨÑĸÑİ": 1063,
      "ĠÐ¿Ð¾ÑĤÑĸÐ¼": 1064,
      "Ð±ÑĥÑĤ": 1065,
      "Ð°Ð½Ð¾": 1066,
      "ÑĪÐ°": 1067,
      "Ð°Ð½Ð´": 1068,
      "Ð½ÑĸÐ¼": 1069,
      "ĠÐ²Ð¸ÐºÐ¾ÑĢÐ¸ÑģÑĤÐ¾Ð²": 1070,
      "ĠÐ¿ÑĢÐ¸Ð²": 1071,
      "ÑĥÐ±": 1072,
      "Ð²ÑĸÑĤ": 1073,
      "Ð°ÑĨÑĸÑı": 1074,
      "ĠÐ·Ð¼ÑĸÐ½": 1075,
      "Ð²Ð¸ÑĩÐ°Ð¹Ð½Ð¾": 1076,
      "ĠÐºÐ½Ð¸": 1077,
      "ĠÐ³Ð¾Ð²Ð¾ÑĢ": 1078,
      "ĠÐ²Ð¸Ð¿Ð°Ð´": 1079,
      "ĠÐ·Ð°Ð´": 1080,
      "ĠÑĹÐ¼": 1081,
      "ĠÐ±Ð¸": 1082,
      "ÑĸÐ·Ð½": 1083,
      "ĠÐ²Ð¸Ð³Ð»ÑıÐ´": 1084,
      "ĠÐ²Ð´": 1085,
      "Ġ19": 1086,
      "ĠÑĤÑĢÐ¸": 1087,
      "ĠÐ²ÑģÑĮ": 1088,
      "ĠÐ½Ð°Ð±": 1089,
      "ÑĥÐ²Ð°Ð»Ð°": 1090,
      "ĠÑģÑĤÐ°Ð²": 1091,
      "ĠÐ¾ÑĢÐ³Ð°Ð½Ñĸ": 1092,
      "Ð°Ð½ÑĤ": 1093,
      "Ð¾ÑĢÑĥ": 1094,
      "ĠÐ¿Ð¾ÑĤÑĢÑĸÐ±Ð½Ð¾": 1095,
      "ĠÐ½ÐµÐ¹": 1096,
      "ĠÑĩÐ¸Ð½Ð¾Ð¼": 1097,
      "ĠÐ¼Ð°ÑĤ": 1098,
      "ÑĨÑĤ": 1099,
      "ĠÐ»Ñĸ": 1100,
      "ĠÐ²Ð¸Ñģ": 1101,
      "ĠÐ¿ÑĸÑģÐ»Ñı": 1102,
      "Ð¾Ð²ÑĸÑĢ": 1103,
      "Ð²Ð¾Ð½Ð°": 1104,
      "ĠÑĢÐ¾Ð·ÑĥÐ¼": 1105,
      "Ġ5": 1106,
      "Ð°ÑĢÑĸÐ²": 1107,
      "ĠÐ´Ð¾Ð±ÑĢÐµ": 1108,
      "ĠÐ²Ð¸ÑĢÑĸÑĪ": 1109,
      "ĠÑĦÐ¾ÑĤ": 1110,
      "ÐºÐ°Ð¼Ð¸": 1111,
      "ĠÐ¿ÐµÐ²": 1112,
      "Ð¸ÑĤÐ¸ÑģÑı": 1113,
      "ĠÐ·Ð¼ÑĸÐ½Ð¸": 1114,
      "ĠÐ´Ð¾Ð»": 1115,
      "Ð³Ñĥ": 1116,
      "Ð´Ð¾": 1117,
      "ÑħÑĤÐ¾": 1118,
      "ĠÐ°Ðº": 1119,
      "ĠÐ´Ð¸": 1120,
      "Ð°ÑģÑĤ": 1121,
      "ĠÑĨÑĸÐ»": 1122,
      "Ð°Ð»ÐµÐ¶": 1123,
      "ĠÐºÑĸÐ»ÑĮÐºÐ°": 1124,
      "ĠÐ½ÑĸÐºÐ¾Ð»Ð¸": 1125,
      "Ð¿ÑĢ": 1126,
      "ĠÐ¼ÑĸÐ»ÑĮÐ¹": 1127,
      "ÑĥÐ»Ð¸": 1128,
      "ĠÐ²ÑĸÐ´ÐºÑĢ": 1129,
      "ĠÑģÑĤÐ°ÑĢ": 1130,
      "ĠÐ²ÑĸÐ´Ñģ": 1131,
      "ÑģÑĤÐ²Ð°": 1132,
      "ĠÐ¾ÑĤ": 1133,
      "ÑĩÐ¾Ð³Ð¾": 1134,
      "ĠÐ±Ñĸ": 1135,
      "ĠÑĤÐ¾Ñĩ": 1136,
      "ĠÑĤÐ°ÐºÑĸ": 1137,
      "ĠÐ·Ð³": 1138,
      "ÑİÑĩÐ¸": 1139,
      "Ð¼Ð¾Ð²": 1140,
      "Ð»Ð¾Ð¿": 1141,
      "Ð¿Ñĥ": 1142,
      "ĠÐ°ÑĢ": 1143,
      "ĠÐ¼Ð°Ð»ÐµÐ½ÑĮ": 1144,
      "ĠÐ±Ð»Ð¸": 1145,
      "ÑģÑĤÑĢÑĥ": 1146,
      "ĠÐ¼ÑĥÐ·Ð¸": 1147,
      "ĠÐ¼Ð°ÑĶÐ¼Ð¾": 1148,
      "ĠÑĸÐ½ÑĤÐµÑĢ": 1149,
      "Ð±Ð¸ÑĢ": 1150,
      "ĠÐ°Ð¼ÐµÑĢ": 1151,
      "ÐµÑĢÑĤ": 1152,
      "ĠÑĤÑĥ": 1153,
      "Ð¶Ñĸ": 1154,
      "Ð°Ð»ÑĮÐ½Ñĸ": 1155,
      "Ð°Ð²ÑģÑı": 1156,
      "ĠÑĢÐµÐ·": 1157,
      "Ð½ÑĶ": 1158,
      "Ð½Ð°Ð¹": 1159,
      "ĠÐ²Ñģ": 1160,
      "ĠÐ·Ñĥ": 1161,
      "ĠÐ´Ð¾Ð·": 1162,
      "Ð¾Ð²Ð¸Ñħ": 1163,
      "Ð°Ð½ÑĮ": 1164,
      "ÑĢÐ¸ÐºÐ»Ð°Ð´": 1165,
      "ĠÐ¿ÑĸÐ²": 1166,
      "ĠÐ¿Ð¸ÑĤÐ°Ð½Ð½Ñı": 1167,
      "ĠÑĨÐ¸Ð¼": 1168,
      "ĠÑīÐ¾Ð´": 1169,
      "ĠÑĢÐ¾ÐºÑĥ": 1170,
      "ĠÑıÐºÐµ": 1171,
      "Ġ;": 1172,
      "ĠÑģÐ¿ÑĢÐ°Ð²Ð´Ñĸ": 1173,
      "ĠÐ¾Ð´Ð½Ð¾Ð³Ð¾": 1174,
      "Ð¾Ð´Ð¸ÑĤÑĮ": 1175,
      "ÑģÑĸÐ±": 1176,
      "ÐºÑĸÐ»ÑĮÐºÐ¸": 1177,
      "ĠÐ´Ñı": 1178,
      "Ð¸Ð²ÑģÑı": 1179,
      "ÑıÐºÑĸ": 1180,
      "ĠÑģÐ²Ð¾Ñİ": 1181,
      "ĠÐ·Ð°Ð¼": 1182,
      "ÑĪÑĥ": 1183,
      "ĠÑĩÐ°ÑģÑĥ": 1184,
      "ÑģÐ¸ÑĤÑĮ": 1185,
      "ĠÐ¼Ð°ÑĤÐ¸": 1186,
      "ÑĢÐ°Ñħ": 1187,
      "ĠÐ±Ð°ÑĤÑĮ": 1188,
      "ÑĥÑĤÑĤÑı": 1189,
      "ĠÐ¼Ð¾Ð¶Ñĥ": 1190,
      "ĠÐºÐ¾Ð¼Ð¿Ð°Ð½Ñĸ": 1191,
      "ÑīÐµ": 1192,
      "Ð½ÑĥÐ²": 1193,
      "Ð¼Ð¾Ð²ÑĸÑĢ": 1194,
      "ĠÐ¾ÑĢÐ³Ð°Ð½ÑĸÐ·": 1195,
      "Ð¿ÑĢÐ¾": 1196,
      "ĠÐ¼ÑĸÑģÑĤ": 1197,
      "Ð¶Ð´Ð¸": 1198,
      "Ð»Ð¾ÑģÑı": 1199,
      "ĠÐ´ÑĸÑĤÐµÐ¹": 1200,
      "ĠÐ´Ð²Ð°": 1201,
      "Ð»ÑİÐ²": 1202,
      "ĠÐ¾ÑģÑĤÐ°Ð½": 1203,
      "Ð½Ð¸ÐºÑĸÐ²": 1204,
      "ĠÐ´Ð¾ÑĢ": 1205,
      "ĠÑħÐ²Ð¸": 1206,
      "000": 1207,
      "ĠÐ±Ð°ÑĩÐ¸ÑĤÐµ": 1208,
      "Ð»ÑıÑĤÑĮ": 1209,
      "ĠÐ¼ÑĸÐ¹": 1210,
      "ÑĨÑĸÑı": 1211,
      "ÐµÐ½Ð°": 1212,
      "ĠÐ·Ð½Ð°Ñħ": 1213,
      "ÑİÑĤÑĮÑģÑı": 1214,
      "ĠÑĢÑĥ": 1215,
      "ÑĢÐ°Ñī": 1216,
      "ĠÐ´ÑĸÐ¹ÑģÐ½Ð¾": 1217,
      "ĠÐ´ÑĥÐ¼Ð°Ñİ": 1218,
      "ĠÑĤÑĢÐ¾": 1219,
      "ÑĢÐµÐ±Ð°": 1220,
      "Ð»Ñĥ": 1221,
      "Ð¾Ð²Ð¶": 1222,
      "Ð°Ð»Ð¾ÑģÑı": 1223,
      "ĠÐ½Ð°ÑĪÑĸ": 1224,
      "Ð°ÑĤÐ¸ÑģÑĮ": 1225,
      "ĠÐ¿ÑĢÐ¸ÐºÐ»Ð°Ð´": 1226,
      "Ġ20": 1227,
      "Ð¿Ð¾": 1228,
      "ÑģÑĸÐ¼": 1229,
      "Ð¾Ð³ÑĢÐ°ÑĦ": 1230,
      "ĠÐ¿Ð¾ÑĩÐ¸Ð½": 1231,
      "Ð°Ð½Ñģ": 1232,
      "ĠÑĥÑģ": 1233,
      "Ð²Ð°ÑĢ": 1234,
      "ĠÐ¿ÑĢÐ¾ÑĨÐµ": 1235,
      "ÑĤÐ¸Ð½": 1236,
      "ĠÐ¼Ð¾Ð³Ð»Ð¸": 1237,
      "ĠÐ·ÑĢÐ¾Ð·ÑĥÐ¼Ñĸ": 1238,
      "Ð´Ð½": 1239,
      "ĠÐµÐºÐ¾Ð½Ð¾Ð¼": 1240,
      "ÑıÑĤÐ¸": 1241,
      "ĠÐ¾Ðº": 1242,
      "ÑģÑĮÐºÐ¾Ð³Ð¾": 1243,
      "Ð¾Ð²Ð¸Ð¹": 1244,
      "ÑħÐ¾Ð´": 1245,
      "ÑģÑĤÐ²Ð¾": 1246,
      "ĠÐ²ÑĸÑĢ": 1247,
      "ĠÐºÑĸÐ½": 1248,
      "ÑĶÐ½": 1249,
      "ĠÐ´Ð¾Ð¿Ð¾Ð¼Ð¾Ð³": 1250,
      "ĠÐ²ÑĸÐ´Ð±ÑĥÐ²Ð°ÑĶÑĤÑĮÑģÑı": 1251,
      "Ð¼ÑĸÐ½": 1252,
      "ĠÐ²Ð°ÑĢ": 1253,
      "ĠÐ´Ð¾Ð´": 1254,
      "ĠÑĤÐ¸Ñħ": 1255,
      "ĠÑģÐ¿ÑĢ": 1256,
      "Ð½ÑĮÐ¾Ð³Ð¾": 1257,
      "ÑĩÐ½Ñĸ": 1258,
      "ĠÐ¼ÐµÑĤ": 1259,
      "Ð°ÑĦ": 1260,
      "ĠÑĢÐ¾Ð·ÑĥÐ¼Ñĸ": 1261,
      "ĠÑİÑĤÐµÑĢ": 1262,
      "ĠÐ¾Ð´Ð½Ð°": 1263,
      "Ð¾Ð²ÑĸÐº": 1264,
      "Ð¾Ð¼Ð°Ð´": 1265,
      "Ġ4": 1266,
      "ĠÐ¼Ð¾Ð¼": 1267,
      "ĠÑĢÐµÐ·ÑĥÐ»ÑĮ": 1268,
      "ĠÑħÐ»Ð¾Ð¿": 1269,
      "ĠÑĸÐ½ÑĪÑĸ": 1270,
      "ĠÑĥÑıÐ²": 1271,
      "ĠÐ·Ð½Ð°ÑĶÑĤÐµ": 1272,
      "ĠÐ²ÑĸÐ´ÑģÐ¾ÑĤ": 1273,
      "ĠÑĩÐ¾Ð³Ð¾": 1274,
      "ĠÐ·Ð½Ð¾Ð²Ñĥ": 1275,
      "ÐºÑĸÐ»ÑĮ": 1276,
      "ĠÐ´Ð°Ð²": 1277,
      "Ð½Ð¸ÐºÐ¸": 1278,
      "Ð»ÑıÑħ": 1279,
      "ĠÐ·Ð°Ð²Ð¶Ð´Ð¸": 1280,
      "ĠÐ¼ÑĸÐ»ÑĮÐ¹Ð¾": 1281,
      "ÑģÑıÐ³": 1282,
      "ĠÑģÐºÐ°Ð·Ð°ÑĤÐ¸": 1283,
      "ĠÐ¼Ð°Ð¹Ð±ÑĥÑĤ": 1284,
      "ÑĥÑģ": 1285,
      "Ð»Ð¸ÑģÑı": 1286,
      "ĠÑĢÐ°Ð·Ð¾Ð¼": 1287,
      "ÑĤÑĤÑı": 1288,
      "ĠÐ½ÐµÐ¿": 1289,
      "Ġ10": 1290,
      "ĠÐ·Ð°Ð»Ð¸ÑĪ": 1291,
      "ĠÐ´ÑıÐºÑĥÑİ": 1292,
      "ÑģÑĤÑĢÑĸ": 1293,
      "ĠÑĢÐ°Ð´": 1294,
      "ĠÐ½Ð°ÑģÑĤÑĥÐ¿": 1295,
      "ĠÐµÐºÑģÐ¿": 1296,
      "ĠÐ³Ð°ÑĢ": 1297,
      "ĠÑģÐ²Ð¾ÑĶ": 1298,
      "ĠÐ·Ð°ÑĢ": 1299,
      "ÑĪÐ¾Ð²": 1300,
      "Ð°Ð½Ñĥ": 1301,
      "ĠÐ³ÑĢÐ¾Ð¼Ð°Ð´": 1302,
      "Ð¾Ð±ÑĢÐ°Ð¶": 1303,
      "ÑĤÐ²Ð¾ÑĢ": 1304,
      "ĠÑĢÑĸÑĩ": 1305,
      "ĠÐ¿ÑĢÐ¾ÑĤ": 1306,
      "ĠÐ¾Ð·Ð½Ð°Ñĩ": 1307,
      "ĠÑĨÑĸÑĶÑĹ": 1308,
      "ÑĸÐ»Ñı": 1309,
      "Ð³Ð¸": 1310,
      "ĠÑĩÐ¾Ð»Ð¾Ð²ÑĸÐº": 1311,
      "Ð¾ÑģÑĤÑĸ": 1312,
      "ĠÐ·Ð¾Ð²": 1313,
      "ĠÑĤÑĢÐµÐ±Ð°": 1314,
      "ĠÐ¼Ð°ÑĪ": 1315,
      "Ð¸ÑĦ": 1316,
      "ĠÐ¼ÑĸÑģÑı": 1317,
      "ĠÐ°Ð´": 1318,
      "ĠÐ³ÑĢÐ¾": 1319,
      "ĠÑĤÐ¸ÑģÑı": 1320,
      "ĠÑĤÐ°ÐºÐµ": 1321,
      "ÑĸÐ»Ð¸": 1322,
      "ÑĩÐ°": 1323,
      "Ð½ÑĸÑģÑĤÑİ": 1324,
      "ÑİÑİÑĤÑĮ": 1325,
      "ÐºÑĸÑģÑĤÑĮ": 1326,
      "ĠÐ½Ð°Ð¹Ð±ÑĸÐ»ÑĮÑĪ": 1327,
      "ĠÐ´Ð¾Ðº": 1328,
      "ĠÐ²ÑĸÐ¹": 1329,
      "Ð½ÑĸÑħ": 1330,
      "ĠÑģÐ¿Ð¾ÑģÑĸÐ±": 1331,
      "ÐºÐ¾Ð½": 1332,
      "ĠÐ¿Ð¾ÑģÑĤ": 1333,
      "ĠÐ²Ð¸Ð²": 1334,
      "Ð°Ð»Ð¸ÑģÑı": 1335,
      "ÑģÐ¿ÑĸÐ»ÑĮ": 1336,
      "ĠÐ´Ð¸ÑĤÐ¸": 1337,
      "ĠÐ·ÐµÐ¼": 1338,
      "ÐµÐ½Ñĸ": 1339,
      "ĠÑģÐ¾ÑĨÑĸ": 1340,
      "ĠÐ¿Ð¾Ð²Ð¸Ð½Ð½Ñĸ": 1341,
      "Ð»ÑĸÐº": 1342,
      "ÑģÑĮÐºÐ¸Ñħ": 1343,
      "Ð°ÑĨÑĸÐ¹": 1344,
      "Ð°ÑĶÐ¼": 1345,
      "ĠÑĤÐµÑĢ": 1346,
      "ĠÐ½ÐµÐ¼Ð°ÑĶ": 1347,
      "ĠÑĤÑĢÐ¾ÑħÐ¸": 1348,
      "Ð¸ÑĤÑĥ": 1349,
      "ĠÐ»ÑİÐ±": 1350,
      "Ð»Ð¸Ð²ÑĸÑģÑĤÑĮ": 1351,
      "Ð°Ð»Ñĥ": 1352,
      "ĠÐ»ÑĸÑĤ": 1353,
      "Ð°ÑĤÐ¾ÑĢ": 1354,
      "ĠÐ²ÑģÑĸÑħ": 1355,
      "ĠÐ´ÐµÐ½ÑĮ": 1356,
      "Ð¾Ð»ÑĮ": 1357,
      "ÐµÐ»ÑĮ": 1358,
      "ÑĶÐ¼Ð¾": 1359,
      "ĠÐ½Ð°ÑĪÐ¸Ñħ": 1360,
      "ĠÐ¼Ð°Ñģ": 1361,
      "Ð¾Ð´Ð¸Ð½": 1362,
      "ĠÐ´ÑĸÐ²": 1363,
      "ĠÐ²ÑĸÐ´Ðµ": 1364,
      "ĠÐ½ÑĮÐ¾Ð³Ð¾": 1365,
      "Ð½ÑĸÑĪÐµ": 1366,
      "ÑĦÐµÐº": 1367,
      "ĠÐ¿Ð¾Ð´ÑĥÐ¼": 1368,
      "Ð²Ð¾ÑĢÐ¸": 1369,
      "Ð°Ð»ÑĮÐ½Ð¾": 1370,
      "ĠÐ¼Ð¾Ñı": 1371,
      "ÑĪÐ»Ð¸": 1372,
      "Ð³Ð¾": 1373,
      "ĠÐ¿ÑĢÐµÐ´": 1374,
      "Ð¾Ð´ÑĸÐ²": 1375,
      "ÐµÑĢÐµÐ´Ð¸": 1376,
      "ĠÑĪÐ»ÑıÑħ": 1377,
      "ĠÑĦÐ°Ðº": 1378,
      "ĠÐ´Ð°": 1379,
      "ÑĩÐ½Ð¾": 1380,
      "Ð·Ñĸ": 1381,
      "Ð¸Ð»": 1382,
      "ĠÐºÑĥÐ¿": 1383,
      "ĠÐ²Ð¸Ð·Ð½Ð°Ñĩ": 1384,
      "ĠÑģÑĥÑģÐ¿ÑĸÐ»ÑĮ": 1385,
      "ĠÑĸÑģÐ½ÑĥÑĶ": 1386,
      "ÑıÐ²Ð¸": 1387,
      "ĠÐºÑĥÐ»ÑĮ": 1388,
      "Ð³Ð°": 1389,
      "ĠÐ°ÑĦ": 1390,
      "Ð°Ð´Ð¸": 1391,
      "ĠÐ¿ÑĢÐ¾Ð³ÑĢÐ°Ð¼": 1392,
      "ĠÐ¼Ð¾Ð·ÐºÑĥ": 1393,
      "Ð¾ÑĤÐ¾Ð¶": 1394,
      "ÐºÐ°Ñħ": 1395,
      "ĠÑıÑĤ": 1396,
      "ĠÐ³ÑĢÑĥÐ¿": 1397,
      "ĠÐ±Ð»": 1398,
      "ĠÐ´Ð¾ÑģÑıÐ³": 1399,
      "ÑĨÑĸÑİ": 1400,
      "ĠÑĩÐ°": 1401,
      "ĠÐ¿Ð¾Ð´Ð¸Ð²": 1402,
      "ĠÐ±Ð»Ð¸Ð·ÑĮ": 1403,
      "ĠÑĥÐ²Ð°Ð³": 1404,
      "ÑĹÑħ": 1405,
      "ĠÐ¿ÑĢÐ°ÑĨÑİÑĶ": 1406,
      "ÐºÑĤÑĥ": 1407,
      "Ð¾Ð»Ñİ": 1408,
      "ĠÑĤÐ°ÐºÐ¸Ð¼": 1409,
      "ĠÑħÐ²Ð¾ÑĢ": 1410,
      "ÑĩÐ½Ð¸Ð¹": 1411,
      "ĠÑĢÐ¸": 1412,
      "ĠÐ´Ð¾ÑģÐ¸ÑĤÑĮ": 1413,
      "ĠÐ¿ÑĢÐ¾ÑĤÐ¸": 1414,
      "Ð°Ð»ÑĮÐ½Ð¸Ð¹": 1415,
      "ÐµÐ·Ð¿Ðµ": 1416,
      "ĠÐ·Ð½Ð°Ñİ": 1417,
      "Ð¼Ð°ÑĤÐ¸": 1418,
      "ĠÐ½ÑĸÑĩÐ¾Ð³Ð¾": 1419,
      "ĠÐºÐ¾": 1420,
      "ĠÐ²Ð¿Ð»Ð¸Ð²": 1421,
      "ĠÐ¼Ð°ÑĤÐµÑĢÑĸ": 1422,
      "ĠÐ·Ð±Ð¸ÑĢ": 1423,
      "Ð¶Ð¸Ð²": 1424,
      "ĠÐ·Ð°Ð¿Ð¸ÑĤ": 1425,
      "ÑĥÑĤÐ¸": 1426,
      "Ð´Ð°": 1427,
      "ĠÐ»ÐµÐ³": 1428,
      "ĠÐ´Ð¾Ð·Ð²Ð¾Ð»": 1429,
      "ÐºÑĢÐ°Ñī": 1430,
      "ĠÐ²Ð¾Ð´": 1431,
      "ĠÑģÑĤÐ°ÑĤÐ¸": 1432,
      "ĠÑĦÐ¾ÑĢ": 1433,
      "ĠÑģÐ°Ð¼Ð¾": 1434,
      "Ð¿ÐµÑĢÑĪÐµ": 1435,
      "ĠÐ´Ð¾ÑģÐ»ÑĸÐ´Ð¶ÐµÐ½Ð½Ñı": 1436,
      "ĠÐ´Ð°Ð»Ñĸ": 1437,
      "ĠÑĸÑģÑĤÐ¾ÑĢÑĸÑĹ": 1438,
      "Ð½ÐµÐ½Ð½Ñı": 1439,
      "Ð½ÑĮÐ¾Ð¼Ñĥ": 1440,
      "ĠÐ±Ð°Ð³": 1441,
      "ĠÐ½Ð°ÑĥÐº": 1442,
      "ĠÐ½Ð°Ð¿Ð¸Ñģ": 1443,
      "Ð°ÑĤÐºÑĥ": 1444,
      "Ð»Ð¸Ð·": 1445,
      "Ð¾Ð³Ð¾Ñİ": 1446,
      "ĠÐ·Ð¼Ð¾Ð³": 1447,
      "ĠÐºÑĢÐ°ÑĹÐ½": 1448,
      "ÑĢÐ°ÑĤÐ¸": 1449,
      "ÐµÑĢÐ¶": 1450,
      "Ð¸Ð´": 1451,
      "ÐµÑĨÑĮ": 1452,
      "ĠÐ·Ð´Ð¾ÑĢ": 1453,
      "Ð»Ð¸Ðº": 1454,
      "ÑĸÐ³": 1455,
      "ĠÑģÑĸÐ¼": 1456,
      "ĠÑģÐ²Ð¾Ð³Ð¾": 1457,
      "ĠÑģÑĤÐ¸": 1458,
      "Ð¿ÑĢÐ¸": 1459,
      "ÑĪÐº": 1460,
      "Ð»Ð¸Ñĩ": 1461,
      "ÑĢÐ¾Ð¿": 1462,
      "ĠÑĢÑĸÑĪ": 1463,
      "ĠÐ·Ð¼Ð¾Ð¶Ðµ": 1464,
      "Ġt": 1465,
      "ĠÑĨÑĸÐ¹": 1466,
      "ÐµÐ½Ð¾": 1467,
      "ÑĨÑİ": 1468,
      "ÐºÐ¸Ð¼": 1469,
      "ĠÑĤÐ°ÐºÐ¸Ñħ": 1470,
      "ĠÑģÐ¿ÑĸÐ»ÑĮ": 1471,
      "ÑģÑĮÐºÐ¾ÑĹ": 1472,
      "Ð´ÑıÐºÑĥÑİ": 1473,
      "ĠÐ¾Ð·Ð½Ð°ÑĩÐ°ÑĶ": 1474,
      "ĠÐ²Ð¾Ð½Ð¾": 1475,
      "ÐµÐ½ÑĤÑĸÐ²": 1476,
      "ĠÐ´ÑĸÐ·Ð½": 1477,
      "Ð¾Ð»Ñĸ": 1478,
      "ĠÐ¿Ð¾Ð±Ð°ÑĩÐ¸ÑĤÐ¸": 1479,
      "ÑĢÐ°Ð½": 1480,
      "ĠÐ¼Ð¾Ð´": 1481,
      "Ð¾Ð²Ð°Ð½Ñĸ": 1482,
      "Ð°ÑĤÐ¸Ð²": 1483,
      "ĠÑĩÐ¸Ð¼": 1484,
      "ĠÐ²ÑĸÐ´ÐµÐ¾": 1485,
      "ĠÐºÐ¸ÑĤ": 1486,
      "ÑĤÐµÐ¿ÐµÑĢ": 1487,
      "ÑıÐ³Ð¾Ð¼": 1488,
      "ÑĢÐ¾Ñģ": 1489,
      "ĠÐºÐµÑĢ": 1490,
      "Ð»Ð¸Ð½": 1491,
      "ĠÑĥÑģÐ¿": 1492,
      "Ð¾ÐºÑĥ": 1493,
      "ĠÐ·Ð°Ð¹Ð¼": 1494,
      "Ð»ÑĸÐ²": 1495,
      "ĠÑĸÐ½ÑĤÐµÑĢÐ½Ðµ": 1496,
      "ĠÐ½ÐµÐ¾Ð±": 1497,
      "Ð¸ÑĤÐ¸ÑģÑĮ": 1498,
      "Ð»Ð°ÑģÑı": 1499,
      "ĠÐµÐ»ÐµÐº": 1500,
      "ĠÐ¼Ð¾ÑĶ": 1501,
      "Ð¿Ð»": 1502,
      "ÐµÐ½Ð½Ñĸ": 1503,
      "ĠÐºÑĢÐ°ÑīÐµ": 1504,
      "ĠÑĤÐ°ÐºÐ¸Ð¹": 1505,
      "ĠÑĢÐ¾Ð·Ð¼Ñĸ": 1506,
      "ĠÐ´Ð¾Ð¿Ð¾Ð¼Ð¾Ð³Ð¾Ñİ": 1507,
      "ĠÐ¿ÑĢÐ¾Ð±Ð»ÐµÐ¼Ð¸": 1508,
      "ĠÑģÑĤÐ°Ð½": 1509,
      "ÑĥÑĶÑĤÐµ": 1510,
      "ĠÑĤÐµÐ»Ðµ": 1511,
      "ÐµÑĢÑĸÐ³": 1512,
      "ĠÐ¶ÑĸÐ½Ð¾Ðº": 1513,
      "ÐµÐ½ÑĤÐ¸": 1514,
      "Ð½Ð°Ðº": 1515,
      "ÐµÑĢÐ¸": 1516,
      "ĠÑĩÐµÑĢ": 1517,
      "Ð°Ð»ÑĮÐ½Ð¸Ñħ": 1518,
      "ĠÑģÐ²ÑĸÐ¹": 1519,
      "ĠÐ·Ð¾Ð²ÑģÑĸÐ¼": 1520,
      "ÐµÑģ": 1521,
      "ÐµÑģÑĤÐ¸": 1522,
      "ĠÐ¼Ð°Ñİ": 1523,
      "ĠÐ¿Ð°Ð¼": 1524,
      "ÑıÑĢ": 1525,
      "ÑıÑģ": 1526,
      "Ð¼Ð¾Ð¶": 1527,
      "ĠÐ´Ð²Ñĸ": 1528,
      "ĠÐ²Ð¸Ð²Ñĩ": 1529,
      "ĠÐ½Ð°Ð¹ÐºÑĢÐ°Ñī": 1530,
      "Ð»ÑıÑĶÑĤÑĮÑģÑı": 1531,
      "ÑĥÐ¶": 1532,
      "ĠÑģÐ¼ÐµÑĢ": 1533,
      "Ð¾Ð±Ð¸": 1534,
      "ÑģÑĮÐºÐ¸Ð¹": 1535,
      "ĠÐ´ÐµÑıÐºÑĸ": 1536,
      "ĠÐµÐ½ÐµÑĢ": 1537,
      "ĠÐ·Ð¼ÑĸÐ½Ð¸ÑĤÐ¸": 1538,
      "ĠÐ´Ð²Ð¾": 1539,
      "ĠÑĤÐ¸Ð¶": 1540,
      "ĠÑģÑĤÐ²Ð¾ÑĢÐ¸ÑĤÐ¸": 1541,
      "ĠÐ²ÑĸÐ´ÑģÐ¾ÑĤÐºÑĸÐ²": 1542,
      "ĠÐ½Ð°Ð³": 1543,
      "ĠÐ¼Ð°ÑĢ": 1544,
      "ĠÑģÐ¿ÑĢÐ¾Ð±": 1545,
      "ĠÑģÐ²Ð¾ÑĹÑħ": 1546,
      "ĠÐ²Ð¸Ð¹": 1547,
      "ÑĢÐµÑĪ": 1548,
      "ĠÐ½Ð°Ð¿ÑĢÐ¸ÐºÐ»Ð°Ð´": 1549,
      "ĠÑħÐ¾ÑĤÑĸÐ²": 1550,
      "ĠÐºÑĥÐ»ÑĮÑĤÑĥ": 1551,
      "ÑıÐ´": 1552,
      "ĠÑģÑĤÐ¾Ñģ": 1553,
      "ĠÐ´Ð½Ñı": 1554,
      "ĠÐ·Ð¾Ð±ÑĢÐ°Ð¶": 1555,
      "Ð»ÑıÑĤÐ¸": 1556,
      "ĠÑĦÑĸÐ»ÑĮ": 1557,
      "ĠÑĢÑĸÐ·Ð½Ð¸Ñħ": 1558,
      "ĠÐºÐ¾Ð¶ÐµÐ½": 1559,
      "ĠÐµÐºÑģÐ¿ÐµÑĢ": 1560,
      "Ð½ÐµÑģ": 1561,
      "ĠÑīÐ¾Ð´Ð¾": 1562,
      "ÑıÐ¼Ð¸": 1563,
      "Ð±Ð°Ñĩ": 1564,
      "ĠÐ½ÐµÑĹ": 1565,
      "ÑĩÐµÐ¹": 1566,
      "ĠÐµÐ½ÐµÑĢÐ³": 1567,
      "ĠÐºÐ¾Ð½ÑĤÑĢ": 1568,
      "ĠÐ¼ÑĸÑģÑĨÑı": 1569,
      "Ġ6": 1570,
      "ĠÐ²ÐµÑĢ": 1571,
      "ĠÐ¿ÑĢÐ¸Ð±": 1572,
      "ÑģÑĮÐºÑĸ": 1573,
      "Ð¾Ð²Ð¾ÑĢÐ¸": 1574,
      "ĠÑģÐ¿ÑĢÐ°Ð²Ð¶": 1575,
      "ÑĢÑĸÐ·": 1576,
      "ÑĢÐ¾ÑģÑĤ": 1577,
      "ÑĶÐ¼": 1578,
      "ÑĢÐµÑĤ": 1579,
      "ĠÐ´Ð¾Ð»Ð°ÑĢÑĸÐ²": 1580,
      "ÐºÐµ": 1581,
      "ĠÐºÐ¾ÑĤ": 1582,
      "Ð·Ð²Ð¸ÑĩÐ°Ð¹Ð½Ð¾": 1583,
      "ĠÑĤÑĢÐ°Ð¿": 1584,
      "sb": 1585,
      "ĠÐ½ÐµÐ¹Ð¼Ð¾Ð²ÑĸÑĢ": 1586,
      "ĠÐ²ÑĩÐ¸": 1587,
      "ĠÑĩÐ¾ÑĤÐ¸": 1588,
      "Ð°Ð¶Ñĥ": 1589,
      "ĠÐ¼ÑĸÐ³": 1590,
      "ĠÐ¾Ð´Ð½Ðµ": 1591,
      "ĠÐ¼Ð°Ð¹Ð¶Ðµ": 1592,
      "ÑģÑĤÐ°ÑĤ": 1593,
      "Ð¾Ð¼Ð°": 1594,
      "ĠÐ·Ð½Ð°ÑĶÐ¼Ð¾": 1595,
      "Ð¸ÐºÐ°Ð½": 1596,
      "ĠÐ½Ð¸": 1597,
      "ĠÐ¿ÑĸÐ´ÑĤÑĢÐ¸Ð¼": 1598,
      "ĠÐºÐ°Ð¼": 1599,
      "ĠÐ¾ÑģÐ²Ñĸ": 1600,
      "Ġ..": 1601,
      "Ġ200": 1602,
      "ĠÐ±Ð°Ð³Ð°ÑĤÑĮ": 1603,
      "Ð´ÐµÐ½": 1604,
      "ĠÐ¶Ð¾Ð´": 1605,
      "ĠÐ·Ð´Ð°ÑĤ": 1606,
      "ĠÐ¼Ð¾Ð¼ÐµÐ½ÑĤ": 1607,
      "ĠÑĢÐµÐ·ÑĥÐ»ÑĮÑĤÐ°ÑĤ": 1608,
      "ÑĥÐ²Ð°ÑĤÐ¸ÑģÑı": 1609,
      "Ð¿ÑĢÐ°Ð²": 1610,
      "ĠÑĢÐ¾Ð±Ð¾ÑĤÐ¸": 1611,
      "ĠÐ·ÑĢÐ¾Ð±Ð¸Ð»Ð¸": 1612,
      "ĠÐ½ÐµÐ¾Ð±ÑħÑĸÐ´": 1613,
      "ĠÐ·Ð¼Ñĥ": 1614,
      "ĠÐ²ÐµÐ»Ð¸Ñĩ": 1615,
      "Ð½ÑĮÐ¾": 1616,
      "ĠÐ·Ð½Ð°Ð¹ÑĤÐ¸": 1617,
      "ĠÐ²ÑģÑĮÐ¾Ð³Ð¾": 1618,
      "ÑĤÐ¸ÑĩÐ½Ð¾": 1619,
      "ÑĸÑĤÐ¸": 1620,
      "Ð½Ð°Ð¼": 1621,
      "Ð·Ð°": 1622,
      "ĠÑĥÑĢÑı": 1623,
      "ĠÑģÐ»ÑĥÑħ": 1624,
      "Ð²Ð¾Ð»Ñİ": 1625,
      "ĠÐ¿ÑĢÐ¾ÑĤÑıÐ³Ð¾Ð¼": 1626,
      "ÐµÐ¼Ð¾": 1627,
      "ĠÐ²Ðº": 1628,
      "ĠÐ¼Ð°Ð²": 1629,
      "ĠÑĦÑĸÐ·": 1630,
      "Ð¼ÐµÐ½Ñĸ": 1631,
      "ĠÐ·ÑĢÐ¾Ð·ÑĥÐ¼ÑĸÑĤÐ¸": 1632,
      "ĠÐ·Ð´Ð¾ÑĢÐ¾Ð²": 1633,
      "ĠÐ·Ð°Ð·": 1634,
      "ĠÐ½Ð°ÑĢÐ¾Ð´": 1635,
      "ĠÑģÑĤÑĥÐ´": 1636,
      "ĠÐ¾Ð´Ð½Ñĥ": 1637,
      "ĠÐ¼Ð¾Ð»Ð¾Ð´": 1638,
      "ĠÐ¿ÑĢÐ¾ÐµÐºÑĤ": 1639,
      "ÑĢÐµÑĪÑĤÑĸ": 1640,
      "ĠÑıÐºÐ¸Ð¼": 1641,
      "Ð½ÑıÑĤÐ¸": 1642,
      "ÑģÑĤÐ¾Ñģ": 1643,
      "ĠÑĪÐºÐ¾Ð»": 1644,
      "ÐºÑĸÐ»ÑĮÐºÐ°": 1645,
      "ĠÐ²Ð±": 1646,
      "Ð³Ð¾ÑĢ": 1647,
      "ĠÐ²ÑĸÐ´Ð´": 1648,
      "ĠÐ´Ð¾ÑģÑĤÑĥÐ¿": 1649,
      "ĠÐ¼Ð¾Ð²": 1650,
      "ĠÐ¼ÐµÑĢÐµ": 1651,
      "Ð°Ð»ÑĮÐ½Ð¾Ð³Ð¾": 1652,
      "ĠÑģÐ»ÑĸÐ´": 1653,
      "ĠÑıÐ²": 1654,
      "Ð¶Ñĥ": 1655,
      "ĠÑĸÐ½Ð´": 1656,
      "ĠÐºÑĸÐ»ÑĮÐºÑĸÑģÑĤÑĮ": 1657,
      "ĠÐ³Ð¾Ð»Ð¾Ñģ": 1658,
      "ĠÑģÐ¿Ð¾ÑģÑĤ": 1659,
      "ĠÑĩÐ°ÑģÑĤÐ¾": 1660,
      "ÑĩÐ½Ð¸Ñħ": 1661,
      "ĠÑĩÐ¾Ð»Ð¾Ð²Ñĸ": 1662,
      "ĠÐ½Ð°ÑĪÐ¾Ð³Ð¾": 1663,
      "ĠÑĢÐ¾Ð±Ð¾ÑĤÑĥ": 1664,
      "ÑĩÑı": 1665,
      "ÑĥÑİÑĤÑĮÑģÑı": 1666,
      "ĠÐ³Ð¾Ð»Ð¾Ð²": 1667,
      "ĠÐ¼Ð¾Ð³Ð¾": 1668,
      "ĠÐ´Ð°Ð½Ñĸ": 1669,
      "ĠÐ¿ÑĢÐ¾Ð¼": 1670,
      "Ð°ÑĤÑĥ": 1671,
      "ÑĢÐ¾Ð²": 1672,
      "ĠÑģÐ¸Ð¼": 1673,
      "ĠÑĢÐ¾Ð·Ð²Ð¸ÑĤ": 1674,
      "ĠÑģÐ¾Ð±": 1675,
      "ĠÐ¼Ð°Ð»Ð¸": 1676,
      "ĠÑĤÐ²Ð°ÑĢ": 1677,
      "ĠÐºÑĥ": 1678,
      "ĠÐºÐ»Ð°Ñģ": 1679,
      "ĠÐºÐ¾ÑĢÐ¸ÑģÑĤ": 1680,
      "ĠÐ¿ÑĢÐ¸Ñħ": 1681,
      "ÑĪÐ¸Ð¹": 1682,
      "ĠÐ¿Ð¾ÑıÑģ": 1683,
      "ĠÑĢÐ¾ÐºÐ¸": 1684,
      "ĠÐ´ÑĸÑĤÐ¸": 1685,
      "ĠÑħÑĤÐ¾ÑģÑĮ": 1686,
      "Ð´ÑĸÐ²": 1687,
      "ĠÑģÑĥÐ¿": 1688,
      "ĠÑĨÑĸÐ½": 1689,
      "ĠÐ²Ð¸ÑĤÑĢ": 1690,
      "ĠÐ»ÑİÐ´Ð¸Ð½Ð°": 1691,
      "Ð¾Ð½Ñĸ": 1692,
      "ÑĤÐ¸Ð½Ð¸": 1693,
      "ĠÐºÐ°Ð·": 1694,
      "ĠÐ¿ÑĢÐ¾Ð¿": 1695,
      "ĠÐ¿Ð¸": 1696,
      "ĠÐ¿ÑĢÐ¾ÑĤÐµ": 1697,
      "ĠÐ¿ÑĢÐ°ÑĨÑİÐ²": 1698,
      "ĠÐ¿ÑĢÐ°ÑĨÑİÐ²Ð°ÑĤÐ¸": 1699,
      "ĠÐ²ÐµÐ»Ð¸ÑĩÐµÐ·": 1700,
      "ĠÐ½Ð¾Ð²Ñĸ": 1701,
      "ĠÑĸÐ¼": 1702,
      "ÑĸÐ¹Ð½Ð¾": 1703,
      "ĠÐ·Ð°Ð²Ð´": 1704,
      "ĠÐ»ÑİÐ´Ñı": 1705,
      "ĠÑĢÐ¾Ð±Ð»ÑıÑĤÑĮ": 1706,
      "ĠÐ¶ÑĸÐ½ÐºÐ¸": 1707,
      "ÑĥÑĩÐ¸": 1708,
      "ĠÑĤÐ¾ÑĢ": 1709,
      "ĠÑıÑĤÑĮ": 1710,
      "ĠÐ³ÐµÐ½": 1711,
      "ĠÐ¿ÑĢÐ¸ÑĩÐ¸": 1712,
      "ĠÐµÑĦÐµÐº": 1713,
      "Ð°Ð»Ð°ÑģÑı": 1714,
      "ĠÑģÑĤÑĢÑĥ": 1715,
      "ĠÐ²Ð¸ÐºÐ¾ÑĢÐ¸ÑģÑĤÐ¾Ð²Ñĥ": 1716,
      "ĠÐ±ÑĸÐ»ÑĮÑĪÑĸÑģÑĤÑĮ": 1717,
      "ÐµÑĢÐ¶Ð°Ð²": 1718,
      "Ð°Ð½ÑĸÑĪÐµ": 1719,
      "ĠÐ·Ð°Ð½": 1720,
      "ĠÑĢÐ¾Ð·Ð¿Ð¾Ð²ÑĸÐ´": 1721,
      "ÑĪÐ¸ÑĢ": 1722,
      "ĠÑĸÑģÑĤÐ¾ÑĢÑĸÑİ": 1723,
      "ĠÐ²ÑĤÑĢ": 1724,
      "ĠÐ³Ð¾Ð²Ð¾ÑĢÐ¸": 1725,
      "Ð»Ð¾ÑģÑĮ": 1726,
      "Ð»ÑİÑĩ": 1727,
      "ĠÑĥÑģÑĸÑħ": 1728,
      "ĠÑĢÐ¾Ð·Ð¿Ð¾Ð²Ñĸ": 1729,
      "ĠÑĢÐ¾Ð·ÑĢÐ¾Ð±": 1730,
      "ĠÐ´ÑĥÐ¼ÐºÑĥ": 1731,
      "ĠÐ»ÑĸÐºÐ°ÑĢ": 1732,
      "Ð¾Ð»ÑĸÑĤ": 1733,
      "Ð½ÑĥÐ»Ð¸": 1734,
      "Ð½ÐµÐ¼Ð¾": 1735,
      "ĠÑĢÐ¾ÑĨÑĸ": 1736,
      "ĠÐ¿ÑĢÐ¸ÑĢÐ¾Ð´": 1737,
      "ĠÐ¿Ð¾ÐºÐ¸": 1738,
      "ĠÑĤÑĢÐ¸Ð²": 1739,
      "Ð¸Ñĩ": 1740,
      "ĠÐ¹Ð¾Ð¼Ñĥ": 1741,
      "ĠÐ¿Ð¾Ð´Ð¾Ð±": 1742,
      "ĠÐºÐ¾Ð¶Ð½Ð¾Ð³Ð¾": 1743,
      "ĠÐ¿ÑĢÐ¾ÑĨÐµÑģ": 1744,
      "ĠÐ¾Ñħ": 1745,
      "ĠÐ²Ð¸ÑıÐ²": 1746,
      "ĠÐ¿Ð¾ÑĩÐ°Ð»Ð¸": 1747,
      "Ð°ÑĤÐµ": 1748,
      "ÑĨÐ¸": 1749,
      "ÑĢÐ°ÑĤ": 1750,
      "ÑİÐ´Ð¸": 1751,
      "ĠÐ²Ð¸ÑĢÐ¾Ð±": 1752,
      "ĠÑĶÐ´Ð¸": 1753,
      "ĠÑĥÑģÐ²ÑĸÐ´Ð¾Ð¼": 1754,
      "ĠÐ°ÑĦÑĢÐ¸": 1755,
      "ĠÑģÑĪÐ°": 1756,
      "ĠÑģÐ¸ÑĤÑĥ": 1757,
      "ÑĩÐ¾Ð¼Ñĥ": 1758,
      "Ð°ÑĩÐµ": 1759,
      "ĠÐ»ÑİÐ´Ð¸Ð½Ð¸": 1760,
      "Ð¾Ð¶Ð¸Ð²": 1761,
      "ĠÐ¿Ð¾ÑĤÑĢÐµÐ±": 1762,
      "ĠÐ¾ÑģÐ¾Ð±Ð¸": 1763,
      "ĠÑĢÑĸÑĪÐµÐ½Ð½Ñı": 1764,
      "ĠÐ´ÐµÑĢÐµ": 1765,
      "ĠÑıÐºÐ¾Ð³Ð¾": 1766,
      "ĠÐ²ÑĸÐ´Ð¾Ð¼": 1767,
      "Ġ%": 1768,
      "ĠÑĤÐ²Ð¾ÑĢ": 1769,
      "ĠÑĢÑĸÐº": 1770,
      "Ð·Ð°ÑĢÐ°Ð·": 1771,
      "ĠÐ³Ð¾ÑĤ": 1772,
      "ĠÐ¿Ð¾Ñģ": 1773,
      "ĠÑĤÐµÑħÐ½Ð¾Ð»Ð¾Ð³ÑĸÑĹ": 1774,
      "Ġs": 1775,
      "ÑĮÐ¼Ð¸": 1776,
      "ĠÐ¼Ð¾ÑĢ": 1777,
      "Ð½Ð¸ÑĨÑĤ": 1778,
      "ÑĸÐ»Ð¾": 1779,
      "ĠÑĦÑĥÐ½": 1780,
      "ĠÐ´ÐµÑģÑı": 1781,
      "ĠÐ²Ð°Ð¶Ð»Ð¸Ð²": 1782,
      "ĠÐ±Ð»Ð¸Ð·ÑĮÐºÐ¾": 1783,
      "ĠÑĢÐµÑĩÐµÐ¹": 1784,
      "ĠÑģÐµÐº": 1785,
      "Ð¾Ð»Ð¾Ð³ÑĸÑĩ": 1786,
      "ĠÐ¿ÑĢÐ¾Ð´Ð¾Ð²Ð¶": 1787,
      "ĠÑĤÐ¸ÑģÑıÑĩ": 1788,
      "ĠÐ´Ð²Ð¾Ñħ": 1789,
      "ĠÐºÑĢÐ°ÑĹÐ½Ð¸": 1790,
      "ÑĢÐ¾Ð¼": 1791,
      "ĠÐ²ÑĸÐ·": 1792,
      "ĠÐ²ÑĥÐ»Ð¸": 1793,
      "Ð±ÑĥÐ´": 1794,
      "ĠÑıÐºÐ¾Ð¼Ñĥ": 1795,
      "ĠÐ´ÑĢÑĥÐ³": 1796,
      "ĠÐ·ÑĢÐ¾Ð·ÑĥÐ¼": 1797,
      "Ð¾Ð´Ð¸ÑĤÐ¸": 1798,
      "ĠÐ·Ð°Ð»": 1799,
      "Ð¸Ð¼Ð¾ÑģÑĮ": 1800,
      "ĠÑģÐ¿ÑĢÐ¸Ð¹": 1801,
      "ÐµÑĢÐµÐ´Ð¸Ð½Ñĸ": 1802,
      "ĠÑĨÐ¸ÑĦ": 1803,
      "Ð¾Ð±ÑĤÐ¾": 1804,
      "ĠÑıÐºÐ¸Ð¼Ð¸": 1805,
      "Ð°Ð½Ð½Ñĸ": 1806,
      "ĠÐ³Ð»Ð¸": 1807,
      "ĠÐ°Ð¼ÐµÑĢÐ¸ÐºÐ°Ð½": 1808,
      "ÑģÐ°Ð¼": 1809,
      "Ð»ÑĸÐ´": 1810,
      "ĠÐ¼Ð¸ÑģÑĤÐµ": 1811,
      "ĠÐ¼Ð¾Ð¶Ð»Ð¸Ð²ÑĸÑģÑĤÑĮ": 1812,
      "ĠÐ¶Ð¸ÑĤÑĤÑĸ": 1813,
      "ĠÐ¿ÑĢÐ¾Ð±Ð»ÐµÐ¼Ð°": 1814,
      "Ð·Ð°Ð¹": 1815,
      "ĠÑĩÐ¾ÑĢ": 1816,
      "ĠÑĪÑĤÐ°ÑĤ": 1817,
      "ĠÐ¾ÑģÐ½Ð¾Ð²": 1818,
      "ĠÐ±ÐµÐ·Ð¿Ðµ": 1819,
      "ĠÐ½Ð°Ð±Ð°Ð³Ð°ÑĤÐ¾": 1820,
      "ĠÑĦÐ¾ÑĤÐ¾": 1821,
      "ÑħÐ¾Ð´Ð¸ÑĤÑĮ": 1822,
      "ĠÐ½Ð°ÑģÑĤ": 1823,
      "ĠÐ³Ðµ": 1824,
      "ĠÐ¿ÑĢÐ¸Ð³": 1825,
      "ĠÐ¼Ð¾Ð·Ð¾Ðº": 1826,
      "ĠÐºÑĢÑĸ": 1827,
      "Ð±Ñĥ": 1828,
      "ĠÐ¼ÑĸÐ»ÑĮÑıÑĢ": 1829,
      "Ġ...": 1830,
      "ĠÒĳ": 1831,
      "ĠÐ½ÐµÐ±": 1832,
      "ĠÐ²Ð°Ð¶Ð»Ð¸Ð²Ð¾": 1833,
      "ĠÐºÐ¾ÑĢÐ¸": 1834,
      "ĠÐ¼ÑĸÐ»ÑĮÐ¹Ð¾Ð½ÑĸÐ²": 1835,
      "Ð¼ÑĥÑĤÑĮ": 1836,
      "ĠÐ´Ð¾Ð¼": 1837,
      "ĠÐ´Ð¾Ñģ": 1838,
      "ÑģÐ¸Ñħ": 1839,
      "ĠÑĢÐ°Ð½ÑĸÑĪÐµ": 1840,
      "Ð°ÑĶÑĪ": 1841,
      "Ð½Ð°Ð´": 1842,
      "Ð°ÑİÑģÑı": 1843,
      "ĠÐ·Ð°ÑħÐ¾Ð¿": 1844,
      "ĠÐ»ÑİÐ´ÑĮÐ¼Ð¸": 1845,
      "ĠÐ²Ð¸ÑģÐ¾Ðº": 1846,
      "ĠÐ·ÑĥÑģÑĤÑĢÑĸ": 1847,
      "ed": 1848,
      "ĠÐ¼ÐµÐ´Ð¸": 1849,
      "ĠÐ¿Ð¾Ð³Ð»Ñı": 1850,
      "ÐµÐ·Ð¿ÐµÑĩ": 1851,
      "Ð°ÑĹ": 1852,
      "ĠÑıÐºÐ±Ð¸": 1853,
      "ĠÐ·Ð°ÑħÐ¸": 1854,
      "Ġ9": 1855,
      "ĠÑģÑĤÑĢ": 1856,
      "ĠÐ²ÑĸÐ´ÑĩÑĥÐ²": 1857,
      "ĠÐ´ÐµÑĢÐ¶Ð°Ð²": 1858,
      "Ð¾Ð²Ð¾ÑĹ": 1859,
      "ĠÐ±ÑĸÐ·": 1860,
      "ĠÐ´ÐµÑīÐ¾": 1861,
      "ĠÑĢÐ¾Ð±Ð¸ÑĤÑĮ": 1862,
      "ĠÑĸÐ´ÐµÑı": 1863,
      "ĠÑĪÐ²Ð¸Ð´ÐºÐ¾": 1864,
      "ĠÑħÐ°ÑĢ": 1865,
      "ĠÐµÐ¼Ð¾": 1866,
      "Ð´ÑıÐºÐ¸": 1867,
      "ĠÐ½Ð¸Ð¼Ð¸": 1868,
      "ĠÐ´Ð²": 1869,
      "ÑĥÑİÑĩÐ¸": 1870,
      "ĠÐ²ÑĸÐ´Ð½Ð¾": 1871,
      "ĠÐ¾Ð±Ð»Ð¸Ñĩ": 1872,
      "ĠÑģÐ»Ð¾Ð²Ð°": 1873,
      "ÑĮÑİ": 1874,
      "ĠÑģÑĥÑĤ": 1875,
      "Ġ7": 1876,
      "ĠÐ²ÑĸÐº": 1877,
      "ĠÐ¿ÑĸÑĪ": 1878,
      "ĠÐ²Ð¾Ð»": 1879,
      "Ð¾Ð²Ð¾Ð³Ð¾": 1880,
      "Ð½ÑĸÑĩ": 1881,
      "Ð°Ð·Ñĸ": 1882,
      "Ð½ÑĥÑİÑĤÑĮ": 1883,
      "Ġ8": 1884,
      "ĠÑĤÐµÐ¼": 1885,
      "ĠÑĢÐµÐ°Ð»ÑĮ": 1886,
      "Ġg": 1887,
      "ÑĤÑĢÐ¸": 1888,
      "ÑĤÐ¾Ð´Ñĸ": 1889,
      "Ð½Ð¸ÐºÐ°": 1890,
      "Ð»Ð¸ÑĤÐ¸": 1891,
      "ĠÐ³Ð»": 1892,
      "Ð»Ð°ÑģÑĤÐ¸": 1893,
      "ĠÐ²Ð·Ð°ÑĶÐ¼": 1894,
      "ĠÐ²ÑģÑĮÐ¾Ð¼Ñĥ": 1895,
      "ÑĦÐ¾ÑĢ": 1896,
      "Ð¼Ð¾Ðº": 1897,
      "ĠÐ·Ð²Ð¸ÑĩÐ°Ð¹Ð½Ð¾": 1898,
      "ĠÐ¼Ð¸ÑģÑĤÐµÑĨÑĤ": 1899,
      "ÑģÑĤÑĥ": 1900,
      "ĠÐ¶Ðµ": 1901,
      "ĠÐ¾ÑģÐºÑĸÐ»ÑĮÐºÐ¸": 1902,
      "ĠÑģÐ»Ð¾Ð²": 1903,
      "ĠÐ¿Ð¾Ð»ÑıÐ³": 1904,
      "ĠÑĢÑĸÐ·Ð½Ñĸ": 1905,
      "ÑĪÐµÐ½Ð½Ñı": 1906,
      "Ð³Ð»": 1907,
      "ĠÑģÐ¸ÑģÑĤÐµÐ¼Ð¸": 1908,
      "ĠÐºÐ½Ð¸Ð¶": 1909,
      "ĠÐ¿ÑģÐ¸Ñħ": 1910,
      "ĠÐ±ÑĥÐ´Ð¸Ð½": 1911,
      "ĠÐ¿Ð»Ð°Ð½Ðµ": 1912,
      "Ð»Ð¸Ð·Ð½Ð¾": 1913,
      "ĠÐµÐºÑģÐ¿ÐµÑĢÐ¸Ð¼": 1914,
      "ĠÐ»ÑİÐ´ÑıÐ¼": 1915,
      "ĠÐ·ÑĢÐ¾ÑģÑĤ": 1916,
      "ĠÑĩÐ¸ÑĤ": 1917,
      "Ð°Ð»ÑĮÐ½Ð¾ÑĹ": 1918,
      "ĠÐ²ÑģÐµÑģ": 1919,
      "ĠÐ±Ð°ÑĩÐ¸Ð¼Ð¾": 1920,
      "ĠÑĸÐ½ÑĦÐ¾ÑĢÐ¼Ð°ÑĨÑĸÑĹ": 1921,
      "ĠÐ´Ð¸Ð·Ð°Ð¹": 1922,
      "ÑĨÐµÐ¹": 1923,
      "Ð»ÑİÑĶ": 1924,
      "Ġ15": 1925,
      "Ð°Ð»Ð¾ÑģÑĮ": 1926,
      "ĠÐ²Ð°Ð¼Ð¸": 1927,
      "Ð¿Ð¾ÑĤ": 1928,
      "ÑģÑĤÐ²": 1929,
      "ĠÐºÑĸÐ¼": 1930,
      "ĠÑĶÐº": 1931,
      "ĠÐ´Ð¾ÑģÐ»ÑĸÐ´Ð¶": 1932,
      "ĠÑĶÐ²": 1933,
      "ĠÐ¹Ð´Ðµ": 1934,
      "ĠÐ¿Ð¾Ð´ÑĸÐ±": 1935,
      "ÐµÑĢÐ°": 1936,
      "ÑĸÐ½Ñĩ": 1937,
      "ÑģÑĤÐµÐ¹": 1938,
      "ÑģÑĤÐ°Ð½Ð¾Ð²": 1939,
      "ÑıÐ²Ñĸ": 1940,
      "ĠÐ¼Ð¾Ñİ": 1941,
      "ĠÑīÐ°Ñģ": 1942,
      "Ð¾Ð´Ð¶": 1943,
      "Ð½Ð°Ð¿": 1944,
      "ÑıÐ½": 1945,
      "ĠÐ²Ð¸ÑıÐ²Ð¸": 1946,
      "Ð°ÑĶÐ¼Ð¾ÑģÑı": 1947,
      "ÑģÐ¾Ð½": 1948,
      "Ð´Ð°Ð²": 1949,
      "ĠÐ´ÐµÐºÑĸÐ»ÑĮÐºÐ°": 1950,
      "ĠÑģÐ¸Ð»ÑĮ": 1951,
      "ĠÐ·ÑĥÐ¿": 1952,
      "ĠÐ·ÑĢÐ¾Ð±Ð¸Ð²": 1953,
      "ĠÐ±Ð°Ð³Ð°ÑĤÑĮÐ¾Ñħ": 1954,
      "ĠÑĢÐ°Ðº": 1955,
      "ÑĸÐ»Ñĸ": 1956,
      "Ð½ÑĸÐ²ÐµÑĢ": 1957,
      "ÐµÐ´ÑĸÐ½": 1958,
      "ĠÐ¼ÑĸÑģÑĤÐ°": 1959,
      "ĠÑĤÐ°ÐºÐ¾Ð³Ð¾": 1960,
      "ĠÑĪÐº": 1961,
      "ĠÐºÐ¾Ð³Ð¾": 1962,
      "Ð°ÐºÐ¸": 1963,
      "ÐºÐ¸Ð¼Ð¸": 1964,
      "ĠÑģÑĤÐ¾ÑĢ": 1965,
      "ÐµÐ½ÑĤÑĢ": 1966,
      "ĠÑĥÐ½ÑĸÐ²ÐµÑĢ": 1967,
      "ĠÑĸÑģÑĤÐ¾ÑĢÑĸÑı": 1968,
      "Ġ50": 1969,
      "ÑĢÐ¸Ð²": 1970,
      "Ð´Ð»Ñı": 1971,
      "Ð¼Ð¾Ñİ": 1972,
      "ĠÐ¿ÑĢÐ¾Ð±Ð»ÐµÐ¼": 1973,
      "ĠÐ¿ÑĢÐ¾Ð´ÑĥÐº": 1974,
      "ĠÐµÐºÐ¾Ð½Ð¾Ð¼Ñĸ": 1975,
      "ĠÐµÐ»ÐµÐºÑĤÑĢ": 1976,
      "ĠÑģÐµÐ½": 1977,
      "Ð½Ð¸ÑĨÑĸ": 1978,
      "ĠÐ¾Ð´Ð½Ñĸ": 1979,
      "ĠÐ½Ð°ÑĪÐµ": 1980,
      "ĠÑģÐ°Ð¼Ñĸ": 1981,
      "ÑģÐ¿ÑĢÐ°Ð²Ð´Ñĸ": 1982,
      "ĠÑħÐ¾ÑĩÐµÐ¼Ð¾": 1983,
      "ĠÐ½ÑĮÑİ": 1984,
      "ĠÐ¾Ñĩ": 1985,
      "ĠÑģÑĤÐ²Ð¾ÑĢÐ¸": 1986,
      "Ð°Ð»ÑĮÐ½Ñĥ": 1987,
      "ĠÐ¿Ð¾Ð²ÐµÐ´ÑĸÐ½": 1988,
      "Ð·Ð¼": 1989,
      "ĠÐ½Ð°ÑĪÐ¾ÑĹ": 1990,
      "ĠÑĸÐ½ÑĪÐ¾Ð³Ð¾": 1991,
      "ĠÐºÑĸÐ»ÑĮÐºÐ¾": 1992,
      "ĠÐ¿Ð¾Ð»ÑĸÑĤÐ¸": 1993,
      "ĠÐ°Ð´Ð¶Ðµ": 1994,
      "ĠÑĤÐ¾Ð¶": 1995,
      "Ð»ÑıÑİÑĤÑĮ": 1996,
      "ĠÐ·Ð°ÑģÑĤÐ¾Ñģ": 1997,
      "ÑĤÑĥÑĤ": 1998,
      "ÑİÐ²Ð°Ð½Ð½Ñı": 1999,
      "ĠÐ±ÑĥÐ´ÑĥÑĤÑĮ": 2000,
      "ÑģÑĤÑĸÐ²": 2001,
      "ĠÑĦÐ¾ÑĤÐ¾Ð³ÑĢÐ°ÑĦ": 2002,
      "ĠÐ³ÑĢÐ¾ÑĪÑĸ": 2003,
      "ÐºÐ¾Ð³Ð¾": 2004,
      "ÐµÑĢÑĸÐ²": 2005,
      "ÑĪÐ»Ð°": 2006,
      "ĠÐ¼ÑĥÐ·Ð¸ÐºÐ°": 2007,
      "ĠÐ°Ð¼ÐµÑĢÐ¸": 2008,
      "ĠÐ¿ÑĢÐµÐ´ÑģÑĤÐ°Ð²": 2009,
      "ÐµÑĢÑĥ": 2010,
      "Ð°ÐºÑĤÐµÑĢ": 2011,
      "ĠÐ¼Ð¸Ð½Ñĥ": 2012,
      "ĠÑģÐ¿Ð¾Ñģ": 2013,
      "ÑĢÐµÑģ": 2014,
      "ÑĢÑĸÐ²": 2015,
      "ÑĢÐ°Ð¿": 2016,
      "ĠÐ±ÑĸÐ´": 2017,
      "ĠÐ²Ð¸ÑģÑĤÑĥÐ¿": 2018,
      "ĠÐ»ÑĸÐ´": 2019,
      "Ð°Ð»ÑĮÐ½Ð°": 2020,
      "ÑİÑĶÑĤÑĮÑģÑı": 2021,
      "ĠÐ¿Ð¾ÐºÐ°Ð·Ð°ÑĤÐ¸": 2022,
      "ĠÐ²ÑĸÐ´ÐºÑĢÐ¸ÑĤ": 2023,
      "Ð¿Ð¸": 2024,
      "ĠÐ½ÐµÐ²": 2025,
      "Ð°ÑĨÑĸÑĶÐ½": 2026,
      "ĠÐ½Ð°ÑģÑĤÑĸÐ»ÑĮÐºÐ¸": 2027,
      "le": 2028,
      "ÑĮÐ¾Ñħ": 2029,
      "ĠÐ±Ð°Ð¶": 2030,
      "ÑģÑĮÐºÐ°": 2031,
      "ĠÑħÐ¾ÑĢÐ¾": 2032,
      "ĠÑĶÐ´Ð½": 2033,
      "ĠÐ±ÑĥÐ´ÑĸÐ²": 2034,
      "ĠÐ²Ð¸ÐºÐ¾ÑĢÐ¸ÑģÑĤÐ¾Ð²ÑĥÐ²Ð°ÑĤÐ¸": 2035,
      "ĠÐ·Ð½Ð°ÑħÐ¾Ð´": 2036,
      "ĠÑĩÐ¾ÑĤÐ¸ÑĢÐ¸": 2037,
      "ĠÑģÐ¿Ð¾ÑģÑĤÐµÑĢÑĸÐ³": 2038,
      "ĠÑıÐ²Ð¸": 2039,
      "Ð¾ÑĢÐ¾Ð¶": 2040,
      "ÑģÐ¸Ð»": 2041,
      "ĠÐ´Ð¾Ð¿Ð¾Ð¼Ð°Ð³": 2042,
      "ĠÐ²Ð¸Ð³Ð»ÑıÐ´Ð°ÑĶ": 2043,
      "ĠÑģÑĦ": 2044,
      "ĠÑģÑĥÐ¼": 2045,
      "ĠÐºÑĢÐ¸": 2046,
      "Ð¾Ð»Ñĥ": 2047,
      "ÑĢÑĸÑĩ": 2048,
      "ĠÐ¿ÑĢÐ¸Ð±Ð»Ð¸Ð·Ð½Ð¾": 2049,
      "ÑĨÑĸÐ½": 2050,
      "ĠÑĸÐ½ÑģÑĤÑĢÑĥ": 2051,
      "ĠÑħÐ¾ÑĩÐ°": 2052,
      "ĠÐ¾ÑĤÑĢÐ¸Ð¼Ð°ÑĤÐ¸": 2053,
      "ĠÑģÑħÐ¾Ð¶": 2054,
      "ĠÐ¾ÑģÐ¾Ð±Ð»Ð¸Ð²Ð¾": 2055,
      "Ð¾Ð²Ð¸Ð¶": 2056,
      "Ġ30": 2057,
      "ĠÐ¿ÑĢÐ¾ÑģÑĤÑĸ": 2058,
      "ĠÐ¼ÐµÐ½ÑĪÐµ": 2059,
      "ĠÐ·Ð°Ð²Ð´ÑıÐºÐ¸": 2060,
      "Ð±Ñĸ": 2061,
      "Ð°ÑĩÑĸ": 2062,
      "ÑģÐ¸ÑĤÐµ": 2063,
      "ĠÐ¼Ð½Ð¾Ñİ": 2064,
      "ĠÑĢÐ¾Ñģ": 2065,
      "Ð°ÐºÑĤÐ¸": 2066,
      "Ð°Ð±Ð¾ÑĢ": 2067,
      "ĠÑģÑĥÑĩÐ°Ñģ": 2068,
      "ĠÐ²Ð²Ð°Ð¶Ð°Ñİ": 2069,
      "ĠÐ²Ð¸Ð¿Ð°Ð´ÐºÑĥ": 2070,
      "ÑĤÐ°ÑĤÐ¸": 2071,
      "ĠÐ´ÑĸÑı": 2072,
      "ÑĶÑĤÐµ": 2073,
      "ĠÑĪÑĥÐº": 2074,
      "ĠÐ³Ð¾Ð²Ð¾ÑĢÐ¸ÑĤÐ¸": 2075,
      "ĠÐ´Ð¾ÑģÐ²ÑĸÐ´": 2076,
      "ĠÐºÐ°Ð½": 2077,
      "Ð½ÑıÑĤÑĤÑı": 2078,
      "ĠÑĹÑħÐ½Ñĸ": 2079,
      "ĠÑĩÑĥÐ´Ð¾Ð²Ð¾": 2080,
      "ĠÑĢÐ¸Ð½": 2081,
      "ĠÑĥÑģÐµ": 2082,
      "ĠÐ¿ÐµÑĢÐµÑĤÐ²Ð¾ÑĢ": 2083,
      "ÑĢÐ°Ñģ": 2084,
      "Ð¶ÐµÐ½": 2085,
      "Ð°Ð»Ð¸ÑģÑĮ": 2086,
      "Ð°Ð±ÑĥÑĤÑĮ": 2087,
      "ĠÑģÐµÑĢÐµÐ´Ð¾Ð²Ð¸": 2088,
      "ĠÐ´Ð°Ð½Ð¸Ñħ": 2089,
      "ĠÐ¾Ð±Ð»Ð¸ÑĩÑĩÑı": 2090,
      "Ð¾Ð½Ð°": 2091,
      "ÑĸÑħ": 2092,
      "ĠÐ²ÑĢÐ°Ð¶": 2093,
      "ĠÐ½Ñĥ": 2094,
      "Ð¾ÐºÐ¸": 2095,
      "Ð»ÐµÐ½Ñĸ": 2096,
      "Ð²ÑĸÑģÐ½Ð¾": 2097,
      "ĠÐ²Ð¸ÐºÐ»Ð¸Ðº": 2098,
      "ĠÑĸÐ½ÑĦÐ¾ÑĢÐ¼Ð°ÑĨÑĸÑİ": 2099,
      "ĠÐ°ÐºÑĤÐ¸Ð²": 2100,
      "ÑĸÑĶÑİ": 2101,
      "ĠÐ¿Ð°ÑĨÑĸÑĶÐ½": 2102,
      "ĠÐ¿ÑĢÐ¸Ð¼": 2103,
      "ĠÑĢÐµÑĩ": 2104,
      "ĠÐ¿Ð¾ÑĩÐ°Ð²": 2105,
      "Ð¾Ð²Ð°Ð½Ð¸Ð¹": 2106,
      "ĠÐ²ÑĸÐ´ÑĩÑĥÑĤÑĤÑı": 2107,
      "Ð°ÑĢÐ¸": 2108,
      "ĠÐ³Ð°Ð´": 2109,
      "ĠÑģÐ¿Ð¾Ð´ÑĸÐ²": 2110,
      "Ð°Ð½Ð½ÑıÐ¼": 2111,
      "ĠÐ¿Ð¾Ð²Ð½ÑĸÑģÑĤÑİ": 2112,
      "ĠÐ½ÑĸÑħÑĤÐ¾": 2113,
      "Ð¾Ð´Ð¸ÑĤÑĮÑģÑı": 2114,
      "Ġ000": 2115,
      "Ð½Ð¸Ð·": 2116,
      "Ð»Ð°ÑģÑĮ": 2117,
      "ĠÑħÐ¾ÑĤÑĸÐ»Ð¸": 2118,
      "ÐºÐ¾Ð»Ð¾": 2119,
      "ĠÐºÐ¸ÑĤÐ°Ð¹": 2120,
      "ĠÐ·Ð°Ð»ÐµÐ¶": 2121,
      "ÑĸÐ´Ð¾Ð¼": 2122,
      "ĠÐ·Ð°Ð¿Ð¸ÑĤÐ°Ð½Ð½Ñı": 2123,
      "ĠÐ¿ÑĢÐ°Ð²Ð¸Ð»ÑĮ": 2124,
      "ĠÐ¼Ð°Ð³": 2125,
      "ĠÑģÐ¿ÑĸÐ»": 2126,
      "ĠÑħÑĸ": 2127,
      "ĠÐ¾Ð´Ð½Ð¸Ð¼": 2128,
      "Ð¿ÑĸÐ´": 2129,
      "ÑĤÐµÐº": 2130,
      "ĠÐ³Ð¾ÑĢ": 2131,
      "ĠÐ²ÑĩÐ¸ÑĤÐµ": 2132,
      "Ð»Ð¸ÑģÑĮ": 2133,
      "ĠÑĤÐ°ÐºÐ°": 2134,
      "ÑīÑĸ": 2135,
      "ĠÑĢÐ¾Ð·Ð³": 2136,
      "Ð¼ÐµÐ½ÑĤÐ¸": 2137,
      "ÑĩÐ°ÑĤ": 2138,
      "ÑģÑĤÐ°": 2139,
      "ĠÐ½Ð°ÑģÐµ": 2140,
      "ĠÐ¼Ð¾ÑĹÑħ": 2141,
      "ĠÑĥÐ²Ð°Ð³Ñĥ": 2142,
      "ĠÐ¿Ð¾Ð»ÑıÐ³Ð°ÑĶ": 2143,
      "ĠÐ¼Ð°Ð¼": 2144,
      "ÑģÑĤÐµÑĢ": 2145,
      "ĠÑģÑĤÐ°Ð½Ðµ": 2146,
      "ĠÑģÐºÐ°Ð·Ð°Ð»Ð°": 2147,
      "Ð°ÑģÑĤÑı": 2148,
      "ÑģÑĤÐ°ÑĤÐ½ÑĮÐ¾": 2149,
      "Ð±ÑĥÐ´ÑĮ": 2150,
      "ĠÐ³Ð»Ð¸Ð±": 2151,
      "Ð¿Ð°ÑĢ": 2152,
      "ĠÐ¾Ð¿ÐµÑĢ": 2153,
      "ÑıÐ²ÑĸÑĤÑĮ": 2154,
      "er": 2155,
      "ĠÐ¿ÑĢÑı": 2156,
      "Ð°ÑĤÐ¸Ð¼Ðµ": 2157,
      "ĠÑģÑĤÐ°ÑĶ": 2158,
      "ĠÑģÑĤÑĢÐ°Ñħ": 2159,
      "ĠÐ¿Ð¾ÑģÐ»": 2160,
      "ĠÐ½ÑĸÐ±Ð¸": 2161,
      "ÑĥÐ³": 2162,
      "ĠÐ´Ð¾ÑģÑĸ": 2163,
      "ĠÑĦÐ¾ÑĢÐ¼": 2164,
      "Ð»ÑĸÑĤ": 2165,
      "ĠÑĥÐ²Ð°Ð·Ñĸ": 2166,
      "Ð¿ÑĢÐ¾ÑĤÐµ": 2167,
      "Ð¾Ð½Ñĥ": 2168,
      "ÑĤÐ¾Ð²": 2169,
      "ÑĢÑĥÐ³": 2170,
      "ĠÐ½Ð°ÑĪÐ°": 2171,
      "ÑģÑĤÐ¸ÑĤÐ¸": 2172,
      "ĠÐ´Ð°ÑĶ": 2173,
      "ÑĩÐ¸Ñħ": 2174,
      "ĠÐ±Ð°ÑĩÐ¸ÑĤÐ¸": 2175,
      "ĠÑģÐ¸ÑģÑĤÐµÐ¼Ñĥ": 2176,
      "ĠÐ°Ð²ÑĤÐ¾Ð¼": 2177,
      "ĠÑĸÐ³": 2178,
      "ĠÑĤÐµÐ¾ÑĢ": 2179,
      "ĠÑĦÑĸÐ½": 2180,
      "ĠÐ¿ÐµÑĢÐµÐºÐ¾Ð½": 2181,
      "ĠÑĢÐ¾Ð±Ð¸Ð¼Ð¾": 2182,
      "ĠÐ½Ð°Ð²ÐºÐ¾Ð»Ð¾": 2183,
      "ĠÐ¿Ð¾Ð»ÑĸÑĤÐ¸Ñĩ": 2184,
      "Ð½Ð°ÑģÐ¿ÑĢÐ°Ð²Ð´Ñĸ": 2185,
      "ĠÐ²Ð¿ÐµÐ²": 2186,
      "ĠÐ²Ð°Ð¶ÐºÐ¾": 2187,
      "ĠÐºÐ¾Ð¼Ð¿Ð°Ð½ÑĸÑĹ": 2188,
      "ĠÐ²Ð°ÑĢÑĤÐ¾": 2189,
      "ĠÑģÐºÑĸÐ»ÑĮÐºÐ¸": 2190,
      "ĠÑĢÐ°Ð·Ñĥ": 2191,
      "ĠÐ·ÑĸÐ±": 2192,
      "ĠÑĸÐ´ÐµÑĹ": 2193,
      "ĠÐ³Ð»Ð¾Ð±": 2194,
      "ĠÐ¿Ð¸ÑĤ": 2195,
      "ÑĪÐ¸Ð¼": 2196,
      "ĠÑĢÐ¾Ð·Ð¼": 2197,
      "ĠÐ¿ÐµÑĢÐµÐ²": 2198,
      "ÑİÑĶÐ¼Ð¾": 2199,
      "Ð°ÑĨÑĸÐ¾Ð½": 2200,
      "ĠÐ°ÑĢÑħ": 2201,
      "ĠÑģÐ¾ÑĤ": 2202,
      "ĠÐ±Ð¾ÑĢ": 2203,
      "ĠÐ½Ð°ÑĢ": 2204,
      "ÑĸÐ½ÑĮ": 2205,
      "ĠÐ¿Ð¾ÑĤÑĢÐ°Ð¿": 2206,
      "ĠÑĸÐ½ÑĪÐ¸Ð¹": 2207,
      "ÑĤÑĶ": 2208,
      "ĠÑģÐ¿ÑĢÐ¸": 2209,
      "ÑĦÑĸ": 2210,
      "ĠÑģÐ»Ð¾Ð²Ð¾": 2211,
      "ĠÐ·Ð°Ð±ÐµÐ·Ð¿ÐµÑĩ": 2212,
      "ĠÐºÐ°Ð¶Ðµ": 2213,
      "Ð½Ð°Ð²": 2214,
      "ÐµÐ¼Ñĸ": 2215,
      "ĠÐ²Ñĩ": 2216,
      "Ð¾Ð±ÑĸÐ»ÑĮ": 2217,
      "ĠÐ½ÐµÐ²Ðµ": 2218,
      "ĠÐ°Ð»ÑĮ": 2219,
      "ÑĶÐ´Ð½": 2220,
      "ĠÐ¶Ð°Ñħ": 2221,
      "ĠÐ½Ð°Ð·Ð²": 2222,
      "ĠÐ·Ð¾Ð±ÑĢÐ°Ð¶ÐµÐ½Ð½Ñı": 2223,
      "ĠÑģÐ¾Ð±Ð¾Ñİ": 2224,
      "ĠÐ¿ÑĢÐ¾ÑĦ": 2225,
      "ĠÐ·ÐµÐ¼Ð»Ñĸ": 2226,
      "ĠÑĤÐ²Ð°ÑĢÐ¸Ð½": 2227,
      "ĠÐ½Ð¸Ð¼": 2228,
      "ĠÑīÐ°ÑģÑĤÑı": 2229,
      "ÑĶÑĤÑĮÑģÑı": 2230,
      "ĠÐ¿ÑĢÐ¸ÑģÑĤÑĢ": 2231,
      "ÑĢÐµÑĪÑĤ": 2232,
      "Ð´ÑĥÐ¶Ðµ": 2233,
      "ÑĤÐ°ÐºÐ¸Ð¼": 2234,
      "Ð»Ð°Ð¼": 2235,
      "ĠÐ¶Ð¸ÑĤÐ¸": 2236,
      "ĠÐ½Ð°ÑģÐºÑĸÐ»ÑĮÐºÐ¸": 2237,
      "ĠÐ½Ð°ÑģÐ»ÑĸÐ´": 2238,
      "ĠÑĤÑĢÐµ": 2239,
      "ĠÑģÑĤÐ¾": 2240,
      "ĠÐ¾ÑģÐ½": 2241,
      "ĠÐºÐ¾Ð½ÑĦ": 2242,
      "ĠÑĢÐ°Ð·ÑĸÐ²": 2243,
      "ĠÐ·Ð½Ð°ÑĩÐµÐ½Ð½Ñı": 2244,
      "ĠÐ´Ð¾Ð¿Ð¾Ð¼Ð¾Ð³ÑĤÐ¸": 2245,
      "ĠÑĤÐµÐ»ÐµÑĦ": 2246,
      "ĠÑģÑĤÑĢÑĥÐºÑĤÑĥ": 2247,
      "ĠÐ½Ð°Ñĥ": 2248,
      "ĠÐ¿Ð¾Ð²ÑĸÐ´Ð¾Ð¼": 2249,
      "ĠÐ°Ð±Ñģ": 2250,
      "ĠÐ¼Ð¾ÑĶÑĹ": 2251,
      "ĠÐ°Ð½Ð³Ð»": 2252,
      "Ð¾Ð²ÑĸÐ´": 2253,
      "Ð³Ð¾Ð»": 2254,
      "ĠÑģÑĤÐ°Ð»Ð¸": 2255,
      "ĠÐ²Ð»Ð°ÑģÐ½Ðµ": 2256,
      "ĠÐºÐ»ÑĸÑĤÐ¸Ð½Ð¸": 2257,
      "Ġted": 2258,
      "ÑĢÐ°Ð¼Ð¸": 2259,
      "ĠÑĢÑĥÐº": 2260,
      "Ð²Ð¾Ñİ": 2261,
      "ĠÑģÐºÐ°Ð¶": 2262,
      "ÑĥÑĢÐ½": 2263,
      "ĠÐ½Ð°Ð·Ð¸Ð²Ð°ÑĶÑĤÑĮÑģÑı": 2264,
      "ĠÐ´ÑĸÐ²ÑĩÐ°ÑĤ": 2265,
      "Ð´ÑĥÐ¼": 2266,
      "Ð¹ÑĤÐµ": 2267,
      "Ð¾Ð´Ð¾Ð¼": 2268,
      "ĠÐ³Ð¾Ð´Ð¸Ð½": 2269,
      "ĠÐ¿ÑĢÐ¸Ñģ": 2270,
      "Ġ100": 2271,
      "ĠÐ¿Ð¾ÑĩÐ°ÑĤÐºÑĥ": 2272,
      "ĠÐ¿ÐµÑĢÑĪÐ¸Ð¹": 2273,
      "ÐºÐ¾Ð²Ð¾": 2274,
      "ĠÐ·Ð»Ð¾": 2275,
      "ÐµÐ½Ðµ": 2276,
      "ĠÐ³Ð°Ð·": 2277,
      "ĠÑĤÐ°ÐºÐ¸": 2278,
      "ĠÐ·Ð´Ð°ÑĶÑĤÑĮÑģÑı": 2279,
      "ĠÐ´ÑĢÑĥÐ·": 2280,
      "ĠÑĢÐ¾Ð±Ð¾ÑĤÐ°": 2281,
      "ĠÐ·Ð¼Ð¾Ð³Ñĥ": 2282,
      "Ð°Ð±Ð¾ÑĢÐ°ÑĤÐ¾ÑĢ": 2283,
      "ĠÑıÐºÐ¾Ñİ": 2284,
      "ĠÑıÐºÐ¾ÑĹ": 2285,
      "ÑģÑĸÑĹ": 2286,
      "Ð°Ð»ÑĮÐ½Ðµ": 2287,
      "Ð»ÑİÐ±": 2288,
      "ĠÐ¼Ð¾Ð¶Ð»Ð¸Ð²Ð¾ÑģÑĤÑĸ": 2289,
      "Ð¾Ð½Ð¸": 2290,
      "Ð»ÑĸÐ½": 2291,
      "ĠÐ¿ÑĢÐ¾Ð¹": 2292,
      "ĠÐ¾ÑĩÑĸ": 2293,
      "ĠÐ²Ð¸Ð¼": 2294,
      "Ð°ÑİÑģÑĮ": 2295,
      "ĠÑģÐ¸ÑģÑĤÐµÐ¼Ð°": 2296,
      "ĠÐ½Ð¾Ð²Ð¸Ð¹": 2297,
      "ĠÑĢÑĸÐ²ÐµÐ½ÑĮ": 2298,
      "ĠÑĢÐ¸Ð·Ð¸": 2299,
      "ĠÐ½Ð°Ð¼Ð¸": 2300,
      "Ð½Ð¸ÑĨÑı": 2301,
      "ÑģÑĮÐ¾Ð³Ð¾Ð´Ð½Ñĸ": 2302,
      "Ð»ÑİÐ´Ð¸": 2303,
      "ĠÑĶÐ²ÑĢÐ¾Ð¿": 2304,
      "Ð¾Ð³Ð°": 2305,
      "ÑģÑĮÐºÑĥ": 2306,
      "Ð²ÑĸÑĢ": 2307,
      "ĠÐ¾ÑĤÐ¶Ðµ": 2308,
      "ĠÐ¾ÑģÑĤÐ°Ð½Ð½Ñĸ": 2309,
      "ĠÑĢÐ¾Ð·Ð¿Ð¾Ð²ÑĸÑģÑĤÐ¸": 2310,
      "ĠÐ½Ð°ÑģÐµÐ»ÐµÐ½Ð½Ñı": 2311,
      "on": 2312,
      "Ð½Ð°ÑĪ": 2313,
      "ÑıÑħ": 2314,
      "Ð·Ðµ": 2315,
      "ÑĢÑĥÑĩ": 2316,
      "ĠÐ´ÐµÑı": 2317,
      "ĠÐ´Ð¸Ð²Ð¾Ð²Ð¸Ð¶": 2318,
      "Ð°ÑİÑĩÐ¸ÑģÑĮ": 2319,
      "ĠÑĢÐ¾Ð·Ð²Ð¸Ð²": 2320,
      "Ġc": 2321,
      "ÐµÐ½ÑĤÑĥ": 2322,
      "ĠÐ¼ÐµÐ½ÑĪ": 2323,
      "in": 2324,
      "ĠÐ¿Ð¸Ñģ": 2325,
      "ĠÐ¿ÑĢÐ¸Ð½": 2326,
      "ÑĥÐ²Ð°ÑĤÐ¸ÑģÑĮ": 2327,
      "ĠÐ·Ð²ÑĸÐ´": 2328,
      "ĠÐ¿Ð¾Ð»Ð¾Ð²Ð¸": 2329,
      "ĠÐ½Ð°Ð·Ð°Ð´": 2330,
      "ĠÐ´Ð¾Ð²Ðµ": 2331,
      "ÑĢÐ°Ð·Ñĥ": 2332,
      "ĠÐ²Ð·ÑıÑĤÐ¸": 2333,
      "ĠÐ²ÑĸÐ´Ð¿Ð¾Ð²ÑĸÐ´ÑĮ": 2334,
      "ĠÐ¿Ð¾Ð´Ð¾Ð±Ð°ÑĶÑĤÑĮÑģÑı": 2335,
      "ÑĸÐ½Ð¾": 2336,
      "ÑĥÐ»Ñı": 2337,
      "ÑıÑĤÑĮÑģÑı": 2338,
      "ĠÐ´Ð°ÑĤÐ¸": 2339,
      "Ð¿Ð¾Ð´": 2340,
      "Ð½ÑĸÑĹ": 2341,
      "ĠÐ¿ÑĢÐ¸Ð·": 2342,
      "ĠÐ·Ð°ÑħÐ²Ð¾ÑĢ": 2343,
      "ĠÐ·Ð¼Ð¾Ð¶ÐµÐ¼Ð¾": 2344,
      "ÑĮÑĤÐµ": 2345,
      "ĠÑĢÐ°Ð½": 2346,
      "ĠÑıÐºÑĸÐ¹": 2347,
      "ĠÐ»Ð°Ð±Ð¾ÑĢÐ°ÑĤÐ¾ÑĢ": 2348,
      "Ð¾Ð·Ð¸": 2349,
      "ĠÐ²ÑĸÐ´Ð¼ÑĸÐ½": 2350,
      "ĠÐ³Ð¾Ð´Ð¸": 2351,
      "ĠÑģÑĤÐ°Ð»Ð°": 2352,
      "ĠÑģÑĤÐ¾Ð»ÑĸÑĤ": 2353,
      "Ð¾ÑģÐµÑĢÐµÐ´": 2354,
      "ĠÐ¾Ð´Ð½Ð°Ðº": 2355,
      "ĠÑģÐ²Ð¾ÑĹÐ¼": 2356,
      "ĠÑĤÑĥÐ´Ð¸": 2357,
      "ĠÐ°Ð±ÑģÐ¾Ð»Ñİ": 2358,
      "ĠÑĤÐ¾Ð²": 2359,
      "ĠÐºÐ¾Ñģ": 2360,
      "ĠÐ´ÐµÐ¼Ð¾Ðº": 2361,
      "ĠÐ¿Ð»Ð°Ð½": 2362,
      "ĠÑĸÑģÐ½": 2363,
      "Ð¼Ð¾Ð¶Ð»Ð¸Ð²Ð¾": 2364,
      "ĠÑĥÑĢÑıÐ´": 2365,
      "ÐºÐ¾Ð¶": 2366,
      "ĠÐ²Ð»Ð°Ð´": 2367,
      "Ð¼ÐµÐ½ÑĤ": 2368,
      "ĠÐ²Ð¸Ð¼Ñĸ": 2369,
      "ĠÐ²Ð¸Ð½Ð¸Ðº": 2370,
      "ĠÐ³ÑĢÐ¸": 2371,
      "Ð°Ð³Ð°Ð»Ñĸ": 2372,
      "ĠÐ¿Ð¾Ð´Ð¾ÑĢÐ¾Ð¶": 2373,
      "ĠÐ²Ð¸ÐºÐ¾Ð½": 2374,
      "Ð½Ð¸ÐºÐ¾Ð¼": 2375,
      "ĠÐºÑĢÐ°Ñģ": 2376,
      "Ð¾ÑĢÐ¾Ð½Ð¸": 2377,
      "ĠÑħÐ²Ð¸Ð»Ð¸Ð½": 2378,
      "ĠÐ¼ÑĸÑģÑıÑĨÑĸÐ²": 2379,
      "ĠÐ¿Ð¾ÑģÑĤÑĸÐ¹Ð½Ð¾": 2380,
      "ĠÑĥÐ½ÑĸÐ²ÐµÑĢÑģÐ¸ÑĤÐµ": 2381,
      "ĠÐ°Ð±ÑģÐ¾Ð»ÑİÑĤ": 2382,
      "Ð¸Ð½Ñĥ": 2383,
      "ĠÐ¼Ð°Ð±ÑĥÑĤÑĮ": 2384,
      "ĠÑĤÐ°Ð½": 2385,
      "ĠÑĢÑĸÐ´": 2386,
      "Ð¾Ð³Ð¸": 2387,
      "Ð¾ÑĢÑĤ": 2388,
      "oo": 2389,
      "ĠÑģÐ¼": 2390,
      "Ð¹Ð¾Ð·": 2391,
      "Ð·Ð´": 2392,
      "ĠÑģÐ¿Ðµ": 2393,
      "ĠÐ¿Ð¾ÑģÑĤÐ°Ð²": 2394,
      "ÐµÐ½Ð½ÑıÐ¼": 2395,
      "ĠÐ·Ð°Ð¿Ð¸Ñģ": 2396,
      "ĠÐµÐºÐ¾Ð½Ð¾Ð¼ÑĸÑĩ": 2397,
      "ĠÐ¼Ð°Ð¹Ð±ÑĥÑĤÐ½ÑĶ": 2398,
      "ÐµÑĤÐ¸": 2399,
      "ĠÐ²Ð°Ð³": 2400,
      "ĠÐ±ÑĥÐ´Ñĥ": 2401,
      "ÑĢÑĸÐ¼": 2402,
      "ĠÐ·Ð²ÑĥÐº": 2403,
      "ÑĤÐ°Ð¼": 2404,
      "ĠÐ¼ÑĢÑĸ": 2405,
      "Ð½Ð¾ÑĩÐ°Ñģ": 2406,
      "ĠÑĸÐ½ÑĪÐµ": 2407,
      "ĠÐ½Ð°Ð²ÑĩÐ°Ð½Ð½Ñı": 2408,
      "ÑĤÐ°Ñħ": 2409,
      "ÐºÐ¾ÑĹ": 2410,
      "ĠÐ·Ð½Ð¸Ðº": 2411,
      "ÑħÐ½Ñĸ": 2412,
      "ĠÑĥÑĩÐ°": 2413,
      "ĠÑĩÐ¸Ñģ": 2414,
      "ĠÐ¼ÑĥÑģ": 2415,
      "ÑĸÑģÑĤ": 2416,
      "Ð½Ð°Ñĩ": 2417,
      "ĠÑĩÐµÐº": 2418,
      "ĠÑĸÐ½ÑĤÐµÑĢÐ½ÐµÑĤ": 2419,
      "ĠÑĦÑĸÐ·Ð¸": 2420,
      "ÑģÐ°": 2421,
      "ĠÐ·Ð±ÑĸÐ»ÑĮÑĪ": 2422,
      "ĠÐ¼Ð°Ð»Ñİ": 2423,
      "ĠÐºÑĢÐ°ÑĹÐ½Ñĸ": 2424,
      "ĠÐ·Ð³Ð°Ð´": 2425,
      "Ð¸Ð½Ð°": 2426,
      "ĠÐ¿ÑĢÐµÐº": 2427,
      "Ð°Ð´Ñĥ": 2428,
      "ÐºÑĥÐ½": 2429,
      "ĠÑĢÐ¾Ð·Ð¼Ð¾Ð²": 2430,
      "ÑĩÐµÐ½Ð¸Ñħ": 2431,
      "ĠÐ·Ð°Ð´Ð¾Ð²": 2432,
      "ĠÑĥÑģÐ¿ÑĸÑħ": 2433,
      "ĠÐ¿ÑĢÐµÐºÑĢÐ°Ñģ": 2434,
      "Ð»Ð¾Ð³Ð¾": 2435,
      "ĠÐ³Ð°Ð»": 2436,
      "ĠÐºÑĢÐ°ÑĹÐ½Ð°Ñħ": 2437,
      "ÑĥÑģÐº": 2438,
      "ĠÐ½Ð°ÑĩÐµ": 2439,
      "ÑĩÐ¸Ð¼": 2440,
      "ĠÑĤÐµÐ¶": 2441,
      "ĠÐ¼ÐµÑħ": 2442,
      "ĠÐ½Ð°ÑĪÑĥ": 2443,
      "ĠÐ¾Ð±Ð¼Ðµ": 2444,
      "ÑİÐ²Ð°Ð»Ð¸": 2445,
      "ĠÑĢÐ¾Ð·Ð²Ð¸ÑĤÐºÑĥ": 2446,
      "ĠÑĦÑĸÐ½Ð°Ð½Ñģ": 2447,
      "ÐºÐ°Ð½": 2448,
      "Ð¾Ð²Ðµ": 2449,
      "ĠÑģÐºÐ°Ð·Ð°Ð»Ð¸": 2450,
      "ĠÐ½Ð°Ð´Ð·Ð²Ð¸ÑĩÐ°Ð¹Ð½Ð¾": 2451,
      "ĠÑıÐ·Ð¾Ðº": 2452,
      "ÑģÐ°Ð¼Ðµ": 2453,
      "Ġa": 2454,
      "ÑĩÐ½Ð¾Ð³Ð¾": 2455,
      "ĠÐ¶ÑĥÑĢÐ½": 2456,
      "ĠÑĹÐ¹": 2457,
      "ÑĪÐµÐ¹": 2458,
      "ĠÑĸÐ½ÑĤÐµ": 2459,
      "ĠÐ¿ÐµÑĢÐµÐ³": 2460,
      "ĠÐ±Ð°ÑĩÐ¸Ð»Ð¸": 2461,
      "Ð½ÑĮÐ¾ÑĹ": 2462,
      "ĠÑĥÑıÐ²Ð¸ÑĤÐ¸": 2463,
      "ÑĢÐ¸Ð¼": 2464,
      "ĠÐ²Ð¾Ð´Ð¸": 2465,
      "ĠÐ±Ð°Ð·": 2466,
      "Ð¾ÑĢÐ°": 2467,
      "ĠÐ²Ð¸Ð½": 2468,
      "ĠÑĤÐµÐ±Ðµ": 2469,
      "Ġ12": 2470,
      "ĠÐ·Ð²ÐµÑĢ": 2471,
      "ĠÑħÐ¾ÑĩÑĥÑĤÑĮ": 2472,
      "ÑĪÑĤÐ°Ð±": 2473,
      "Ð°Ð»ÑĸÐ²": 2474,
      "ĠÑĨÐµÐ½ÑĤÑĢ": 2475,
      "ĠÑĢÐ¾Ð·Ðº": 2476,
      "Ð°Ð»ÑĮÐ½Ð¸Ð¼": 2477,
      "ĠÑĢÐµÐ²Ð¾Ð»Ñİ": 2478,
      "ĠÐ´ÑĥÐ¼Ð°ÑĤÐ¸": 2479,
      "ĠÑĤÑĢÐ¸Ð¼": 2480,
      "ĠÐ·Ð´ÑĸÐ¹": 2481,
      "ĠÐºÐ¾Ð»ÑĮ": 2482,
      "ĠÑģÐ¿ÑĸÐ²Ð¿ÑĢ": 2483,
      "ĠÐµÑĦÐµÐºÑĤÐ¸Ð²": 2484,
      "ĠÑģÑĤÐ²Ð¾ÑĢÐ¸Ð»Ð¸": 2485,
      "Ð¸Ð»Ð¾": 2486,
      "Ð²ÑģÑı": 2487,
      "ĠÐ²Ð¿ÐµÑĢÑĪÐµ": 2488,
      "ĠÐ¼Ð°ÑĶÑĤÐµ": 2489,
      "Ð»Ð¸Ð²Ð°": 2490,
      "ÑĨÐµÐ¼": 2491,
      "Ð±ÑĸÐ»ÑĮÑĪÐµ": 2492,
      "ĠÑĦÑĸÐ»ÑĮÐ¼": 2493,
      "ĠÑģÑĤÐ¾ÑĢÑĸÐ½": 2494,
      "Ġm": 2495,
      "ĠÐ·Ð²Ð¸ÑĩÐ°Ð¹": 2496,
      "Ð¾ÑĤÑĥ": 2497,
      "Ð°Ð½ÑĸÑĤ": 2498,
      "ÑģÐ¿ÐµÐº": 2499,
      "Ð½Ð°Ð¿ÑĢÐ¸ÐºÐ»Ð°Ð´": 2500,
      "ÐºÐ°Ð¼": 2501,
      "Ð¼Ð°Ð½": 2502,
      "ĠÐ·ÑĢÐ°Ð·": 2503,
      "ÑĩÐ¸Ð¹": 2504,
      "ĠÑĸÑģÑĤ": 2505,
      "ĠÑħÐ²Ð¾ÑĢÐ¾Ð±": 2506,
      "ĠÐ¼ÐµÑħÐ°Ð½Ñĸ": 2507,
      "Ð²ÑģÐµ": 2508,
      "ĠÐ½Ð¾ÑĢÐ¼": 2509,
      "ĠÐ·Ðµ": 2510,
      "ĠÐ±Ð°Ð³Ð°ÑĤ": 2511,
      "ĠÑĪÐºÐ¾Ð»Ð¸": 2512,
      "ĠÐ²ÑĸÑĢÑĥ": 2513,
      "ĠÑģÐµÑĢÐ¹Ð¾Ð·": 2514,
      "ĠÐ·Ð¾ÑĢÑĥ": 2515,
      "Ð¹Ð¾ÑĢ": 2516,
      "ĠÐ±Ð°ÑĢ": 2517,
      "ĠÐ¿ÑĢÐ¾ÑģÑĤÐ¾ÑĢ": 2518,
      "ĠÑĤÐ°ÐºÑĥ": 2519,
      "ĠÐ¿ÐµÑĢÐµÐ¹": 2520,
      "Ð°Ð»Ð°ÑģÑĮ": 2521,
      "Ð»ÑĸÐ³": 2522,
      "ĠÐ¿ÑĢÐ°ÑĨÑĸÐ²": 2523,
      "ĠÐ´Ð¾Ð²Ð³": 2524,
      "ĠÐ·Ð°Ð²Ð´Ð°Ð½Ð½Ñı": 2525,
      "ĠÐ·Ð½Ð¸": 2526,
      "ĠÑģÑĸ": 2527,
      "Ð¾Ð´ÑıÑĤÑĮ": 2528,
      "Ð¾ÐºÐ¾": 2529,
      "Ð¸Ð²ÑĪÐ¸": 2530,
      "ÑģÑĮÐºÐ¾Ð¼Ñĥ": 2531,
      "ÑĨÑıÐ¼Ð¸": 2532,
      "ÑĪÑĤÐ¾Ð²": 2533,
      "ĠÑĢÐ¾Ð·Ð¿Ð¾Ñĩ": 2534,
      "ĠÐ²ÑģÑĤÐ°Ð½Ð¾Ð²": 2535,
      "ÐµÑĢÐ²": 2536,
      "ĠÐ¿ÑĢÐ°Ð³": 2537,
      "ĠÐ¿ÐµÑĢÐµÐ±": 2538,
      "Ð½Ð¸ÐºÐ°Ð¼Ð¸": 2539,
      "ĠÑģÐ¿ÑĢÐ°Ð²Ð°": 2540,
      "ĠÑħÐ¾ÑĩÐµÑĤÐµ": 2541,
      "ĠÐ²ÑģÐµÑĢÐµÐ´Ð¸Ð½Ñĸ": 2542,
      "ÑħÐ¾Ð²": 2543,
      "ĠÑĥÑĢ": 2544,
      "ÑīÐµÐ½Ð½Ñı": 2545,
      "ĠÐ½Ð°ÑĪÐ¾Ð¼Ñĥ": 2546,
      "Ð°ÑĶÐ¼Ð¾ÑģÑĮ": 2547,
      "ĠÑģÐ²Ð¾ÑĶÑĹ": 2548,
      "ĠÐ²ÐµÐ»Ð¸ÐºÐ¸Ð¹": 2549,
      "ĠÐ´ÑĢÑĥÐ¶": 2550,
      "ĠÐ²Ð¸Ð±ÑĸÑĢ": 2551,
      "ĠÑģÑĥÐ´": 2552,
      "ÐµÐ½Ð´": 2553,
      "ĠÐ¿ÑĢÐ¾ÑģÑĤÐ¸": 2554,
      "ĠÐ´Ð¾ÑģÑĤÐ°ÑĤÐ½ÑĮÐ¾": 2555,
      "ĠÐ¿Ð¾ÑĪÐ¸ÑĢ": 2556,
      "ĠÐ¿Ð¾Ð½Ð°Ð´": 2557,
      "ĠÑĩÐ°ÑģÐ¾Ð¼": 2558,
      "ÑĩÐµÐ½Ñĸ": 2559,
      "ĠÐ¿Ð¾ÑĢÑĸÐ²": 2560,
      "ĠÐ·Ð°ÐºÑĸÐ½Ñĩ": 2561,
      "ĠÑħÐ¾ÑĤÑĸÐ»Ð°": 2562,
      "Ð´Ð¸Ð²": 2563,
      "ĠÑģÐ¿Ð¾Ð»Ñĥ": 2564,
      "ĠÐ·Ð°Ð²ÐµÑĢ": 2565,
      "Ð°ÑĢÐ°Ð·Ð´": 2566,
      "ĠÐºÑĸÐ¼Ð½Ð°": 2567,
      "ÑĸÐ¶": 2568,
      "ĠÐ½Ð°Ð»ÐµÐ¶": 2569,
      "ĠÐ¼Ð°Ð»Ð°": 2570,
      "Ð¾Ð²Ð¸Ð¼": 2571,
      "Ð¾Ð»Ð¾Ð´": 2572,
      "ĠÐ°Ð»": 2573,
      "Ð°ÑĩÑĸÐ²": 2574,
      "ĠÑĪÑĤÑĥ": 2575,
      "Ð»Ð¸Ð²Ð¸Ð¼": 2576,
      "ÑĤÑĥÐ²Ð°ÑĤÐ¸": 2577,
      "Ð°Ð²Ð°ÑĤÐ¸": 2578,
      "ĠÐ½ÐµÐ´": 2579,
      "ĠÐ²ÑĸÐ´Ð¿Ð¾Ð²": 2580,
      "ĠÐ³Ñĸ": 2581,
      "ĠÐ¼Ð¾Ð³Ð»Ð°": 2582,
      "ĠÐ·Ð½Ð°ÑĩÐ½Ð¾": 2583,
      "ĠÑģÐ¿ÑĸÐ»ÑĮÐ½Ð¾": 2584,
      "ĠÐ°ÑĢÑħÑĸ": 2585,
      "ĠÐ²ÑĸÐ»ÑĮ": 2586,
      "ĠÐºÐ°Ð¿": 2587,
      "Ð¾Ð´Ð°Ð²": 2588,
      "Ð¾ÑĤÐ¾Ð²": 2589,
      "ÑĤÑĢÑĸÐ²": 2590,
      "ĠÑĩÐ°ÑģÑĤÐ¸Ð½Ð°": 2591,
      "ĠÐ¼Ð¾Ð´Ðµ": 2592,
      "ĠÑģÐ¿ÑĸÐ»Ðº": 2593,
      "ĠÐ´Ð¸Ñģ": 2594,
      "ĠÐºÐ¾Ð¼Ñĥ": 2595,
      "ĠÐ°Ð½Ñĸ": 2596,
      "Ð¾Ð´Ð¸Ð»Ð¸": 2597,
      "Ġ18": 2598,
      "ĠÐ¿Ð¾ÐºÐ¾Ð»": 2599,
      "ĠÐ±ÐµÑĢÐµ": 2600,
      "Ð»ÐµÐ½Ð¸Ð¹": 2601,
      "ĠÑĦÐ¾ÑĢÐ¼Ñĥ": 2602,
      "Ð¾ÑĤÐµ": 2603,
      "ÐºÑĸÐ½": 2604,
      "ĠÐ¿Ðµ": 2605,
      "ĠÐ¼Ð°Ðº": 2606,
      "ĠÐºÑĥÑĢ": 2607,
      "ĠÐ²ÑĸÐ´ÑĢÑĸÐ·": 2608,
      "ĠÑģÑĤÑĢÐ°Ð¶": 2609,
      "ĠÐ¿ÑĢÐ¾Ð±Ð»ÐµÐ¼Ñĥ": 2610,
      "ĠÑĨÑĸÐºÐ°Ð²Ð¾": 2611,
      "ĠÑĩÐ¾Ð»Ð¾Ð²ÑĸÐºÑĸÐ²": 2612,
      "ĠÐ¼Ð°ÑģÑĪÑĤÐ°Ð±": 2613,
      "Ġf": 2614,
      "ÑĤÐ¾ÑĢÐ¸": 2615,
      "ÑİÑİ": 2616,
      "ĠÐ±Ð¾ÐºÑĥ": 2617,
      "ĠÐºÐ²": 2618,
      "Ð¼Ð¾Ð½": 2619,
      "Ð½ÐµÐ±ÑĥÐ´ÑĮ": 2620,
      "ÑģÑĮÐºÐ¾Ñİ": 2621,
      "ĠÐ¶ÑĸÐ½ÐºÐ°": 2622,
      "Ġ40": 2623,
      "ĠÐºÑĥÐ´Ð¸": 2624,
      "lsb": 2625,
      "rsb": 2626,
      "ÑĤÐ¸ÑģÑı": 2627,
      "ÑĩÐ½Ð°": 2628,
      "ĠÑĢÐ°Ð¹": 2629,
      "ĠÑīÐ¾ÑĢ": 2630,
      "ĠÑģÐ¸Ð½": 2631,
      "ĠÐ²ÐµÑģÑĮ": 2632,
      "ĠÐ·Ð´ÑĸÐ¹Ñģ": 2633,
      "Ð»Ð¸Ð¹": 2634,
      "Ð¾Ð·Ñĸ": 2635,
      "ĠÑģÑĤÐ°ÑĤ": 2636,
      "ĠÐ´ÐµÑĤ": 2637,
      "ĠÑĸÐ½ÑĪÐ¸Ð¼Ð¸": 2638,
      "ĠÑģÑĤÐ²Ð¾ÑĢÐµÐ½Ð½Ñı": 2639,
      "ĠÐºÐ°ÑĢÑĤÐ¸": 2640,
      "Ð¸ÑĤÑĮÑģÑı": 2641,
      "ÑģÑĸÐ²": 2642,
      "ĠÐ·ÑĸÑĢ": 2643,
      "ĠÑģÐ°Ð¹": 2644,
      "ĠÐ´Ð°Ð»Ðµ": 2645,
      "ĠÐ¿ÑĢÐ¾Ðº": 2646,
      "ĠÑĢÐ¾": 2647,
      "ÑīÐ°": 2648,
      "ÑģÐ¿ÑĢÐ°Ð²": 2649,
      "ĠÑĤÑĢÑĮÐ¾Ñħ": 2650,
      "ĠÐ³ÑĢÐ¾ÑĪÐµÐ¹": 2651,
      "ĠÐ±ÑĸÐ·Ð½ÐµÑģ": 2652,
      "ĠÐ·Ð½Ð°ÑĤÐ¸": 2653,
      "ĠÐ¿Ð¾Ð²Ñĸ": 2654,
      "ĠÐ·Ð¼ÐµÐ½": 2655,
      "ĠÐ²ÑĸÐ¹Ð½Ð¸": 2656,
      "ĠÐ´Ð¾Ð·Ð²Ð¾Ð»Ñı": 2657,
      "ĠÐ·Ð½Ð°Ð»Ð¸": 2658,
      "ĠÐ²ÐµÐ»Ð¸ÐºÐ°": 2659,
      "ĠÐ¿ÑĢÐ¾Ð²Ðµ": 2660,
      "ĠÐ·Ð°Ð¼ÑĸÑģÑĤÑĮ": 2661,
      "ĠÐºÐ¾ÑĪ": 2662,
      "ĠÐµÐ½ÐµÑĢÐ³ÑĸÑĹ": 2663,
      "Ð¾ÐºÑĢÐµ": 2664,
      "ĠÐ´ÐµÑģÑĮ": 2665,
      "ĠÐ¿Ð¾Ð±ÑĥÐ´": 2666,
      "ĠÑģÐ¿ÑĸÐ²Ñĩ": 2667,
      "ĠÑĢÐ¾Ð·ÑĥÐ¼ÑĸÐ½Ð½Ñı": 2668,
      "ÐµÑĢÑĤÐ²": 2669,
      "Ð½Ðº": 2670,
      "Ð¿Ð¾ÑĢ": 2671,
      "ĠÐ±Ð°Ð½": 2672,
      "ĠÑĨÐµÐ½ÑĤ": 2673,
      "ĠÐ½ÐµÑİ": 2674,
      "Ð½Ð°ÑĢÐ¾Ð´": 2675,
      "ĠÐ¿ÐµÑĢÐµÐ´Ð±Ð°Ñĩ": 2676,
      "ĠÐ¿Ð¾Ð²ÐµÑĢÑĤ": 2677,
      "ĠÐ°Ð½Ð³Ð»ÑĸÐ¹": 2678,
      "ĠÐ½Ð°Ðº": 2679,
      "ĠÐ³Ð°Ð»Ñĥ": 2680,
      "Ð¾ÑĩÐ°ÑĤÐºÑĥ": 2681,
      "ĠÑĸÐ½ÑĪÐ¸Ð¼": 2682,
      "ĠÐ·Ð¼Ð¾Ð¶": 2683,
      "Ð¾Ð¹Ð½Ð¾": 2684,
      "ĠÑģÐ¿Ð¾ÑģÐ¾Ð±": 2685,
      "ĠÐ¿ÑĥÐ±": 2686,
      "ĠÐ´Ð¸ÑĤ": 2687,
      "Ð¿Ñĸ": 2688,
      "ĠÑĢÐ¾Ð´Ð¸": 2689,
      "ÐµÐ½Ñĥ": 2690,
      "ĠÑģÑĤÐ°Ð»Ð¾": 2691,
      "ĠÑĸÐ½ÑģÑĤÐ¸": 2692,
      "Ð¼ÐµÐ¼Ð¾": 2693,
      "ĠÑģÐ²ÑĸÑĤÐ»Ð¾": 2694,
      "ĠÐ·Ð°ÑħÑĸÐ´": 2695,
      "ĠÐ½Ð¾Ð²Ð¸Ñħ": 2696,
      "ĠÑĸÐ´ÐµÑİ": 2697,
      "ĠÑĢÑĸÐ²Ð½Ñı": 2698,
      "ĠÐ¿ÑĢÐ¾ÑģÑĤÑĸÑĢ": 2699,
      "ĠÐºÐ¸": 2700,
      "ÑĪÑĥÐº": 2701,
      "ĠÑĸÐ½Ð²Ðµ": 2702,
      "ĠÐ°Ð±Ð¸": 2703,
      "ĠÐºÑĢÐ¾Ðº": 2704,
      "ĠÐ²Ð¸Ð¿ÑĢÐ¾Ð±": 2705,
      "ĠÐºÐ¾ÑĢÐ¾ÑĤ": 2706,
      "ĠÑĤÐ¾ÑĩÐºÐ¸": 2707,
      "Ð²Ð°Ð»": 2708,
      "ĠÐ·Ð°ÑĤ": 2709,
      "ĠÑĩÐ°ÑģÑĤ": 2710,
      "ĠÐ²ÑĸÐ´Ð½Ð¾Ð²": 2711,
      "ÐµÑĢÐµÑĩ": 2712,
      "ĠÑĪÑĸÑģÑĤÑĮ": 2713,
      "ĠÐ²Ð·Ð°Ð³Ð°Ð»Ñĸ": 2714,
      "ĠÐ»ÐµÐ³ÐºÐ¾": 2715,
      "ĠÐ½ÐµÐ½": 2716,
      "ÑĩÐµÐ²Ð¸Ð´": 2717,
      "ĠÐ¿Ð¾Ð²ÐµÑĢÐ½ÑĥÑĤÐ¸": 2718,
      "ÑħÐ¾Ð´ÑıÑĤÑĮ": 2719,
      "ĠÑĥÑģÐ¿ÑĸÑĪ": 2720,
      "ĠÑĦÑĥÐ½Ðº": 2721,
      "ĠÐµÐ¼Ð¾ÑĨÑĸÐ¹": 2722,
      "ĠÑģÑĤÑĢÐ°Ð¶Ð´": 2723,
      "ĠÐ¿Ð°Ð¿": 2724,
      "ĠÐ¼Ð°ÑĤÐµ": 2725,
      "ĠÑĤÑĸÐ»Ð°": 2726,
      "ĠÑĤÐ¾Ð±ÑĤÐ¾": 2727,
      "Ð¾Ð²Ð°Ð½": 2728,
      "Ð±ÑĥÑĢ": 2729,
      "ÑĸÐ´Ñĥ": 2730,
      "ĠÐ²Ð±Ð¸Ð²": 2731,
      "ĠÑģÑĥÑĤÑĸ": 2732,
      "ĠÐ¼Ð°ÑĤÐµÐ¼Ð°ÑĤÐ¸": 2733,
      "ĠÐ·Ð°Ð»Ñĸ": 2734,
      "ĠÑĥÑģÑĮ": 2735,
      "Ð»ÑĸÑĩ": 2736,
      "ĠÐ¿ÐµÑĢÑĸ": 2737,
      "ĠÐ¿ÑĢÐ°ÑĨÑİÑİÑĤÑĮ": 2738,
      "ĠÑģÐ²ÑĸÐ´Ð¾Ð¼": 2739,
      "ĠÑĨÐ¸Ð¼Ð¸": 2740,
      "ĠÐ½ÐµÐ³": 2741,
      "ĠÐ½Ð°Ð³Ð°Ð´": 2742,
      "Ġi": 2743,
      "Ġp": 2744,
      "Ð°Ð¹Ð½": 2745,
      "ĠÐ¿Ð¾ÑĩÐ°Ð»Ð°": 2746,
      "Ð»Ð¸Ð²Ð¸Ð¹": 2747,
      "ĠÐ½Ð°Ð¿ÑĢÑı": 2748,
      "ĠÑĩÐ°ÑģÑĤÐ¸Ð½": 2749,
      "ĠÐ½ÐµÐ¼Ð¾Ð¶": 2750,
      "Ð¼Ð°ÑĤ": 2751,
      "Ð¹Ð½": 2752,
      "ĠÐ±Ð´Ð¶": 2753,
      "Ð¾ÑĢÐ¾Ð¼": 2754,
      "ÑĸÑĩÐ½Ñĸ": 2755,
      "ĠÐ¿Ð¾ÐºÐ°Ð¶Ñĥ": 2756,
      "ĠÐºÐ¾Ð»Ðµ": 2757,
      "ĠÐ´Ð¾Ð´Ð¾Ð¼Ñĥ": 2758,
      "Ð´ÑĥÑĤÑĮ": 2759,
      "ĠÐ·Ð½ÑĸÐ¼": 2760,
      "Ð½Ð¸ÑĨÑĮ": 2761,
      "Ð°ÑĢÑĸ": 2762,
      "Ð½ÐµÐ¼": 2763,
      "ĠÐ¾Ð¿Ð¸Ñģ": 2764,
      "ĠÐ±ÑĥÐ´ÐµÐ¼Ð¾": 2765,
      "Ð°ÑĨÑĸÑĶÑİ": 2766,
      "ĠÑĤÐ¸ÑģÑıÑĩÑĸ": 2767,
      "Ð¿ÑĢÐ¸ÑĶÐ¼": 2768,
      "ĠÐ¼Ð¾Ð´ÐµÐ»ÑĮ": 2769,
      "ĠÑĤÐ¾ÑĢÐ³": 2770,
      "ÑĢÐ¾Ñİ": 2771,
      "ÑĥÑĪ": 2772,
      "ÑĸÐ»Ð»Ñı": 2773,
      "ĠÐ³ÑĢÐ°ÑĦ": 2774,
      "ĠÑģÐ¿Ð¾Ð¶Ð¸Ð²": 2775,
      "ĠÐ¾ÑĤÑĢÐ¸Ð¼Ð°Ð²": 2776,
      "ĠÐºÐ°Ð¶ÑĥÑĤÑĮ": 2777,
      "ĠÐ²Ð¸ÑĢÑĸÑĪÐ¸Ð²": 2778,
      "ĠÐ²ÑĸÐ´ÐºÑĢÐ¸ÑĤÐ¸": 2779,
      "Ð»ÑİÐ²Ð°ÑĤÐ¸": 2780,
      "ĠÐ·ÑĥÐ¿Ð¸": 2781,
      "Ð¿ÑĢÐµ": 2782,
      "ĠÐ¿ÑĢÐµÐ·": 2783,
      "ĠÑģÑĤÑĸÐ»ÑĮÐºÐ¸": 2784,
      "ĠÑĢÐ¾Ð·Ð¿Ð¾Ð²": 2785,
      "ĠÐ¿ÑĢÐ¸Ð¿Ñĥ": 2786,
      "ĠÑģÐµÐºÑĥÐ½": 2787,
      "Ð²ÐµÑĢÐ´Ð¶": 2788,
      "ĠÑĢÑĸÐ²Ð½Ñĸ": 2789,
      "ĠÑĢÐµÐ·ÑĥÐ»ÑĮÑĤÐ°ÑĤÐ¸": 2790,
      "ĠÑĩÐ¾Ð»Ð¾Ð²ÑĸÐºÐ¸": 2791,
      "ĠÐ´Ð¸ÑĤÑı": 2792,
      "ra": 2793,
      "ĠÐ½Ð°ÑĨÑĸÐ¾Ð½": 2794,
      "ĠÐ¼Ð°Ð»Ð¾": 2795,
      "ĠÑĤÑĢÑĥ": 2796,
      "Ð¿ÐµÑĢÐµÐ´": 2797,
      "ĠÐºÑĢÐµ": 2798,
      "ĠÐ·Ð½Ð°ÑĶ": 2799,
      "ĠÑĩÐ°ÑģÑĤÐ¸Ð½Ð¾Ñİ": 2800,
      "ĠÑĥÐ²Ð°Ð³Ð¸": 2801,
      "ĠÐ·Ð°Ð·Ð²Ð¸ÑĩÐ°Ð¹": 2802,
      "ĠÐ¿ÐµÑĢÐµÐ²Ð°Ð³": 2803,
      "Ġb": 2804,
      "ÑĥÑģÑĤÐ¸": 2805,
      "ĠÐ¿ÑĸÐ·": 2806,
      "ĠÑıÑģ": 2807,
      "Ð½ÑĸÐº": 2808,
      "Ð±Ð°": 2809,
      "ĠÐ·Ð±ÑĥÐ´": 2810,
      "ĠÐ·Ð½Ð°ÑħÐ¾Ð´Ð¸ÑĤÑĮÑģÑı": 2811,
      "ĠÐ¼ÑĸÐ»ÑĮÐ¹Ð¾Ð½Ð¸": 2812,
      "Ð¿Ð¾ÑĤÑĸÐ¼": 2813,
      "ÑĥÑģÑĸ": 2814,
      "Ð¾Ð²Ð°Ð½Ð°": 2815,
      "Ð¾Ð¶ÐµÐ²": 2816,
      "Ð²ÑĸÐ¹": 2817,
      "ĠÑģÐ¸Ð»Ñĥ": 2818,
      "ĠÐºÐ°Ð¶Ñĥ": 2819,
      "ĠÐ½Ð°ÑĥÐºÐ¾Ð²": 2820,
      "ĠÑĩÐµÑĢÐ²Ð¾": 2821,
      "ĠÐ°Ð±ÑģÐ¾Ð»ÑİÑĤÐ½Ð¾": 2822,
      "ĠÑģÐ¿ÐµÑĨÑĸ": 2823,
      "ÐµÑĤÐµ": 2824,
      "ÐºÐ¾Ð²Ñĸ": 2825,
      "Ð°ÑĤÐ°": 2826,
      "ĠÑĢÐµÐ»ÑĸÐ³": 2827,
      "ĠÐ¾ÑĤÑĢÐ¸Ð¼Ð°Ð»Ð¸": 2828,
      "Ð²Ð°Ð¶Ð»Ð¸Ð²Ñĸ": 2829,
      "ĠÐºÐ»ÑĸÑĤÐ¸Ð½": 2830,
      "ĠÐ»ÑĸÐºÑĥÐ²Ð°Ð½Ð½Ñı": 2831,
      "ĠÐ¾ÐºÑĢÐµ": 2832,
      "Ð½ÑĥÐ»Ð°": 2833,
      "ĠÑĤÑĢÐ°Ð½": 2834,
      "ĠÐ¿ÑĢÐ°Ð²Ð´Ð°": 2835,
      "Ð½ÑĸÑĪÐ¸Ñħ": 2836,
      "ĠÐ¼ÐµÑĢÐµÐ¶Ñĸ": 2837,
      "ĠÐ·Ð°Ð´Ð¾Ð²Ð¾Ð»": 2838,
      "Ð´ÑĢÑĥÐ³": 2839,
      "ĠÐ½Ð°ÑĢÐµÑĪÑĤÑĸ": 2840,
      "ĠÐ³ÑĢÐ°Ð²": 2841,
      "Ð°ÑĤÑĸÐ²": 2842,
      "ĠÐ·Ð²Ñĥ": 2843,
      "Ð¾Ð²Ð°Ð½Ð¸Ñħ": 2844,
      "ĠÐ²Ð¸ÐºÐ¾ÑĢÐ¸ÑģÑĤÐ°Ð½Ð½Ñı": 2845,
      "ĠÐ¿Ð¾Ð±Ð°ÑĩÐ¸ÑĤÐµ": 2846,
      "ĠÑĩÐ°ÑģÑĤÐ¸Ð½Ñĥ": 2847,
      "ÐºÐ¾Ð»Ð°": 2848,
      "ĠÑĤÐµÑħÐ½Ð¾Ð»Ð¾Ð³ÑĸÑı": 2849,
      "ĠÐ¿ÑĸÐ²Ð´ÐµÐ½": 2850,
      "ĠÑģÐ²Ð¾ÑĶÐ¼Ñĥ": 2851,
      "ĠÐ¼Ð¾ÑĶÐ¼Ñĥ": 2852,
      "ĠÑĸÐ½ÑĤÐµÐ»ÐµÐº": 2853,
      "âĻ": 2854,
      "ĠÐ¼Ð¾Ð±ÑĸÐ»ÑĮ": 2855,
      "Ð¾ÑĤÐ°": 2856,
      "ÑĨÐµÐ¿": 2857,
      "Ð¸Ð»Ð¸ÑģÑı": 2858,
      "ĠÐ¿Ð¾Ð³Ð¾Ð²Ð¾ÑĢ": 2859,
      "ĠÐ²ÑĸÐ´ÐºÑĢÐ¸Ð²": 2860,
      "ĠÐµÐºÑģÐ¿ÐµÑĢÐ¸Ð¼ÐµÐ½ÑĤ": 2861,
      "ÑģÑĥÑĢ": 2862,
      "ĠÐ´Ð½ÑĸÐ²": 2863,
      "Ð»ÑıÑİÑĤÑĮÑģÑı": 2864,
      "Ð°ÑĢÑĤ": 2865,
      "ĠÑħÑĥÐ´": 2866,
      "ĠÑĨÑĸÑĶÑİ": 2867,
      "ĠÐºÐ¾Ð¼Ð°Ð½": 2868,
      "ĠÐ´ÑĸÐ°Ð³": 2869,
      "ĠÐ²Ð°Ð¶Ð»Ð¸Ð²Ñĸ": 2870,
      "ĠÐ¿Ð¾ÑĤÑĢÑĸÐ±Ð½Ñĸ": 2871,
      "ĠÐ·ÑĥÑģÑĤÑĢÑĸÑĩ": 2872,
      "ĠÑģÑĤÑĢÐ°ÑĪ": 2873,
      "ÐºÐ¾Ð¼Ñĥ": 2874,
      "ĠÑģÐ¾": 2875,
      "ÑĩÐ¸ÑĤ": 2876,
      "Ð½ÑıÑĤ": 2877,
      "ĠÑĢÐ¾Ð·Ð´": 2878,
      "ĠÐ¼ÑĸÑģÑĤÐ¾": 2879,
      "ĠÑĢÐµÑģÑĥÑĢ": 2880,
      "ĠÐ²Ð¸ÐºÐ¾ÑĢÐ¸ÑģÑĤÐ°ÑĤÐ¸": 2881,
      "ĠÐ¿ÑĢÐ°Ð²Ð°": 2882,
      "ĠÐ·Ð°ÐºÐ¾Ð½": 2883,
      "ĠÐ¿Ð¾Ð¼Ð¸Ð»": 2884,
      "ĠÐ³ÑĢÑĥÐ¿Ð¸": 2885,
      "ÑĸÑĤÑĮÑģÑı": 2886,
      "ĠÐ¿Ð°Ð½": 2887,
      "ĠÐ·Ð²ÑĸÑģÐ½Ð¾": 2888,
      "ĠÑĤÑĥÑĢ": 2889,
      "ĠÑīÐ¾Ð¹Ð½Ð¾": 2890,
      "ĠÐ¾Ð½": 2891,
      "ĠÐ¿ÑĢÐ¾Ñģ": 2892,
      "ĠÑĶÐ´": 2893,
      "ĠÑģÐºÐ¾ÑĢ": 2894,
      "ĠÐ¾Ð´Ð½Ð¾Ð¼Ñĥ": 2895,
      "ĠÐ¾Ð±Ð³": 2896,
      "ĠÐ·Ð°Ð¿ÑĢÐ¾Ð¿": 2897,
      "ĠÐ²Ð°ÑĪÑĸ": 2898,
      "ĠÐºÐ°Ð¶ÑĥÑĩÐ¸": 2899,
      "ĠÐ¿Ð¾Ð·Ð±": 2900,
      "ĠÐ¶Ð¸Ð²ÑĥÑĤÑĮ": 2901,
      "ĠÐ²Ð¸ÐºÐ¾ÑĢÐ¸ÑģÑĤÐ¾Ð²ÑĥÑİÑĤÑĮ": 2902,
      "Ð°Ð½Ð¸": 2903,
      "ĠÐ²Ð¾Ð´Ñĥ": 2904,
      "Ð¼Ð½Ñĸ": 2905,
      "ÑĪÐ¸Ñħ": 2906,
      "ÑģÑıÑĤÑĮ": 2907,
      "ĠÐ½ÐµÑī": 2908,
      "ĠÑĪÐ¸ÑĢ": 2909,
      "ÑĤÑĢÑı": 2910,
      "ĠÐµÐ²Ð¾Ð»Ñİ": 2911,
      "Ð°Ð½ÑĸÑĹ": 2912,
      "ĠÐ½Ð°ÑģÐ¸Ð»ÑĮ": 2913,
      "ĠÐ¿ÑĢÐ¸Ð¹Ð¼": 2914,
      "Ð»ÐµÐ½Ð°": 2915,
      "ot": 2916,
      "ĠÐ¿Ð»Ðµ": 2917,
      "ÑĩÑĥ": 2918,
      "ÑģÑĤÐ²Ñĸ": 2919,
      "Ð¾Ð´Ð½Ð°Ðº": 2920,
      "ĠÑģÑĤÐ°Ð»Ð¾ÑģÑı": 2921,
      "ĠÐ¿ÑĸÐ´Ðº": 2922,
      "ĠÑĤÐµÑħÐ½Ð¾Ð»Ð¾Ð³ÑĸÐ¹": 2923,
      "ĠÑĨÑĸÐ»ÐºÐ¾Ð¼": 2924,
      "ĠÑĢÐ°Ð´Ñĸ": 2925,
      "Ð¼Ð¾Ð¶Ðµ": 2926,
      "ĠÐ¿Ð°Ð»": 2927,
      "ĠÐ´ÑĸÐ»Ñı": 2928,
      "ĠÐºÑĸÐ»": 2929,
      "ĠÑĢÐ°Ð¿": 2930,
      "Ð±Ð¾": 2931,
      "Ð±Ð°Ð³Ð°ÑĤÐ¾": 2932,
      "ĠÐ»ÑĮ": 2933,
      "ÑĸÐ½ÑĪ": 2934,
      "ĠÐºÐ¾Ð»Ð¸ÑģÑĮ": 2935,
      "ÑģÑĮÐºÑĸÐ¹": 2936,
      "ĠÐ¿ÑĸÐ²Ð½ÑĸÑĩ": 2937,
      "ÑĸÐ¼Ð¾": 2938,
      "ÐµÐºÑĥ": 2939,
      "ĠÐºÑĢÑĥ": 2940,
      "ÐµÑĢÐµÐ¶": 2941,
      "ÑĨÑĸÐ¾Ð½": 2942,
      "Ð¾Ð²Ð¸Ð½Ð¸": 2943,
      "ĠÑĤÑĢÐ°Ð´Ð¸": 2944,
      "ĠÐ´Ð¶ÐµÑĢÐµ": 2945,
      "Ð°Ð½ÑĤÐ°Ð¶": 2946,
      "ĠÐ½ÐµÐ¹ÑĢÐ¾": 2947,
      "ĠÐ½ÐµÐ¹Ð¼Ð¾Ð²ÑĸÑĢÐ½Ð¾": 2948,
      "ĠÑĥÑĩÐ°ÑģÑĤÑĮ": 2949,
      "ĠÐ²ÑĤ": 2950,
      "Ð¼Ð°ÑĢ": 2951,
      "ÑĪÐ¸ÑĤÐ¸": 2952,
      "Ð¾Ð»Ð¾Ð¼": 2953,
      "ĠÑĥÐ»ÑİÐ±": 2954,
      "ĠÐ½Ð°Ð´ÑĤÐ¾": 2955,
      "ĠÐ¼ÑĸÑģÑĨÑĸ": 2956,
      "ĠÐ²Ð·Ñı": 2957,
      "ĠÐ·Ð°Ð´ÑĥÐ¼": 2958,
      "ĠÐ¿ÑĢÐ¸Ð½ÑĨÐ¸": 2959,
      "ĠÐ¿Ð¾ÐºÐ¾Ð»ÑĸÐ½Ð½Ñı": 2960,
      "Ð°Ð½Ð¸Ð¹": 2961,
      "Ð»Ð¾Ð¼": 2962,
      "ĠÑģÑİÐ´Ð¸": 2963,
      "ĠÐ±ÑĸÐ»Ñı": 2964,
      "ĠÐ¿ÑĢÐµ": 2965,
      "ĠÑĥÐ¼Ð¾Ð²": 2966,
      "ĠÐ²ÑĸÐ´Ð¿ÑĢÐ°Ð²": 2967,
      "Ð½ÑĥÑĤ": 2968,
      "ĠÐ±Ð°ÑĩÐ¸Ð²": 2969,
      "ĠÐ½Ð°Ð¿ÐµÐ²": 2970,
      "ĠÐ²ÐµÐ»Ð¸ÐºÑĸ": 2971,
      "ÑĤÐ¾ÑĢÐ°": 2972,
      "ÑĢÐ¾Ð´Ð¾Ð²Ð¶": 2973,
      "ĠÐ±Ð°ÑĤÑĮÐºÑĸÐ²": 2974,
      "ĠÐ´Ð¾ÑĢÐ¾Ñģ": 2975,
      "ĠÑĢÑĥÐºÐ¸": 2976,
      "ĠÐ½ÐµÐ¿ÑĢÐ°Ð²": 2977,
      "ĠÐ¼Ð°ÑĪÐ¸Ð½": 2978,
      "en": 2979,
      "ÐºÐ¾Ð¿": 2980,
      "ĠÐ½Ð°Ð»": 2981,
      "ĠÑģÐ¾Ð½": 2982,
      "ĠÐ´Ð½Ñĸ": 2983,
      "ÑĩÐ½Ð¾ÑĹ": 2984,
      "ĠÐºÐ¾Ð¿": 2985,
      "Ð»Ð¸Ð½Ð¸": 2986,
      "ĠÐ¾ÑĩÐµÐ²Ð¸Ð´": 2987,
      "ÑĤÑıÐ³": 2988,
      "ĠÐ²Ð°ÑĪÐ¾Ð³Ð¾": 2989,
      "ÑĥÐ²Ð°Ð²ÑģÑı": 2990,
      "ĠÑĸÑģÐ½ÑĥÑİÑĤÑĮ": 2991,
      "ĠÐ¼ÑĸÐ¶Ð½Ð°ÑĢÐ¾Ð´": 2992,
      "ĠÐ¾ÑĢÐ³Ð°Ð½ÑĸÐ·Ð°ÑĨÑĸÑĹ": 2993,
      "ĠÐ·Ð°ÑĢÐ¾Ð±": 2994,
      "ĠÐºÐ¾ÑĤÑĢÑĸ": 2995,
      "ĠÐ²Ð¿ÐµÐ²Ð½Ðµ": 2996,
      "ĠÐ¿ÑĢÐ¸ÑģÑĥÑĤ": 2997,
      "Ġw": 2998,
      "Ð´ÐµÐ½ÑĮ": 2999,
      "ĠÑĤÐ¾Ð±Ñĸ": 3000,
      "ĠÑĤÑĸÐ»Ð¾": 3001,
      "Ð°Ð»Ð¾Ð¼": 3002,
      "ĠÑĥÐ·": 3003,
      "ÑĥÐ²Ð°Ð»Ð¾": 3004,
      "ĠÐ²ÑĸÐ´Ð²ÑĸÐ´": 3005,
      "ĠÐ³ÐµÑĢ": 3006,
      "ĠÐ¿ÑĢÐ¾ÑģÑĤ": 3007,
      "ĠÐ·Ð½Ð°ÑİÑĤÑĮ": 3008,
      "ÑĤÑĥÑĶ": 3009,
      "ÑģÐ»ÐµÐ½Ð½Ñı": 3010,
      "ĠÐ½Ð°Ð´Ð¸Ñħ": 3011,
      "ĠÐ»ÑĸÐºÐ¸": 3012,
      "ĠÑĪÐºÐ¾Ð»Ñĸ": 3013,
      "ĠÐ²Ð¸ÑĤÑĢÐ°Ñĩ": 3014,
      "ĠÑģÑĤÐ¾Ð»ÑĸÑĤÑĤÑı": 3015,
      "ÑĢÐ°Ð»Ð¸": 3016,
      "Ð¾Ð²Ð¾Ñİ": 3017,
      "ĠÐ¿Ð¾ÑĩÐ°ÑĤÐ¸": 3018,
      "Ð»Ð¸Ð²Ðµ": 3019,
      "ĠÐ¿Ð¾Ð³Ð»ÑıÐ´": 3020,
      "ĠÐºÑĸÐ»ÑĮÐºÐ¾ÑģÑĤÑĸ": 3021,
      "ĠÑģÐ¾ÑĤÐ½Ñĸ": 3022,
      "or": 3023,
      "ĠâĻ": 3024,
      "Ð´ÐµÑĢ": 3025,
      "ĠÐ²ÑĸÐ´Ð¿": 3026,
      "ĠÐ¿ÑĢÐ¸ÑĩÐ¸Ð½": 3027,
      "Ð°Ð±Ð¾": 3028,
      "ĠÐ½Ð°ÑĪÑĸÐ¹": 3029,
      "ĠÐ¿Ð¾ÑĩÐ°ÑĤ": 3030,
      "ÑĸÑģÐ»Ñı": 3031,
      "Ġ199": 3032,
      "Ð¾ÑĦ": 3033,
      "Ð°Ð½Ð¸Ñħ": 3034,
      "Ð²Ð¸Ñħ": 3035,
      "ÑİÑİÑĩÐ¸": 3036,
      "ÑĩÐ½Ðµ": 3037,
      "ĠÐ±ÑĸÐ»": 3038,
      "ĠÐºÐ»": 3039,
      "Ð³Ð½": 3040,
      "Ð°ÑģÑĤÐ¸": 3041,
      "ĠÑĤÐ°ÐºÐ¸Ð¼Ð¸": 3042,
      "ĠÐ¿ÑĸÐ´Ð¿ÑĢÐ¸ÑĶÐ¼": 3043,
      "ĠÑĤÐ¾ÑĩÐ½Ð¾": 3044,
      "ĠÐ´ÐµÑģÑıÑĤÐ¸": 3045,
      "ĠÐ²ÑģÐµÑģÐ²Ñĸ": 3046,
      "ĠÐ¾Ð±Ð³Ð¾Ð²Ð¾ÑĢ": 3047,
      "ĠÐ·Ð°Ð¿ÑĢÐ¾Ð¿Ð¾Ð½": 3048,
      "Ð»Ð°Ð¹Ð½": 3049,
      "Ð¾Ð²Ð½Ð¾": 3050,
      "Ð¹Ð¾Ð³Ð¾": 3051,
      "ĠÑĸÐ½ÑĪÐ°": 3052,
      "ÑģÑĮÐºÐµ": 3053,
      "ĠÑģÐ²Ð¾ÑĹÐ¹": 3054,
      "ĠÑĪÐ²Ð¸Ð´ÑĪÐµ": 3055,
      "ĠÐ±Ð°ÑĤÑĮÐºÐ¾": 3056,
      "ĠÐ´Ð°Ð²Ð°Ð¹ÑĤÐµ": 3057,
      "Ð½Ð¸ÑĨÑĤÐ²Ð°": 3058,
      "ĠÐ²ÑĸÐ·Ñĥ": 3059,
      "ĠÐ·ÑĢÐ¾Ð·ÑĥÐ¼ÑĸÐ²": 3060,
      "ĠÑģÐ¿ÑĢÐ¸Ð¹Ð¼": 3061,
      "ĠÐ·Ð»Ð¾ÑĩÐ¸Ð½": 3062,
      "ĠÐ²Ð¼Ñĸ": 3063,
      "ĠÐ·Ð²Ð¸": 3064,
      "ĠÐ²Ð¸Ð·Ð½": 3065,
      "ĠÐ³ÑĸÑĢ": 3066,
      "ĠÑĦÑĢÐ°Ð½": 3067,
      "ĠÐ¿Ð¾ÑĩÑĥÐ²": 3068,
      "ÑĥÐ²Ð°Ð»Ð¸ÑģÑı": 3069,
      "ÑĤÐ¾Ð¼ÑĸÑģÑĤÑĮ": 3070,
      "ĠÐ¿Ð¾Ð¼ÐµÑĢ": 3071,
      "ĠÐ·Ð½Ð°ÑĩÐ¸ÑĤÑĮ": 3072,
      "ĠÐ¿Ð¾Ð¿ÐµÑĢÐµÐ´": 3073,
      "ĠÐ¿Ð¾Ð¿ÑĢÐ¾Ñģ": 3074,
      "ĠÑģÐ²ÑĸÐ´": 3075,
      "ĠÑĢÐ¾Ð»ÑĮ": 3076,
      "ÑĸÐ½Ð³": 3077,
      "ĠÐ²ÑĸÐ´Ðº": 3078,
      "Ð´ÐµÑĤÑĮÑģÑı": 3079,
      "ĠÑĢÐ¾Ð±Ð¸Ð»Ð¸": 3080,
      "ĠÐ²ÑģÑĸÐ¼": 3081,
      "ĠÑĢÑĸÐ·Ð½Ð¾Ð¼": 3082,
      "ĠÐ¼Ð¾Ð»ÐµÐºÑĥ": 3083,
      "ĠÐ¿ÑĢÐµÐ´Ð¼Ðµ": 3084,
      "ĠÐ±Ð»Ð°Ð³": 3085,
      "Ġd": 3086,
      "ÐºÐ²": 3087,
      "ĠÐ¼Ð¾Ð²Ð¸": 3088,
      "Ð¿ÐµÑĢÐµ": 3089,
      "ĠÐ±Ð¾ÑĢÐ¾": 3090,
      "ĠÐ¿ÑĢÐ°Ðº": 3091,
      "Ð¼Ð¾Ñı": 3092,
      "ĠÐ¿Ð¾ÑĶÐ´Ð½": 3093,
      "Ð°Ð»ÑĮÐ½Ð¾Ð¼Ñĥ": 3094,
      "ĠÑĢÐµÑĪ": 3095,
      "ĠÐ¼ÐµÐ¶": 3096,
      "Ð»ÑİÑİ": 3097,
      "ĠÐ´ÑĸÑģÑĤ": 3098,
      "ĠÐ°Ð²ÑĤ": 3099,
      "Ġ60": 3100,
      "ĠÑģÐ»Ð¾Ð²Ð°Ð¼Ð¸": 3101,
      "ÑĤÑİ": 3102,
      "ÑĤÐ¾Ð±ÑĤÐ¾": 3103,
      "ÐºÐ°Ð²": 3104,
      "ĠÑģÐ°Ð½": 3105,
      "ĠÐ±Ð°Ð±": 3106,
      "ĠÐ°Ñĥ": 3107,
      "ÑģÑĸÑı": 3108,
      "ĠÐ¼ÑĸÐº": 3109,
      "ĠÑģÐ°Ð¼Ð°": 3110,
      "ĠÑģÐ²Ð¾Ð±": 3111,
      "Ġ201": 3112,
      "ĠÐ½Ð¸Ð¶": 3113,
      "ĠÐ¼ÑĸÐ»ÑĮÑıÑĢÐ´ÑĸÐ²": 3114,
      "ÑĤÐºÐ¸": 3115,
      "ÑĢÐ¸ÑĤ": 3116,
      "Ð²Ð¸Ð¹": 3117,
      "ÐºÑĢÐµÑĤ": 3118,
      "ĠÐ¿Ð°ÑĤ": 3119,
      "Ð´Ð°Ð¼": 3120,
      "ĠÑģÑĤÐµ": 3121,
      "ĠÐ¾ÑĨÑĸÐ½": 3122,
      "Ð²Ð¾ÑĹ": 3123,
      "ĠÑĸÐ½ÑĤ": 3124,
      "ĠÐ±Ð°ÑĩÑĥ": 3125,
      "Ġ25": 3126,
      "ĠÐ´Ð¾Ð²Ð³Ð¾": 3127,
      "ĠÐ´Ð¾Ð²ÐºÐ¾Ð»Ð°": 3128,
      "ĠÐ·Ð±ÐµÑĢÐµ": 3129,
      "ĠÐ²Ð¸Ð´ÑĸÐ²": 3130,
      "ĠÐ²Ð¸ÑĢÑĸÑĪÐ¸Ð»Ð¸": 3131,
      "ĠÑģÑĤÐ¸Ðº": 3132,
      "ĠÐ½ÐµÐ¾Ð±ÑħÑĸÐ´Ð½Ð¾": 3133,
      "ĠÐ²ÑģÐµÑģÐ²ÑĸÑĤ": 3134,
      "ĠÐ·ÑĢÑĥ": 3135,
      "ĠÐ°Ð³": 3136,
      "ÑĤÐµÐ»ÑĮ": 3137,
      "ĠÐ¼Ð°ÑĪÐ¸Ð½Ð¸": 3138,
      "ĠÐ·Ð¼Ð¾Ð³Ð»Ð¸": 3139,
      "ĠÐºÐ¾Ð½ÑĤÑĢÐ¾Ð»": 3140,
      "ĠÑħÑĸÐ¼Ñĸ": 3141,
      "ĠÐ¿Ð¾Ð²ÑĸÑĤÑĢÑı": 3142,
      "ĠÐ·Ð°ÑĨ": 3143,
      "ĠÑıÑĤÐ¸": 3144,
      "Ð·Ñĥ": 3145,
      "Ð»Ð¸Ñħ": 3146,
      "Ð»Ð¸Ð¶": 3147,
      "ĠÐ·Ð½Ð°Ð²": 3148,
      "ĠÑĦÐµÑĢ": 3149,
      "ĠÐµÐ»Ðµ": 3150,
      "ÑĢÐ¾Ñī": 3151,
      "ĠÐ²ÐµÑĩ": 3152,
      "ÑģÐ»Ð¾Ð²": 3153,
      "ĠÐ½Ð°Ð¹Ð±ÑĸÐ»ÑĮÑĪÐµ": 3154,
      "Ð»Ð¸Ð²Ð¸Ð¼Ð¸": 3155,
      "ĠÐºÐ¾Ð¶Ð½Ð¾Ð¼Ñĥ": 3156,
      "ĠÐ²ÑĥÐ»Ð¸ÑĨÑĸ": 3157,
      "ĠÐ±Ð¾ÑĢÐ¾ÑĤÑĮ": 3158,
      "ÑĸÐ´Ð½Ð¾": 3159,
      "ĠÑģÐ¿Ð¸Ñģ": 3160,
      "Ð°ÑĩÐ°": 3161,
      "ĠÐ¼ÑĸÐºÑĢ": 3162,
      "ĠÐ¿ÐµÑĢÐµÐ¶Ð¸Ð²": 3163,
      "ÑĤÐ°ÐºÐ¾Ð¶": 3164,
      "ĠÐ¿Ð¾ÑĢÑıÐ´": 3165,
      "ĠÐ¿Ð¾Ð±Ð°ÑĩÐ¸Ð²": 3166,
      "Ð»ÑıÑĶÐ¼Ð¾": 3167,
      "ĠÐ¿ÑĢÐ¾ÐµÐºÑĤÑĥ": 3168,
      "ĠÐ¿ÑĢÐ¸Ð²Ð°ÑĤ": 3169,
      "ĠÑħÐ»Ð¾Ð¿ÑĩÐ¸": 3170,
      "ĠÐ¿Ð¾Ð´ÑĥÐ¼Ð°Ð²": 3171,
      "ĠÑĸÐ½Ð´ÑĸÑĹ": 3172,
      "Ġ80": 3173,
      "ĠÐºÑĥÑĤ": 3174,
      "ĠÐ½ÑĸÑıÐº": 3175,
      "ĠÑģÐ²Ð¾ÑĹÐ¼Ð¸": 3176,
      "ĠÑĩÐ°ÑģÑĤÐ¸Ð½Ð¸": 3177,
      "ĠÐ¿Ð¾Ð²Ð¸Ð½ÐµÐ½": 3178,
      "ĠÐ¾ÐºÐµ": 3179,
      "ĠÐ¾ÑģÐ²ÑĸÑĤÐ¸": 3180,
      "ĠÑģÐ¿ÑĸÐ²ÑĩÑĥÑĤÑĤÑı": 3181,
      "al": 3182,
      "ÑĥÐ»Ð°": 3183,
      "ĠÐ·Ð¾ÑģÐµÑĢÐµÐ´": 3184,
      "ÑħÐ¾Ñĩ": 3185,
      "ÑĪÐ»Ð¾": 3186,
      "Ð·Ð¼Ñĥ": 3187,
      "Ð¾ÑĢÑģÑĤ": 3188,
      "Ð¾Ð´Ð½Ð°": 3189,
      "ĠÑĩÑĸÑĤ": 3190,
      "ĠÑĸÐ½Ð½Ð¾Ð²": 3191,
      "ÐºÑĸÑģÑĤÑİ": 3192,
      "ĠÐ·Ð°Ð»Ð¸ÑĪÐ¸": 3193,
      "ĠÐ³ÑĢÐ¾Ð¼Ð°Ð´ÑıÐ½": 3194,
      "ĠÐ´Ð¸ÑĤÐ¸Ð½Ð°": 3195,
      "ĠÑĦÐ°ÐºÑĤÐ¸ÑĩÐ½Ð¾": 3196,
      "ĠÐºÐ¾Ð³Ð¾ÑģÑĮ": 3197,
      "ĠÐ´ÐµÐ¼Ð¾ÐºÑĢÐ°ÑĤ": 3198,
      "Ð½Ð¾Ð·": 3199,
      "ÐµÐ½Ð¸Ð¹": 3200,
      "ĠÐ´Ð¾Ð³": 3201,
      "Ð¿Ð°Ð½": 3202,
      "ÑĩÐµÑĢÐµÐ·": 3203,
      "ĠÐºÐ¾Ñħ": 3204,
      "Ð·Ð²Ð¸ÑĩÐ°Ð¹": 3205,
      "ÑģÑĮÐºÐ¸Ð¼": 3206,
      "ĠÑģÑĤÐ°ÑİÑĤÑĮ": 3207,
      "ÑĩÐ¸Ð½Ð¸": 3208,
      "ĠÐ·Ð½Ð°Ð½Ð½Ñı": 3209,
      "ĠÐ½Ð°Ð¹Ð²Ð°Ð¶Ð»Ð¸Ð²Ñĸ": 3210,
      "ĠÑĩÐ¸Ð¼Ð°Ð»Ð¾": 3211,
      "ĠÑģÑĥÐ¿ÐµÑĢ": 3212,
      "Ð¾Ñĥ": 3213,
      "Ð¾Ð½ÑĸÐ²": 3214,
      "ÑĩÐ½Ñĥ": 3215,
      "Ð³Ð°Ð´": 3216,
      "Ð°Ð´ÑĤÐ¾": 3217,
      "ĠÐ³Ð°ÑĢÐ°Ð·Ð´": 3218,
      "Ð¸ÑĤÐ¸Ð²": 3219,
      "Ð²Ð¸Ñī": 3220,
      "ĠÐ´ÑĸÑĶ": 3221,
      "ĠÐ´Ð¾Ð²Ð¾Ð»Ñĸ": 3222,
      "ĠÐ¿Ð¾ÑĤÑĢÑĸÐ±Ð½Ð°": 3223,
      "ĠÐ»ÑĸÑĤÐ°Ðº": 3224,
      "ĠÑĦÐ°ÐºÑĤ": 3225,
      "ĠÑħÐ°ÑĢÐ°ÐºÑĤÐµÑĢ": 3226,
      "ĠÐ¾Ð´Ð½ÑĸÑĶÑĹ": 3227,
      "ĠÐ²Ð¸Ð¼Ð°Ð³": 3228,
      "ĠÑģÐ¿Ð¾Ð»ÑĥÑĩÐµÐ½Ð¸Ñħ": 3229,
      "ar": 3230,
      "ĠÐ±ÐµÑĢ": 3231,
      "Ð¾Ð³ÑĢÐ°Ð¼": 3232,
      "Ð½ÑıÐ»Ð¸": 3233,
      "ĠÑĢÐµÐ°Ðº": 3234,
      "ĠÐºÐ¾Ð¼Ð°Ð½Ð´": 3235,
      "ĠÐ´ÑĥÐ¼Ð°ÑĶÑĤÐµ": 3236,
      "ĠÐ¿ÐµÑĢÐµÑĢ": 3237,
      "ĠÐ²Ð¸ÐºÐ¾ÑĢÐ¸ÑģÑĤÐ¾Ð²ÑĥÑĶÐ¼Ð¾": 3238,
      "ĠÐ¾ÑĤÐ¾Ñĩ": 3239,
      "ĠÐ·Ð°Ð»ÑĥÑĩ": 3240,
      "ĠÑģÐ¿ÑĸÐ²Ð¿ÑĢÐ°ÑĨ": 3241,
      "ĠÑĥÑģÑĮÐ¾Ð³Ð¾": 3242,
      "ĠÑĤÑĢÐ°Ð½ÑģÐ¿": 3243,
      "qu": 3244,
      "ÑģÑĸÐ´": 3245,
      "ÐºÑĥÐ²Ð°ÑĤÐ¸": 3246,
      "ĠÐ²ÑĸÑĤ": 3247,
      "ĠÐ½Ð°ÑĦ": 3248,
      "ĠÑģÐ½Ñĸ": 3249,
      "ĠÑĤÐ°ÑĶÐ¼": 3250,
      "ĠÑĥÐ¿ÑĢÐ°Ð²": 3251,
      "ĠÐ°Ð¼": 3252,
      "ĠÐ¿Ð¾ÑĪÑĥÐº": 3253,
      "ÑĨÑĸÑĶÑİ": 3254,
      "ĠÐ»ÑİÐ´Ð¸Ð½Ñĥ": 3255,
      "ĠÐ¿Ð¾Ð¼Ñĸ": 3256,
      "ĠÐ·Ð¼ÑĥÑĪ": 3257,
      "ĠÑĨÐ¸ÑĦÑĢ": 3258,
      "ĠÐ²ÑĸÐ´Ð½Ð¾ÑģÐ¸": 3259,
      "ĠÐ´ÑĢÑĥÐ·ÑĸÐ²": 3260,
      "ÑĢÐ¾Ð½": 3261,
      "ÑĢÐ¸Ð¹": 3262,
      "ÑĥÑıÐ²ÑĸÑĤÑĮ": 3263,
      "ĠÐ¿Ð»Ð°ÑģÑĤÐ¸": 3264,
      "Ð½ÑĸÑĪÑĸ": 3265,
      "ĠÑĸÐ½Ð´Ñĥ": 3266,
      "ĠÑĢÐ¾Ð±Ð¾Ñĩ": 3267,
      "ĠÑĸÐ½ÑĪÑĥ": 3268,
      "ĠÑıÐ·Ð°Ð½Ñĸ": 3269,
      "ĠÐ³ÑĢÑĥÐ¿Ð°": 3270,
      "ĠÑģÑĤÐ°Ð½Ð¾Ð²Ð¸": 3271,
      "ĠÐºÑĥÐ»ÑĮÑĤÑĥÑĢ": 3272,
      "ĠÐ¾ÑĩÑĸÐº": 3273,
      "ĠÐ²ÑĸÐ´Ð¿Ð¾Ð²ÑĸÐ²": 3274,
      "Ġn": 3275,
      "Ð¾ÑĢÑĸÐ²": 3276,
      "ĠÑĥÐ¼": 3277,
      "ĠÐ»ÑĸÑģ": 3278,
      "ĠÐ¶Ð°Ð»ÑĮ": 3279,
      "ĠÐ¿Ð¾Ð²ÑĤÐ¾ÑĢ": 3280,
      "ĠÐ¿Ð¾Ð´ÑĸÐ»Ð¸": 3281,
      "ĠÑģÐ¸Ð³Ð½": 3282,
      "ĠÐ½Ð°Ð¹Ð±": 3283,
      "Ð¾Ð»Ð¾Ð³ÑĸÑĹ": 3284,
      "ĠÐ·Ð´Ð°Ð²": 3285,
      "ĠÐ½Ð°Ð·Ð²Ð¾Ñİ": 3286,
      "ĠÐµÐ»ÐµÐºÑĤÑĢÐ¸": 3287,
      "ĠÐ´Ð¾ÑģÐ»ÑĸÐ´Ð¶ÐµÐ½ÑĮ": 3288,
      "ĠÐ±Ð°Ð¶Ð°Ð½Ð½Ñı": 3289,
      "ĠÐ»Ð°Ð±Ð¾ÑĢÐ°ÑĤÐ¾ÑĢÑĸÑĹ": 3290,
      "ĠÐ²ÑĸÐ´ÑĢÑĸÐ·Ð½Ñı": 3291,
      "ĠÐ´ÑĸÐ»ÑıÐ½": 3292,
      "Ð»Ð°Ð½": 3293,
      "ĠÐ¿ÑĸÑĤÐ¸": 3294,
      "ĠÐ¼Ð¾Ð²Ð°": 3295,
      "ĠÐ±Ð¾Ð¶ÐµÐ²": 3296,
      "ÑĸÐ»ÑĸÐ·": 3297,
      "ÑĸÐ½Ð°": 3298,
      "ĠÐ¿ÑĢÐ¾ÑĩÐ¸ÑĤ": 3299,
      "ĠÐ¿Ð¾ÑĹÑħ": 3300,
      "ÑĤÑıÐ¼": 3301,
      "ĠÐ¾Ð±ÑĢÐ°Ð·": 3302,
      "Ð´ÑĸÑĤÐ¸": 3303,
      "ĠÐºÐ¾Ð¼Ð°Ñħ": 3304,
      "ĠÐ´ÑĥÐ¼Ð°Ð²": 3305,
      "ĠÑģÑĤÐ²Ð¾ÑĢÑİÐ²Ð°ÑĤÐ¸": 3306,
      "Ð»ÐµÐ½Ð¾": 3307,
      "ĠÐ¿Ð¾Ð¿ÑĥÐ»Ñı": 3308,
      "ĠÐ¿ÐµÐ²Ð½Ñĸ": 3309,
      "ĠÑģÐ¼ÐµÑĢÑĤÑĸ": 3310,
      "ĠÐ²ÑĸÐ´Ð¾Ð¼Ð¾": 3311,
      "ĠÑģÐµÐ½Ñģ": 3312,
      "ĠÐ»ÑĸÐ´ÐµÑĢ": 3313,
      "ĠÐ³Ð°Ð´Ð°Ñİ": 3314,
      "ĠÐ¿ÑĢÑıÐ¼Ð¾": 3315,
      "ĠÐ·ÑĢÐ°Ð·Ð¾Ðº": 3316,
      "ĠÐ¾Ð½Ð»Ð°Ð¹Ð½": 3317,
      "Ð½ÑĥÑĤÑĢÑĸÑĪ": 3318,
      "ÑıÑĤ": 3319,
      "Ð¼Ñģ": 3320,
      "Ð´Ð°Ð»Ñĸ": 3321,
      "ĠÐ´Ð°ÑĢ": 3322,
      "ĠÑĩÐµ": 3323,
      "ĠÑģÐ¿Ð¸ÑĤ": 3324,
      "Ð°Ð»ÑĮÐ½ÑĸÑģÑĤÑĮ": 3325,
      "ĠÑĢÐµÐº": 3326,
      "ĠÐ¶Ð¸Ð²Ðµ": 3327,
      "ĠÐ²ÑģÑİ": 3328,
      "ĠÐ»ÑİÐ±Ð»Ñİ": 3329,
      "ĠÑĤÑĢÐ°Ð¿Ð¸": 3330,
      "ĠÐ·Ð°Ð½Ð°Ð´ÑĤÐ¾": 3331,
      "ĠÐ¼Ð¸ÑģÑĤÐµÑĨÑĤÐ²Ð°": 3332,
      "ĠÐ¼Ð¸Ð½ÑĥÐ»Ð¾Ð³Ð¾": 3333,
      "ĠÐ·Ð°ÑĨÑĸÐºÐ°Ð²": 3334,
      "ĠÐ¿Ð»Ð°": 3335,
      "Ð½Ð¸ÑĨÑİ": 3336,
      "ĠÐ²Ð¸Ð½Ð°Ð¹": 3337,
      "ĠÑĢÐ¾Ð·Ð²Ð¸": 3338,
      "ĠÐ¿ÑĢÐ¸ÑĢ": 3339,
      "ĠÐ¿Ð¾ÐºÑĢÐ°Ñī": 3340,
      "Ð¼ÐµÐ¹": 3341,
      "ÑĥÐ½Ð¾Ðº": 3342,
      "ĠÑģÑħÐ¾Ð¶Ðµ": 3343,
      "ĠÐ¿Ð¾ÐºÐ°Ð·ÑĥÑĶ": 3344,
      "ĠÐ°Ð²ÑĤÐ¾": 3345,
      "ĠÐ´Ð¾Ð´Ð°ÑĤ": 3346,
      "ĠÑħÐ²Ð¾ÑĢÐ¾Ð±Ð¸": 3347,
      "ĠÑģÑĤÑĥÐ´ÐµÐ½ÑĤÑĸÐ²": 3348,
      "ĠÐ¿ÑĢÐ¸ÑĩÐ¸Ð½Ð°": 3349,
      "Ġ&": 3350,
      "Ð°Ð²Ð¸": 3351,
      "ĠÐ¿ÑĢÐ¸Ð±ÑĥÑĤ": 3352,
      "ĠÑģÐ»ÑĸÐ²": 3353,
      "ĠÐ¿ÑĢÐ¾Ð±Ð»ÐµÐ¼Ð¾Ñİ": 3354,
      "ĠÐ¿Ð»Ð°ÑĤ": 3355,
      "ĠÐ¼Ð°Ð¹Ð±ÑĥÑĤÐ½ÑĮÐ¾Ð¼Ñĥ": 3356,
      "ĠÐ¾ÑģÐ²ÑĸÑĤÑĥ": 3357,
      "ĠÐ²ÐºÐ°Ð·": 3358,
      "ÑĤÐ°ÑĪ": 3359,
      "ÑĤÐ²Ð¾ÑĢÐ¸": 3360,
      "ÑıÐºÐ¸Ð¹": 3361,
      "Ð´Ð¶Ðµ": 3362,
      "ĠÐ´Ð¾Ð²Ñĸ": 3363,
      "ÑīÐ¾Ð±": 3364,
      "ĠÑĤÐµÐº": 3365,
      "ÑģÑĸÑİ": 3366,
      "ĠÐ¿ÐµÑĢÐµÐºÐ»Ð°Ð´": 3367,
      "ĠÐ¿Ð¾ÑĤÐµÐ½": 3368,
      "ĠÑģÐ»ÑĥÐ¶": 3369,
      "ĠÐ¶Ð¸Ð²ÐµÐ¼Ð¾": 3370,
      "ĠÐ¼Ð°Ð»ÐµÐ½ÑĮÐºÑĸ": 3371,
      "ĠÐ²Ð°ÑĢÑĸ": 3372,
      "ĠÑĥÑıÐ²Ð»ÐµÐ½Ð½Ñı": 3373,
      "ĠÑĩÐ¾Ð»Ð¾Ð²ÑĸÐºÐ°": 3374,
      "ĠÐ°ÑĦÑĢÐ¸ÑĨÑĸ": 3375,
      "ĠÐ¿ÑĢÐ¾ÑĦÐµÑģ": 3376,
      "ĠÐ½Ð°Ð¿ÑĢÑıÐ¼": 3377,
      "Ð¿Ð°Ð½Ð·Ðµ": 3378,
      "ĠÐ²Ð½ÑĥÑĤÑĢÑĸÑĪ": 3379,
      "ÑĩÐ½Ð¸Ð¼": 3380,
      "ĠÑĢÐ°Ð±": 3381,
      "Ð°Ð²ÑĪÐ¸": 3382,
      "Ð³ÑĤÐ¸": 3383,
      "Ð½ÑĥÑĤÑĮ": 3384,
      "ĠÐ¶Ð¾ÑĢÑģÑĤ": 3385,
      "ĠÐ¼ÐµÑĪÐº": 3386,
      "Ġ14": 3387,
      "ÑĤÐ¾ÑĢÑĸÐ²": 3388,
      "Ð½ÑĥÐ²ÑģÑı": 3389,
      "ĠÑħÐ°ÑĢÑĩ": 3390,
      "ĠÑħÑĥÐ´Ð¾Ð¶": 3391,
      "ĠÐ½ÐµÐ´Ð¾": 3392,
      "Ð³Ð°Ð½": 3393,
      "ĠÐ»ÑĸÐ²": 3394,
      "ĠÑģÐ²Ð¾ÑĶÑİ": 3395,
      "ĠÑģÐ¿ÑĢÐ°Ð²Ñĥ": 3396,
      "Ð½ÑĮÑĤÐµ": 3397,
      "ĠÐ¿Ð¾Ð·Ð¸ÑĤÐ¸Ð²": 3398,
      "ĠÑģÐ¿ÑĢÐ¾Ð±ÑĥÐ²Ð°ÑĤÐ¸": 3399,
      "ĠÐ¿Ð¸ÑģÑĮ": 3400,
      "ĠÐ²Ð½Ð¸Ð·": 3401,
      "ĠÐ½ÑĮÐ¾Ð¼Ñĥ": 3402,
      "Ð½ÑĸÑı": 3403,
      "Ð°Ð»ÑĤ": 3404,
      "ÑĪÐºÐ¸": 3405,
      "ĠÑĨÐ¸Ð²": 3406,
      "Ð¾Ð´Ð°": 3407,
      "Ð°ÐºÑĥ": 3408,
      "ÑĪÐµÐ½Ñĸ": 3409,
      "Ð°ÑĨÑĮ": 3410,
      "ĠÐ¹Ð¼Ð¾Ð²ÑĸÑĢ": 3411,
      "ĠÐ½Ð°ÑĪÐ¸Ð¼": 3412,
      "ĠÑıÐ·ÐºÑĥ": 3413,
      "ĠÐ¿Ð¾Ð¼ÑĸÑĤÐ¸": 3414,
      "ĠÑĥÑģÑĸÐ¼": 3415,
      "ĠÐ¿Ð°ÑĢÑĤ": 3416,
      "ĠÐ¿Ð¾Ð·Ð½Ð°Ñĩ": 3417,
      "ĠÑģÐµÑĢÑĨÐµ": 3418,
      "ĠÑģÑĥÑģÐ¿ÑĸÐ»ÑĮÑģÑĤÐ²Ð¾": 3419,
      "ĠÑģÑĤÐ°ÑĤÐ¸ÑģÑĤÐ¸": 3420,
      "ĠÑģÑĤÐ¾ÑģÑĥÑĶÑĤÑĮÑģÑı": 3421,
      "ĠÐ¿ÑĢÐ°ÑĨÑİÐ²Ð°Ð²": 3422,
      "Ġ90": 3423,
      "ĠÐ¾ÑģÐ½Ð¾Ð²Ñĸ": 3424,
      "ĠÐ±Ð°ÐºÑĤÐµÑĢ": 3425,
      "ĠÑĸÑĢ": 3426,
      "Ð¾ÑĢÑĸ": 3427,
      "ĠÐ»Ð°Ñģ": 3428,
      "Ð°ÑģÐ¸": 3429,
      "ĠÑĦÑĸÐ»": 3430,
      "ĠÐµÐ½": 3431,
      "ĠÑģÐ°Ð¼Ð¾Ð³Ð¾": 3432,
      "ĠÐºÐ¾Ð½ÐºÑĢÐµÑĤ": 3433,
      "ĠÐ¿ÑĢÐ¾Ð³ÑĢÐ°Ð¼Ð¸": 3434,
      "ĠÐ·Ð½Ð°Ð¹Ð¾Ð¼": 3435,
      "ĠÐ¼Ð¾ÑĹÐ¹": 3436,
      "ĠÐ½ÐµÐ·Ð°Ð»ÐµÐ¶": 3437,
      "ĠÐ²Ð¸Ð·Ð½Ð°ÑĩÐ¸ÑĤÐ¸": 3438,
      "ĠÐ¿Ð¾ÑıÑģÐ½Ð¸ÑĤÐ¸": 3439,
      "ĠÐ¿ÐµÑĩ": 3440,
      "Ð²Ð¾Ð»Ð¸": 3441,
      "ĠÐ¿ÑĸÐº": 3442,
      "ĠÐ´Ð½Ðº": 3443,
      "Ð¿ÑĸÑģÐ»Ñı": 3444,
      "ĠÐ±Ð°Ð»": 3445,
      "ĠÐ²Ð¸ÑĢÑĸ": 3446,
      "Ð°ÑĤÐ¸ÑĤÐ¸": 3447,
      "ĠÐ¿ÑĸÐ´Ñģ": 3448,
      "ĠÐ¾Ð´ÑıÐ³": 3449,
      "ĠÑģÑĥÑģÑĸÐ´": 3450,
      "ĠÑīÐ¾Ð´Ð½Ñı": 3451,
      "ĠÑĩÐ¾Ð³Ð¾ÑģÑĮ": 3452,
      "ĠÐ¿ÑĢÐ°ÑĨÑİÐ²Ð°Ð»Ð¸": 3453,
      "ĠÐ°Ð¼ÐµÑĢÐ¸ÑĨÑĸ": 3454,
      "ĠÐ´ÐµÑıÐºÐ¸Ñħ": 3455,
      "it": 3456,
      "ĠÐ·Ð²Ð¸Ñĩ": 3457,
      "Ð¿Ð¾Ð³": 3458,
      "ĠÑĩÑĥÐ»Ð¸": 3459,
      "Ð»ÑıÑĤÑĮÑģÑı": 3460,
      "ĠÐ¶ÑĸÐ½Ð¾": 3461,
      "Ð´ÐµÐ¼Ð¾": 3462,
      "Ð°Ð»ÑĮÐ½Ð¾Ñİ": 3463,
      "ĠÐµÑĤ": 3464,
      "ĠÐ¼ÐµÐ¶Ñĸ": 3465,
      "ÑĢÐ¾ÑĦ": 3466,
      "Ð¾Ð´Ð¸Ñģ": 3467,
      "ĠÐ²Ð°ÑĪÑĥ": 3468,
      "ĠÐ·Ð½Ð°Ð¹ÑĪÐ»Ð¸": 3469,
      "ÑĪÑĤÐ°Ð»ÑĤ": 3470,
      "ĠÐ±Ð°ÑĤÑĮÐºÐ¸": 3471,
      "ĠÐ½Ð°ÑģÑĤÑĥÐ¿Ð½Ð¾Ð³Ð¾": 3472,
      "ĠÐ´Ð¸ÑĤÐ¸Ð½": 3473,
      "ĠÐºÐ¾ÑĢÐ¸Ñģ": 3474,
      "an": 3475,
      "ou": 3476,
      "Ð½Ð°ÑĤÐ¸": 3477,
      "ÑģÐ¾Ð¼": 3478,
      "ĠÐ¿Ð°Ð´": 3479,
      "Ð¾Ð²Ð½Ñĸ": 3480,
      "Ð¾Ð²Ð°Ð½Ð¾": 3481,
      "ĠÐºÐ¸Ð¼": 3482,
      "ĠÐ¿ÑĢÐ¾Ð·": 3483,
      "Ð³Ñĸ": 3484,
      "ĠÐ°Ð¶": 3485,
      "ĠÐ°Ð¿Ð»": 3486,
      "ÑĥÐ²Ð°Ð½ÑĮ": 3487,
      "ĠÐ¼Ð¸ÑĢ": 3488,
      "Ð»ÐµÑĤ": 3489,
      "ĠÐ½Ð°Ð´Ð·Ð²Ð¸ÑĩÐ°Ð¹": 3490,
      "Ð¸Ð¼Ð¾ÑģÑı": 3491,
      "ĠÐ²Ð¸Ð³Ð¾ÑĤÐ¾Ð²": 3492,
      "ÐºÐ¾Ð²Ð¸Ñħ": 3493,
      "ĠÐ³Ð¾Ð²Ð¾ÑĢÑıÑĤÑĮ": 3494,
      "Ð½Ð°Ð¹Ð¼Ð½Ñĸ": 3495,
      "ĠÑģÑĤÑĥÐ´ÐµÐ½ÑĤ": 3496,
      "ÑĥÑĩÐ¸ÑĤÑĮ": 3497,
      "ĠÐ²ÑĤÑĢÐ°Ñĩ": 3498,
      "Ð½Ð¸ÑĨÑĤÐ²Ð¾": 3499,
      "ĠÐ½ÐµÐ²ÐµÐ»Ð¸": 3500,
      "ĠÑĩÐ¸ÑģÐ»Ð¾": 3501,
      "ĠÐ³Ð°Ð»Ð°ÐºÑĤÐ¸": 3502,
      "Ð´ÑĢÑĥÐ³Ðµ": 3503,
      "ĠÐ²ÑĢÑı": 3504,
      "ĠÐ¼Ð¾Ð½": 3505,
      "ĠÐºÐ°ÑĤ": 3506,
      "ĠÐºÑĪÑĤÐ°Ð»ÑĤ": 3507,
      "ĠÑĢÐ°Ñħ": 3508,
      "Ð¾Ð³Ñĥ": 3509,
      "Ð½Ð¾Ñģ": 3510,
      "ĠÐ°ÑĤ": 3511,
      "ĠÐ²ÑĸÐ´Ð¾Ð±ÑĢÐ°Ð¶": 3512,
      "ĠÑĤÐ°ÐºÐ¾Ñİ": 3513,
      "ÑĩÐ¸Ð»Ð¸": 3514,
      "Ġ11": 3515,
      "ĠÐ²ÐµÐ»Ð¸ÐºÐ¸Ñħ": 3516,
      "ĠÑģÑĤÐ²Ð¾ÑĢÑİÑĶ": 3517,
      "ĠÐ²Ð»Ð°ÑģÐ½Ñĸ": 3518,
      "ĠÐ»ÐµÐ¶": 3519,
      "ĠÐ±ÑĢÐ¸ÑĤ": 3520,
      "ĠÐ´Ð¾Ð¿Ð¾Ð¼Ð¾Ð³Ð¸": 3521,
      "ĠÑģÑĥÑģÐ¿ÑĸÐ»ÑĮÑģÑĤÐ²Ð°": 3522,
      "ĠÐ½Ð°Ð¿Ð¸ÑģÐ°Ð²": 3523,
      "ĠÑĦÑĸÐ·Ð¸Ñĩ": 3524,
      "ĠÐ³Ð¾Ð²Ð¾ÑĢÐ¸ÑĤÑĮ": 3525,
      "ĠÐ²Ð·Ð°ÑĶÐ¼Ð¾Ð´": 3526,
      "ĠÐ¿ÑĸÐ·Ð½ÑĸÑĪÐµ": 3527,
      "ĠÑĢÑĸÐ·Ð½Ð¾Ð¼Ð°Ð½ÑĸÑĤ": 3528,
      "ÑıÑĩÐ¸": 3529,
      "ĠÐ´Ð¶Ðµ": 3530,
      "Ð¿ÑĸÐ²": 3531,
      "Ð½Ð¾ÑĩÑĸ": 3532,
      "ĠÑģÑĤÐ¾Ð²": 3533,
      "ĠÑĸÐ½Ð¶ÐµÐ½": 3534,
      "ÑĢÐ¸Ð±": 3535,
      "ÑĦÑĸÐº": 3536,
      "ĠÑĪÐ¸Ð¼": 3537,
      "ĠÐ¼ÑĸÑģÑĤÐ¸": 3538,
      "ĠÐµÐ¿": 3539,
      "Ð¾Ð´Ð¸ÑĤÐµ": 3540,
      "Ð»Ð¸Ð²Ð¸Ñħ": 3541,
      "Ð¾Ð²ÑĥÑİÑĤÑĮ": 3542,
      "ĠÐ»Ð¸ÑĪ": 3543,
      "ĠÑĢÐ¾Ð±Ð¾ÑĤÑĸ": 3544,
      "ĠÐ²Ð¸ÑģÐ½Ð¾Ð²": 3545,
      "ĠÐ·ÑĢÐ¾Ð·ÑĥÐ¼ÑĸÐ»Ð¸": 3546,
      "Ð´Ð°Ð²Ð°Ð¹ÑĤÐµ": 3547,
      "ĠÐ¼Ð°Ð¼Ð°": 3548,
      "ĠÐ¿Ð¾Ð²ÑĸÐ´Ð¾Ð¼Ð»ÐµÐ½Ð½Ñı": 3549,
      "Ġqu": 3550,
      "Ð½ÑİÑĶ": 3551,
      "Ð²Ñĥ": 3552,
      "ĠÐ²ÑĢÐµÑĪÑĤÑĸ": 3553,
      "ĠÐ±ÑĢÑĥ": 3554,
      "ĠÑĥÐ´": 3555,
      "Ð³ÑĢ": 3556,
      "Ð°Ð´Ñĸ": 3557,
      "ĠÐ²ÑĸÐ´Ð¼Ð¾Ð²": 3558,
      "ĠÐ²ÑĸÐ´ÑĤÐ²Ð¾ÑĢ": 3559,
      "ÑģÑĤÑĸÑĪÐµ": 3560,
      "Ð»ÑİÑİÑĤÑĮ": 3561,
      "ĠÐ¶Ð¸ÑĤÑĤÑĶ": 3562,
      "ĠÐ²ÐµÐ»Ð¸ÐºÑĥ": 3563,
      "ĠÐ¿Ð¾Ð±Ð°ÑĩÐ¸Ð»Ð¸": 3564,
      "ĠÐ²ÑĸÑĢÐ¸": 3565,
      "ĠÐ±ÑĸÐ·Ð½Ðµ": 3566,
      "ĠÐ´ÑĸÑıÐ»ÑĮ": 3567,
      "ĠÐ´Ð°Ð»ÐµÐºÐ¾": 3568,
      "ĠÐ½ÐµÐ¼Ð¾Ð¶Ð»Ð¸Ð²Ð¾": 3569,
      "ĠÑĸÐ½ÑĤÐµÐ»ÐµÐºÑĤÑĥ": 3570,
      "ĠÑĤÑĥÑĢÐ±": 3571,
      "ĠÐ½Ð°Ð¿ÐµÐ²Ð½Ð¾": 3572,
      "ĠÐ²ÑĸÐ´Ð¿Ð¾Ð²Ñĸ": 3573,
      "Ð½Ð¾ÑĢ": 3574,
      "ÑĥÑģÐµ": 3575,
      "ĠÐ±Ð¾Ð»": 3576,
      "Ð»ÐµÐ½Ð¸Ñħ": 3577,
      "ĠÑĤÐ°ÐºÐ¾ÑĹ": 3578,
      "ĠÐ½Ð°Ð²Ð¿": 3579,
      "ĠÐ·ÑĢÐ¾Ð±Ð¸Ð»Ð°": 3580,
      "ÑĥÐ½ÐºÐ¸": 3581,
      "ĠÐ½ÐµÐ¼Ð¾Ð²": 3582,
      "ĠÐ½Ð°Ð·Ð¸Ð²Ð°ÑĶÐ¼Ð¾": 3583,
      "ÑĥÐ±Ð»ÑĸÐº": 3584,
      "ĠÑĤÐ¸Ð¶Ð´ÐµÐ½ÑĮ": 3585,
      "ĠÐ²Ð¸ÐºÐ¾ÑĢÐ¸ÑģÑĤÐ¾Ð²ÑĥÑİÑĩÐ¸": 3586,
      "ĠÐ¿ÑĢÐ°Ð²Ð¸Ð»ÑĮÐ½Ð¾": 3587,
      "ĠÐºÐ°Ð¿ÑĸÑĤ": 3588,
      "ĠÑĸÐ½ÑģÑĤÐ¸ÑĤÑĥ": 3589,
      "Ð¸Ð½Ñĸ": 3590,
      "ĠÐ²Ð²": 3591,
      "Ð¾Ð²ÑĥÐ²Ð°ÑĤÐ¸": 3592,
      "ĠÐ±Ñİ": 3593,
      "Ð»Ð¸Ð½Ñĥ": 3594,
      "Ð´Ð¸ÑĤÐ¾ÑĢ": 3595,
      "ĠÑĹÐ¶Ñĸ": 3596,
      "ÐºÐ°Ð½Ð¸": 3597,
      "ĠÐ¼ÑĸÑģÑĤÑĸ": 3598,
      "ĠÐ¼ÐµÐ´Ñĸ": 3599,
      "ĠÐ¿ÑĸÐ´ÑĸÐ¹": 3600,
      "ĠÑģÐ¸Ð»Ð°": 3601,
      "ÑĥÐ²Ð°Ð½Ð½ÑıÐ¼": 3602,
      "ĠÐ¼Ð¾Ð»Ð¾Ð´Ñĸ": 3603,
      "ĠÐ·Ð°Ð³ÑĢÐ¾Ð·": 3604,
      "ĠÐ²ÑĸÐ¹ÑģÑĮÐº": 3605,
      "Ð½Ð°Ð²ÑĸÑĤÑĮ": 3606,
      "ĠÑĪÐ¸Ð¼Ð¿Ð°Ð½Ð·Ðµ": 3607,
      "ĠÐ²Ñĥ": 3608,
      "ÑĤÐ¸Ð²Ñĸ": 3609,
      "ĠÑĤÑĢÐ°Ð²": 3610,
      "Ð¿Ð¾Ðº": 3611,
      "Ð¾Ð¼Ðµ": 3612,
      "ÑĤÐµÐºÑĤÑĥ": 3613,
      "ĠÐ¼Ð¸ÑĤ": 3614,
      "ÑĢÐµÐº": 3615,
      "ĠÐ¾Ð±Ð¾Ð²": 3616,
      "ĠÐ¿Ð¾ÑĤÑĥÐ¶": 3617,
      "ĠÑĸÐ½ÑĪÐ¾ÑĹ": 3618,
      "Ð¸Ð»Ð¸ÑģÑĮ": 3619,
      "ÑĸÑĩÐ½Ð¾": 3620,
      "ĠÐ¿Ð¾ÑĩÑĥÑĤÑĤÑı": 3621,
      "Ð°Ð»ÑĸÑģÑĤÐ¸": 3622,
      "ĠÑģÐ¿ÑĢÐ°Ð²Ð¸": 3623,
      "ĠÐ½Ð¾Ð²Ðµ": 3624,
      "ĠÐ²ÑĸÑĨÑĸ": 3625,
      "ĠÐºÐ½Ð¸Ð³Ð¸": 3626,
      "ĠÐ·ÑĥÑģÑĤÑĢ": 3627,
      "ĠÐºÑĸÐ½ÑĨÑı": 3628,
      "ĠÐ·Ð°ÑĢÐ°Ð´Ð¸": 3629,
      "Ð¼Ð¾Ð¶Ð½Ð°": 3630,
      "ĠÑĤÐ¸Ð¶Ð½ÑĸÐ²": 3631,
      "ĠÐºÑĢÑĸÐ·ÑĮ": 3632,
      "ÑĢÐµÑĪÑĤÐ¾Ñİ": 3633,
      "ĠÐºÐ¾Ð½ÑĦÐ»ÑĸÐº": 3634,
      "ĠÐ·Ð²ÑĸÐ´ÐºÐ¸": 3635,
      "ĠâĻ«": 3636,
      "Ġquot": 3637,
      "ĠÑĥÑĩÐ°Ñģ": 3638,
      "Ð»ÐµÐ¹": 3639,
      "ĠÑģÐ¿Ð¾ÑĢ": 3640,
      "ĠÑģÐ¿Ð¾ÑĩÐ°ÑĤÐºÑĥ": 3641,
      "ĠÑĢÐ¾Ð·ÑĪÐ¸ÑĢ": 3642,
      "ĠÑĸÐ½Ð¾Ð´Ñĸ": 3643,
      "Ð°Ð»ÑĮÐ½Ð¸Ð¼Ð¸": 3644,
      "ĠÑģÐ°Ð¼Ð¾ÑĤ": 3645,
      "ĠÑģÐ¸Ð»Ð¸": 3646,
      "ÑģÐ¸Ð»ÑĮ": 3647,
      "ĠÐ²Ð¸ÐºÐ»Ð°Ð´": 3648,
      "ĠÐ²Ð°ÑĪÐ¾Ð¼Ñĥ": 3649,
      "ĠÐºÐ¾Ð»ÐµÐ´": 3650,
      "ĠÐ´ÑĸÐ²ÑĩÐ¸Ð½": 3651,
      "ĠÐ²ÐºÐ»ÑİÑĩ": 3652,
      "Ð¾Ð´Ð¸ÑģÐ¼ÐµÐ½ÑĤÐ¸": 3653,
      "Ð¾ÑģÑĤ": 3654,
      "ÑĤÐ°Ð¼Ð¸": 3655,
      "ĠÐ²ÑģÑı": 3656,
      "ĠÑģÑĸÑĤ": 3657,
      "ÑİÑİÑĤÑĮÑģÑı": 3658,
      "Ð½ÑĸÑģ": 3659,
      "ĠÐ²Ð¸ÑģÑĤÐ°Ð²": 3660,
      "ĠÐ°ÐºÑĥ": 3661,
      "ĠÐ¿ÑĢÐ¸Ð½Ð°Ð¹Ð¼Ð½Ñĸ": 3662,
      "ĠÐ¿ÐµÑĢÐµÐ²ÑĸÑĢ": 3663,
      "ĠÐ²ÐµÐ±": 3664,
      "ĠÐ²Ð°ÑĪÐµ": 3665,
      "Ð¼ÐµÐ½Ðµ": 3666,
      "ĠÐ²Ð¸Ð±ÑĥÑħ": 3667,
      "ĠÑĢÐ¾Ð·Ð²Ð¸ÑĤÐ¾Ðº": 3668,
      "ĠÐ³Ð¾Ð²Ð¾ÑĢÐ¸Ð»Ð¸": 3669,
      "ĠÐ´Ð¾Ð¼Ð°ÑĪ": 3670,
      "Ġ70": 3671,
      "ĠÑĤÐµÐ»ÐµÑĦÐ¾Ð½": 3672,
      "ĠÑĸÐ½Ð´ÑĥÑģÑĤÑĢÑĸ": 3673,
      "ÑĸÐ½Ð¸": 3674,
      "ĠÑĥÑıÐ²ÑĸÑĤÑĮ": 3675,
      "Ð·Ð½Ð°Ð¹": 3676,
      "ĠÐºÐ¾Ð¶Ð½Ð°": 3677,
      "ĠÐ²Ð°ÑĪÐ°": 3678,
      "ĠÐºÐ¾Ð»ÐµÐº": 3679,
      "ĠÑģÐ¸ÑģÑĤÐµÐ¼": 3680,
      "ĠÑģÐºÐ»Ð°Ð´Ð½Ð¾": 3681,
      "ĠÐ»ÑİÐ´ÑģÑĮÐºÐ¾Ð³Ð¾": 3682,
      "ĠÐºÑĸÐ½ÑĨÑĸ": 3683,
      "ĠÑĢÐµÐ·ÑĥÐ»ÑĮÑĤÐ°ÑĤÑĸ": 3684,
      "ĠÐºÐ°Ð·Ð°Ð²": 3685,
      "ĠÐ¼Ð¸ÑģÑĤÐµÑĨÑĤÐ²Ð¾": 3686,
      "ĠÐ²Ð°Ðº": 3687,
      "Ð¼ÑĸÐ¹": 3688,
      "ĠÑģÑĸÐ»ÑĮ": 3689,
      "ĠÐ´Ð·": 3690,
      "ĠÐ´Ð°ÑİÑĤÑĮ": 3691,
      "ÐµÐ½Ñģ": 3692,
      "Ð¶Ð°": 3693,
      "ĠÑĩÐ¸Ð¼Ð¾ÑģÑĮ": 3694,
      "ĠÐ¿Ð¾Ð½ÑıÑĤÑĤÑı": 3695,
      "ÑĨÑĸÐºÐ°Ð²": 3696,
      "ĠÑĤÐµÑģÑĤ": 3697,
      "ĠÑĦÐ°ÑĢ": 3698,
      "ĠÐ´ÐµÐ¼Ð¾Ð½": 3699,
      "ĠÑģÐºÐ°Ð¶Ñĥ": 3700,
      "ĠÐ¾Ð¿ÑĤÐ¸": 3701,
      "ÑİÐ²Ð°Ð²": 3702,
      "ĠÐ·Ð²ÑĸÐ»ÑĮ": 3703,
      "ĠÐ¿ÑĢÐ°Ð²Ð¾": 3704,
      "ĠÐºÑĸÐ»ÑĮÐºÐ¾Ñħ": 3705,
      "ĠÐ½ÐµÐ²Ð´": 3706,
      "ĠÐ·Ð½Ð°ÑħÐ¾Ð´ÑıÑĤÑĮÑģÑı": 3707,
      "ĠÐ°ÑĢÑħÑĸÑĤÐµÐºÑĤÑĥ": 3708,
      "50": 3709,
      "ac": 3710,
      "at": 3711,
      "ĠÐ²ÐºÑĢ": 3712,
      "ĠÐ½Ð¾Ñģ": 3713,
      "Ð¾Ð²Ð¸Ð¼Ð¸": 3714,
      "ĠÐºÐ»ÑİÑĩ": 3715,
      "Ð±ÐµÑĢ": 3716,
      "ÑĨÐµÐ½": 3717,
      "ĠÑĥÐ½Ð¸Ðº": 3718,
      "ĠÐ±ÑĥÐºÐ²": 3719,
      "ÐºÑĥÑĢ": 3720,
      "ĠÑĪÐ¼Ð°ÑĤ": 3721,
      "ĠÑĢÐµÐ¹": 3722,
      "ĠÐ´ÐµÑĪÐµ": 3723,
      "ĠÐ¾ÑģÐ²ÑĸÑĤ": 3724,
      "ĠÐ·Ð²ÐµÑĢÑĤ": 3725,
      "ĠÐ¿ÐµÑĢÑģÐ¾Ð½": 3726,
      "ĠÑĢÐ¾Ð·ÑĥÐ¼ÑĸÑĤÐ¸": 3727,
      "ĠÐ¿ÑĢÐ¾Ð³ÑĢÐ°Ð¼Ñĥ": 3728,
      "ĠÐºÐ¾ÑĢÐ¸ÑģÑĤÑĥÐ²": 3729,
      "ĠÐ·ÑĢÐ¾ÑģÑĤÐ°Ð½Ð½Ñı": 3730,
      "ĠÐ³Ð¾Ð´Ð¸Ð½Ð¸": 3731,
      "Ð¾ÐºÑĢÐµÐ¼Ð°": 3732,
      "ĠÑģÐ¾Ð½Ñı": 3733,
      "om": 3734,
      "Ð»ÑĸÐ½Ð½Ñı": 3735,
      "ĠÐ¿ÑĤÐ°Ñħ": 3736,
      "ĠÐ±ÑĸÐ±": 3737,
      "ĠÐ²Ð¸Ñħ": 3738,
      "ĠÐ²Ð¸Ñī": 3739,
      "ĠÐ²Ð¸Ð¶Ð¸Ð²": 3740,
      "Ð¾ÑĤÑĢÐ¸Ð¼": 3741,
      "ĠÐ¿ÐµÑĢÐµÑģ": 3742,
      "ĠÐ¿Ð¾Ð´Ð¾Ð»": 3743,
      "ĠÑģÐ¸Ð»": 3744,
      "Ð²Ð°Ð¶Ð°ÑİÑĩÐ¸": 3745,
      "ĠÐ¿Ð¾ÑĢÑĥÑĩ": 3746,
      "ĠÑĪÐ»ÑıÑħÑĥ": 3747,
      "ĠÐ²Ð¾Ð´Ð°": 3748,
      "ĠÐ·Ð´Ð°ÑĤÐ½ÑĸÑģÑĤÑĮ": 3749,
      "ĠÐ¿ÑĢÐ¾Ð¼Ð¸": 3750,
      "ĠÐ²ÑĸÐ·ÑĮ": 3751,
      "ĠÑģÑĥÐ¼Ð½ÑĸÐ²": 3752,
      "ĠÑĸÑģÐ½ÑĥÐ²Ð°Ð½Ð½Ñı": 3753,
      "ĠÐ¼ÑĥÑģÐ¸Ð¼Ð¾": 3754,
      "ĠÑĥÑģÐ¿ÑĸÑħÑĥ": 3755,
      "ĠÐ´Ð¾Ð·Ð²Ð¾Ð»ÑıÑĶ": 3756,
      "ĠÐ¿ÑĥÐ±Ð»Ñĸ": 3757,
      "es": 3758,
      "ic": 3759,
      "Ð´Ð°ÑĤ": 3760,
      "ĠÑĤÐ°Ð±": 3761,
      "ĠÑĢÐ¾Ð¼": 3762,
      "ĠÐ¾ÑģÑĤÑĢ": 3763,
      "Ð¶Ð¸ÑĤÐ¸": 3764,
      "ĠÐ³Ñĥ": 3765,
      "ĠÑģÐ¿Ð¾Ðº": 3766,
      "ĠÐ¿ÑĢÐ¸Ð¿": 3767,
      "ĠÐ·Ð½Ð°Ð¹ÑĪÐ¾Ð²": 3768,
      "ĠÐ°Ð½Ð°Ð»ÑĸÐ·": 3769,
      "ĠÐ¼Ð°Ð¹Ð±ÑĥÑĤÐ½ÑĮÐ¾Ð³Ð¾": 3770,
      "ĠÑĦÐ¾ÑĢÐ¼Ð¸": 3771,
      "ĠÐ¿Ð¾ÑĢÑĸÐ²Ð½Ñı": 3772,
      "ĠÑĤÐ¾ÑĢÐ³ÑĸÐ²": 3773,
      "ĠÐ·Ð°Ð´Ð¾Ð²Ð¾Ð»ÐµÐ½Ð½Ñı": 3774,
      "ĠÐ°Ð¿Ð»Ð¾Ð´Ð¸ÑģÐ¼ÐµÐ½ÑĤÐ¸": 3775,
      "ĠÐ¿ÑĸÑĢ": 3776,
      "ÐµÑĢÐµÐ½": 3777,
      "ÑĤÑĮÐ¼Ð¸": 3778,
      "ĠÑĥÑĩ": 3779,
      "ĠÑģÐ¿Ð°Ð´": 3780,
      "ĠÐ¿ÐµÑĢÐµÐ¼": 3781,
      "ĠÐ¿ÑĸÐ´Ð»ÑĸÑĤ": 3782,
      "ĠÐºÑĢÐ¸ÑĤÐ¸": 3783,
      "ÐºÐ¾Ð²Ð¸Ð¹": 3784,
      "ĠÐ¼ÑĸÑģÑıÑĨÑĸ": 3785,
      "ĠÐ·Ð°ÑħÐ²Ð¾ÑĢÑİÐ²Ð°Ð½Ð½Ñı": 3786,
      "ĠÑĤÑĢÐ°Ð´Ð¸ÑĨÑĸÐ¹": 3787,
      "Ð»Ð°ÑĪ": 3788,
      "ĠÐ²Ð¸Ð´Ð¸": 3789,
      "Ð°ÐºÑĪÐµ": 3790,
      "Ð²Ð¾Ð½Ð¾": 3791,
      "Ð°ÑĤÑĸ": 3792,
      "Ð¼Ð¸ÑĢ": 3793,
      "ĠÐ´ÑĸÑĤÑĮÐ¼Ð¸": 3794,
      "Ð·Ð½Ð°ÑĶÑĤÐµ": 3795,
      "ĠÐ²Ð¸Ð³Ð°Ð´": 3796,
      "ĠÐ¿Ð¾Ð²ÐµÑĢÐ½Ñĥ": 3797,
      "ĠÐ¿ÑĢÐ¸Ð¹ÑĪÐ¾Ð²": 3798,
      "ĠÐ¼Ð¾ÑĹÐ¼": 3799,
      "ĠÐ±ÑĢÐ°ÑĤÐ¸": 3800,
      "ĠÐ¼Ð°Ð»ÐµÐ½ÑĮÐºÐ¸Ð¹": 3801,
      "ĠÐ²ÑĸÑĢÑİ": 3802,
      "ĠÐºÐµÑĢÑĸÐ²": 3803,
      "ĠÐ¿Ð¸ÑģÐ°ÑĤÐ¸": 3804,
      "ĠÑĢÐ°Ð½ÐºÑĥ": 3805,
      "ĠÐ²ÑĸÐ´ÐºÑĢÐ¸": 3806,
      "ÑĤÐ¾Ð½": 3807,
      "ĠÐ¿Ð»Ñı": 3808,
      "ĠÐ¿Ð°Ñģ": 3809,
      "ĠÐ½Ð¾Ð¼": 3810,
      "ĠÐ½Ð¾Ð²Ñĥ": 3811,
      "ĠÑĤÐºÐ°Ð½Ð¸": 3812,
      "ĠÐ¿ÑĢÐ¾Ð¶Ð¸Ð²": 3813,
      "ĠÐ¿ÑĢÐ°ÐºÑĤÐ¸": 3814,
      "ÐºÑĥÐ»ÑĮ": 3815,
      "ĠÐ·Ð½Ð°Ð»Ð°": 3816,
      "ĠÐ¿ÑĢÐ¸Ð·Ð½Ð°Ñĩ": 3817,
      "ĠÑĦÐ¾Ð½": 3818,
      "Ġ16": 3819,
      "ÑĸÑĩÐ½Ð¸Ñħ": 3820,
      "ĠÐ´ÑĥÐ¼ÐºÐ¸": 3821,
      "ĠÐ·Ð²ÑĥÑĩÐ¸ÑĤÑĮ": 3822,
      "ĠÐ²ÑĸÐ´Ð¿Ð¾Ð²ÑĸÐ´Ñĸ": 3823,
      "ĠÐ¿ÑĢÐ¾Ð²Ð¾Ð´": 3824,
      "Ð½ÑĸÑĪÐ¸Ð¼": 3825,
      "ĠÐºÐ¾Ð¼Ð¿Ð°Ð½ÑĸÐ¹": 3826,
      "ĠÐ´Ð¾ÐºÐ°Ð·": 3827,
      "ĠÐ¶Ð¾Ð´Ð½Ð¾Ð³Ð¾": 3828,
      "ĠÑĸÐ½ÑģÑĤÑĢÑĥÐ¼ÐµÐ½ÑĤ": 3829,
      "ĠÐ²Ð¸Ð½Ð°Ñħ": 3830,
      "ĠÐ³Ð°Ð»ÑĥÐ·Ñĸ": 3831,
      "ĠÑĢÐ°Ð¿ÑĤÐ¾Ð¼": 3832,
      "Ġl": 3833,
      "ÑĤÐ½Ñĸ": 3834,
      "Ð²ÑģÑĸ": 3835,
      "ÑıÐºÐ°": 3836,
      "Ð´Ð¾Ð±": 3837,
      "ÑģÑĤÐ¾Ð¼": 3838,
      "ĠÐ±ÑĢÐµ": 3839,
      "ĠÑĸÐ´ÐµÐ¹": 3840,
      "Ð¾Ð»Ðµ": 3841,
      "ĠÐ²Ð¸ÑħÐ¾Ð´Ð¸ÑĤÑĮ": 3842,
      "Ð°Ð´Ð¶Ðµ": 3843,
      "ĠÑģÐ°Ð¼Ð¸Ñħ": 3844,
      "ĠÑĤÑĢÐµÐ½": 3845,
      "ĠÐ·Ð±ÐµÑĢÑĸÐ³": 3846,
      "ĠÑĢÑĥÑħÑĥ": 3847,
      "ĠÐ²Ð´Ð°Ð»Ð¾ÑģÑı": 3848,
      "ĠÑģÐ¸ÑĤÑĥÐ°ÑĨÑĸÑĹ": 3849,
      "ĠÐ´Ð¸Ð·Ð°Ð¹Ð½ÐµÑĢ": 3850,
      "ĠÐ²Ð¸Ð¼ÑĸÑĢ": 3851,
      "gle": 3852,
      "ĠÐ¿Ð»Ð¾": 3853,
      "ĠÐ·Ð°Ñĩ": 3854,
      "ĠÐ·ÑĸÑĤ": 3855,
      "ĠÐ´Ð°Ð»Ð¸": 3856,
      "ĠÐ´ÑĸÑĹ": 3857,
      "ÐµÐ½Ð½Ñİ": 3858,
      "Ð°Ð½ÑĸÐ²": 3859,
      "ĠÑĢÐ¾Ð±Ð»Ñİ": 3860,
      "ĠÐ¾Ð´Ð½ÑĸÐ¹": 3861,
      "ĠÐ±ÑĸÐ»ÑĮÑĪÐ¾ÑģÑĤÑĸ": 3862,
      "ĠÐ¼ÑĸÑģÑĨÑĮ": 3863,
      "ĠÐ²Ð¿ÑĢÐ¾Ð´Ð¾Ð²Ð¶": 3864,
      "ĠÐ²ÑĸÑģÑĸÐ¼": 3865,
      "ĠÐ²Ð´Ð¾Ð¼Ð°": 3866,
      "ĠÐ¼Ð°ÑĤÐµÑĢÑĸÐ°Ð»": 3867,
      "ĠÑĩÐ¾ÑĤÐ¸ÑĢ": 3868,
      "ĠÐ±ÑĥÐ´Ð¸Ð½ÐºÑĥ": 3869,
      "ĠÐ¾Ð´Ð½ÑĸÑĶÑİ": 3870,
      "ĠÐ±ÐµÐ½": 3871,
      "ĠÐ¾ÑĦÑĸ": 3872,
      "Ð¾Ð´Ð¾Ð±": 3873,
      "ĠÐ²Ð¸ÐºÐ¸": 3874,
      "ĠÐ²Ð¸ÐºÐ¾": 3875,
      "ĠÐ²Ð¸ÑģÐ»Ð¾Ð²": 3876,
      "Ð°Ð½Ð¾Ð³Ð¾": 3877,
      "ĠÑĢÐ¾Ð·Ð»Ð°Ð´": 3878,
      "ÑĢÑĸÑĹ": 3879,
      "ĠÑĪÐºÑĸ": 3880,
      "ĠÑĦÐ°Ð½ÑĤ": 3881,
      "ĠÑĤÑĢÐ°Ð½Ñģ": 3882,
      "ÑĢÑıÐ´": 3883,
      "ĠÐ²Ð²Ð°Ð¶Ð°ÑİÑĤÑĮ": 3884,
      "Ð²ÐµÑĢÐ´": 3885,
      "ĠÐ½Ð°Ð·Ð¸Ð²Ð°ÑİÑĤÑĮ": 3886,
      "ĠÐºÐ¾Ð¼Ð¿Ð°Ð½ÑĸÑı": 3887,
      "ĠÑģÐ¾ÑĨÑĸÐ°Ð»ÑĮÐ½Ñĸ": 3888,
      "ĠÑıÑĤÐ°Ñİ": 3889,
      "ĠÑĢÐ¾Ð·Ð¼ÑĸÑĢ": 3890,
      "ĠÐ¼ÑĸÑģÑĨÑıÑħ": 3891,
      "ĠÐ·Ð´Ð°ÑĤÐ½Ñĸ": 3892,
      "ĠÑĪÐºÐ¾Ð»Ñĥ": 3893,
      "ĠÑĸÐ½Ð´Ð¸Ð²": 3894,
      "ĠÑĦÑĥÐ½Ð´Ð°Ð¼": 3895,
      "ĠÐ½ÐµÐ±ÐµÐ·Ð¿Ðµ": 3896,
      "ĠÐ¿ÑĸÑĪÐ¾Ð²": 3897,
      "Ð¾Ð´Ð°Ð²Ð½Ð¾": 3898,
      "Ð¸ÑĢÐ¾": 3899,
      "Ð½Ð¾Ð¿": 3900,
      "ÑĩÐ¾ÑĹ": 3901,
      "ĠÑĸÑģÐ»": 3902,
      "ĠÐ½ÐµÑģÐ¿": 3903,
      "ĠÑģÑĤÐ¾ÑĹ": 3904,
      "ÐµÐºÑĤ": 3905,
      "ĠÐ¿ÑĢÐ°ÑĨÑİÑİ": 3906,
      "ĠÐ¶Ð¸ÑĤÑĤÑıÐ¼": 3907,
      "ĠÐºÐ¾ÑĢÐ¾Ð±": 3908,
      "ĠÐ·Ð¼ÑĸÐ½ÑİÐ²Ð°ÑĤÐ¸": 3909,
      "ĠÐ¼ÑĸÑģÑıÑĨÑĮ": 3910,
      "ĠÐ½Ð°ÑĢÐ¾Ð´Ð¶ÐµÐ½Ð½Ñı": 3911,
      "ĠÑģÐ¸Ð¼Ð²Ð¾Ð»": 3912,
      "ĠÐ±ÐµÐ·Ð¿ÐµÐºÐ¸": 3913,
      "ĠÐµÐ»ÐµÐºÑĤÑĢÐ¾Ð½": 3914,
      "ĠÐ¼Ð¾Ð´ÐµÐ»Ñĸ": 3915,
      "ĠÐ·Ð¼Ð¾Ð¶ÑĥÑĤÑĮ": 3916,
      "ĠÐ½ÐµÐ¿ÑĢÐ°Ð²Ð¸Ð»ÑĮ": 3917,
      "ĠÐ°ÑĥÐ´Ð¸ÑĤÐ¾ÑĢ": 3918,
      "ĠÐ¿Ð°ÑĢÑĤÐ½ÐµÑĢ": 3919,
      "ĠÐ¼ÐµÐ´ÑĸÐ°": 3920,
      "et": 3921,
      "Ð¿Ð¾Ð¼": 3922,
      "ÑģÑĤÐ°Ð½Ñĸ": 3923,
      "Ð½ÑĸÑĤÑĮ": 3924,
      "ĠÐ¼Ð¸ÑģÐ»ÐµÐ½Ð½Ñı": 3925,
      "ĠÐ¶Ð¸ÑĤÐµ": 3926,
      "ĠÑĤÐ°ÐºÐ¾Ð¼Ñĥ": 3927,
      "Ð¸ÑĤÐ¾ÑĢ": 3928,
      "Ð½ÐµÐ½Ñĸ": 3929,
      "ÑĢÑĥÐ½": 3930,
      "ĠÐ¼ÑĸÐ½Ñĸ": 3931,
      "ÑĸÑĩÐ½Ð¾Ð³Ð¾": 3932,
      "ĠÐ²ÑĸÐ´Ð±Ñĥ": 3933,
      "ĠÐ²ÑĸÐ´Ð¿Ð¾Ð²ÑĸÐ´Ð°ÑĶ": 3934,
      "ĠÑĩÑĥÐ´Ð¾Ð²Ð¸Ð¹": 3935,
      "ĠÐ¿ÑĢÐ¸ÑĩÐ¸Ð½Ð¸": 3936,
      "ĠÐ½Ð°ÑģÐ»ÑĸÐ´ÐºÐ¸": 3937,
      "Ð°Ñĥ": 3938,
      "ÑĢÐ°ÑĪ": 3939,
      "ĠÑģÐ¾Ð»": 3940,
      "ĠÑģÐ°Ð´": 3941,
      "ÑħÑĥ": 3942,
      "ÐµÑĢÐ¾Ð¼": 3943,
      "ĠÐ½ÐµÐ²Ð¸": 3944,
      "Ð³Ð°ÑĢ": 3945,
      "ĠÑģÑĤÐ²ÐµÑĢÐ´Ð¶": 3946,
      "ĠÐ¿Ð¾ÑģÐ»ÑĸÐ´": 3947,
      "Ð½ÐµÑĤÐµ": 3948,
      "ĠÑĪÑĥÐ¼": 3949,
      "ĠÑĢÐµÐ°Ð³": 3950,
      "ĠÐ»ÑİÐ´Ð¸Ð½Ð¾Ñİ": 3951,
      "ĠÑıÐºÐ¸Ð¹ÑģÑĮ": 3952,
      "ĠÐ¾ÑĤÑĢÐ¸Ð¼ÑĥÑİÑĤÑĮ": 3953,
      "ĠÐ²Ð¿ÐµÑĢÐµÐ´": 3954,
      "ĠÐ¼Ð¾Ð¶Ð»Ð¸Ð²Ð¾ÑģÑĤÐµÐ¹": 3955,
      "ÑĸÐ±Ð°": 3956,
      "ĠÐ²Ð¸Ð´Ð½Ð¾": 3957,
      "ĠÐ½Ð°Ð·Ð¸Ð²Ð°Ñİ": 3958,
      "ĠÐ·Ð³Ð¾Ð´Ð¾Ð¼": 3959,
      "ĠÐ¿Ð¾Ð´Ð¸Ð²Ð¸ÑĤÐ¸ÑģÑı": 3960,
      "ĠÐ²ÑĸÐ´Ð´ÑĸÐ»": 3961,
      "ĠÑģÐ¸ÑĤÑĥÐ°ÑĨÑĸÑı": 3962,
      "ĠÑĢÐ°ÐºÑĥ": 3963,
      "ĠÐ°Ð¼ÐµÑĢÐ¸ÐºÐ¸": 3964,
      "oogle": 3965,
      "ĠÑĥÐ¼Ð¾Ð²Ð¸": 3966,
      "ĠÐ¿ÑĢÐ¾Ð¼Ð¸ÑģÐ»": 3967,
      "Ð»Ð°Ð²": 3968,
      "ĠÐ½ÐµÑĢ": 3969,
      "Ð¾Ð²ÑĥÑĶ": 3970,
      "Ð½ÑĸÐ¼Ð¸": 3971,
      "ÑĨÑĸÐ»": 3972,
      "ÑĶÐ´": 3973,
      "ĠÐ³Ð¾ÑĢÐ¸": 3974,
      "ĠÑģÑĤÐ¾ÑĢÐ¾": 3975,
      "ÐºÑĥÑİÑĤÑĮ": 3976,
      "ĠÑģÐ¿Ð¾Ð²": 3977,
      "Ð´ÐµÑıÐºÑĸ": 3978,
      "Ð°Ð»ÑĮÐ½ÑĸÐ¹": 3979,
      "ĠÐ´ÐµÐ²": 3980,
      "Ð¾ÑģÐ¸": 3981,
      "ĠÐ¿ÑĸÐ´Ð¿": 3982,
      "Ġ17": 3983,
      "ĠÐ¿Ð¾Ð»Ðµ": 3984,
      "ĠÐ¿ÑĢÐ°ÑĨÑĸ": 3985,
      "ĠÑģÐ²ÑĸÑĤÐ¾Ð¼": 3986,
      "ĠÑıÐ·ÐºÐ¸": 3987,
      "Ð½ÑĮÐ¾Ñİ": 3988,
      "Ð±ÑĸÐ»ÑĮÑĪÑĸÑģÑĤÑĮ": 3989,
      "ĠÑĢÐ¾Ð·ÑĥÐ¼ÑĸÑİ": 3990,
      "ĠÑĸÐ½ÑĤÐµÑĢÐ½ÐµÑĤÑĥ": 3991,
      "ĠÐ´ÐµÑĢÐµÐ²": 3992,
      "ĠÐºÐ½Ð¸Ð¶ÐºÐ¸": 3993,
      "ĠÑĢÐ¾Ð·Ð³Ð»ÑıÐ´": 3994,
      "ĠÐ¿Ð¾Ð³Ð¾Ð²Ð¾ÑĢÐ¸ÑĤÐ¸": 3995,
      "ÐºÐ¾ÑĢ": 3996,
      "ĠÐ²Ð¾ÑĢ": 3997,
      "ĠÐ½Ð¾ÑĢ": 3998,
      "ÑĩÐºÐ¸": 3999,
      "ÑĪÐ¾Ð³Ð¾": 4000,
      "ĠÐ²ÑĸÐ´ÑĢÐ°Ð·Ñĥ": 4001,
      "ĠÑģÑĤÐ°Ð½Ð´": 4002,
      "ÐºÑĥÑĶÐ¼Ð¾": 4003,
      "ÑĩÐ¸Ð½Ð°": 4004,
      "ÑĥÐ²Ð°ÑĤÐ¸Ð¼Ðµ": 4005,
      "Ð´ÑĸÑı": 4006,
      "ÑģÐ»ÑĥÑħ": 4007,
      "Ð²ÐµÐ»Ð¸": 4008,
      "ĠÐ·Ð°ÐºÐ»Ð°Ð´": 4009,
      "ĠÐ²Ð·ÑıÐ²": 4010,
      "ĠÐ½Ð¾Ð²Ð¾Ð³Ð¾": 4011,
      "ĠÐ²Ð²Ð°Ð¶Ð°ÑĶÐ¼Ð¾": 4012,
      "ĠÐ´Ð¾Ð·Ð²Ð¾Ð»Ð¸": 4013,
      "ĠÑħÐ»Ð¾Ð¿ÑĨÑĸ": 4014,
      "ĠÑģÐ¾ÑĨÑĸÐ°Ð»ÑĮÐ½Ð¸Ñħ": 4015,
      "ĠÑĢÐ¸Ð±": 4016,
      "ĠÐ²Ð¸ÑĤÑĢÐ°ÑĤÐ¸": 4017,
      "ĠÐ¾ÑħÐ¾ÑĢÐ¾Ð½Ð¸": 4018,
      "ĠÐ¾ÑģÐ¾Ð±Ð¸ÑģÑĤÐ¾": 4019,
      "ĠÐµÐ¼Ð¾ÑĨÑĸÑĹ": 4020,
      "ĠÐ´Ð¸Ð·Ð°Ð¹Ð½": 4021,
      "ĠÐ¹Ð´ÐµÑĤÑĮÑģÑı": 4022,
      "ĠÑģÑĸÐ¼ÐµÐ¹": 4023,
      "ĠÐ¿ÐµÑĢÑĸÐ¾Ð´": 4024,
      "ĠÑĨÐ¸Ð²ÑĸÐ»ÑĸÐ·": 4025,
      "ĠÐ»Ð°ÑģÐºÐ°": 4026,
      "ĠÑĦÑĥÐ½Ð´Ð°Ð¼ÐµÐ½ÑĤ": 4027,
      "Ð¸ÑĪ": 4028,
      "ÑĢÑĸÐ´": 4029,
      "ÑĪÐ¸Ð¼Ð¸": 4030,
      "ĠÐ¾Ð·": 4031,
      "ĠÐ²Ð¸ÑĢÐ¾Ñģ": 4032,
      "ĠÐ³Ð¾Ñģ": 4033,
      "Ð²ÑĸÐ·": 4034,
      "Ð½ÐµÑģÑĤÐ¸": 4035,
      "ÑĢÑĥÑĢ": 4036,
      "ĠÐµÐ¼": 4037,
      "ĠÑĹÑħÐ½ÑĸÐ¹": 4038,
      "ĠÑĩÐ°ÑģÐ¸": 4039,
      "ĠÐ¾Ð±Ð»Ð°": 4040,
      "ĠÐ¾Ð¿ÑĥÐ±Ð»ÑĸÐº": 4041,
      "ÑĸÑĩÐ½Ð¸Ð¹": 4042,
      "ĠÐ½Ð°Ð¿ÑĢÐ°Ð²": 4043,
      "ÑĥÐ²Ð°Ð»Ð¸ÑģÑĮ": 4044,
      "ĠÐ·Ð¼ÑĸÐ³": 4045,
      "ĠÐ´Ð¾Ð±ÑĢ": 4046,
      "ÑĸÐ±ÐµÑĢ": 4047,
      "ĠÐ°Ð²ÑĤÐ¾ÑĢ": 4048,
      "ÑĢÐ°ÑĤÐµ": 4049,
      "ĠÑĤÐµÐ¿ÐµÑĢÑĸÑĪ": 4050,
      "ĠÐ¿ÑĢÐ¸Ð²Ð°Ð±": 4051,
      "ĠÐ¿Ð¾ÑĩÐ¸Ð½Ð°ÑĶÑĤÑĮÑģÑı": 4052,
      "ĠÐ¿Ð¾Ð´ÑĥÐ¼Ð°ÑĤÐ¸": 4053,
      "ĠÐ´ÑĸÐ·Ð½Ð°ÑĤÐ¸ÑģÑı": 4054,
      "ĠÑĪÑĤÐ°ÑĤÐ°Ñħ": 4055,
      "ĠÐ¿Ð»Ð°Ð½ÐµÑĤÐ¸": 4056,
      "ĠÐ±Ð¾Ð¶ÐµÐ²ÑĸÐ»ÑĮ": 4057,
      "Ð°ÑģÑĤÑĮ": 4058,
      "ĠÐ²ÑĥÐ³": 4059,
      "Ð´Ð¾Ð·": 4060,
      "ĠÐ½ÑĸÐ¹": 4061,
      "Ð¾Ð²Ð¾Ð¼Ñĥ": 4062,
      "ĠÐ¾Ð³": 4063,
      "ÐµÑĢÐµÑģ": 4064,
      "Ð¶ÐµÐ½Ñĸ": 4065,
      "Ð¾ÑĩÑĸ": 4066,
      "ĠÑĹÑħÐ½ÑĸÑħ": 4067,
      "ÑıÐºÐ±Ð¸": 4068,
      "ĠÑĤÐ¸Ð¿Ñĥ": 4069,
      "Ð´ÑıÑĤÑĮ": 4070,
      "ÐºÐ¾Ð»Ð¸ÑĪ": 4071,
      "ĠÐ´Ð¸Ð²Ð½Ð¾": 4072,
      "ĠÐ¿Ð¾Ð¼ÑĸÑĩ": 4073,
      "ĠÑĤÑĸÑĶÑĹ": 4074,
      "ÑĪÐºÐ¾Ð´": 4075,
      "ĠÐ½Ð¸Ð·ÑĮ": 4076,
      "ĠÐ²Ð¸ÑıÐ²Ð¸Ð»Ð¸": 4077,
      "ĠÐºÑĢÐ°ÑģÐ¸Ð²": 4078,
      "ĠÐ½Ð°Ð²Ð¿Ð°ÐºÐ¸": 4079,
      "ch": 4080,
      "ÐºÑĸÐ¹": 4081,
      "ÑĤÐ¸Ðº": 4082,
      "ĠÐºÐ°Ð´": 4083,
      "ĠÐºÐ°Ð±": 4084,
      "ĠÑĢÐ¾Ð´Ñĥ": 4085,
      "ĠÐ³ÑĥÐ¼": 4086,
      "ĠÑģÑĤÑĢÐ°ÑĤÐµ": 4087,
      "ÑĤÑĢÐ°": 4088,
      "ĠÑģÐºÐ¾ÑĢÐ¸ÑģÑĤ": 4089,
      "ĠÐ²ÐµÑģÐµ": 4090,
      "ĠÐ´ÑĥÐ¼Ð°ÑĶÐ¼Ð¾": 4091,
      "ĠÐ¿Ð¾Ð»Ñİ": 4092,
      "ĠÐ¿ÐµÑĢÑĪÑĸ": 4093,
      "ĠÐ»Ð¸ÑģÑĤ": 4094,
      "ĠÐ¿Ð¾ÑĤÑĢÑĸÐ±ÐµÐ½": 4095,
      "Ġ198": 4096,
      "ĠÐ²Ð¸ÑĢÑĸÑĪÐ¸ÑĤÐ¸": 4097,
      "ĠÐ±ÑĸÐ¾Ð»Ð¾Ð³ÑĸÑĩ": 4098,
      "ĠÑħÐ»Ð¾Ð¿ÐµÑĨÑĮ": 4099,
      "ĠÑĤÐµÑĢÐ¸ÑĤÐ¾ÑĢ": 4100,
      "ĠÑģÐ¸Ð¼ÐµÑĤ": 4101,
      "ĠÐ²ÑĤÑĢÐ°ÑĤÐ¸": 4102,
      "ĠÐ¿Ð»Ð°Ð½ÐµÑĤÑĸ": 4103,
      "ĠÐµÐºÐ¾Ð½Ð¾Ð¼ÑĸÐºÐ¸": 4104,
      "ĠÐ³Ð»Ð¸Ð±Ð¾Ðº": 4105,
      "ĠÐºÑĸÐ¼Ð½Ð°ÑĤÑĸ": 4106,
      "ĠÑģÐ¿ÑĸÐ»ÐºÑĥÐ²Ð°Ð½Ð½Ñı": 4107,
      "Ð¾ÑģÑĤÐ°Ð½": 4108,
      "ĠÐ·Ð²Ð¾ÑĢ": 4109,
      "ÑĤÐ¸Ð½Ð°": 4110,
      "ĠÑĤÐ¾Ð½": 4111,
      "ĠÐºÐ²ÑĸÑĤ": 4112,
      "ÐµÐ½Ð½Ð¾": 4113,
      "ĠÐ¾ÑĤÐ¾Ð¶": 4114,
      "Ð»ÑıÑİ": 4115,
      "Ð»ÑıÐ½ÑĥÑĤÐ¸": 4116,
      "ĠÑĢÐµÐ³Ñĸ": 4117,
      "ĠÐ¿ÑĸÐ´Ð³": 4118,
      "ĠÐ´ÑĥÐ¼ÐºÐ°": 4119,
      "ĠÐ·Ð´Ð¸Ð²": 4120,
      "ĠÑģÑĤÐ²Ð¾ÑĢÑİÑİÑĤÑĮ": 4121,
      "ÑĤÐ¸ÑĩÐ½Ñĸ": 4122,
      "ĠÐ¿Ð¾Ð·Ð¸": 4123,
      "ĠÐ²ÑĸÐºÑĥ": 4124,
      "ĠÐ³Ð¾Ð²Ð¾ÑĢÐ¸Ð¼Ð¾": 4125,
      "ĠÐ¼ÑĸÐ»ÑĮÐ¹Ð¾Ð½": 4126,
      "ĠÐ·Ð¼Ð¾Ð¶ÐµÑĤÐµ": 4127,
      "ĠÐ²Ð¸ÑıÐ²Ð»ÑıÑĶÑĤÑĮÑģÑı": 4128,
      "ÐºÐ¾Ð¶ÐµÐ½": 4129,
      "ĠÐ·ÑĥÐ¿Ð¸Ð½Ð¸ÑĤÐ¸": 4130,
      "ĠÑģÑĤÐ¾Ð²Ð±ÑĥÑĢ": 4131,
      "ĠÑģÑĤÑĢÐ°ÑĤÐµÐ³": 4132,
      "ĠÐ¿Ñĸ": 4133,
      "ĠÐ¼Ð¾Ð²Ñĥ": 4134,
      "ÑĩÐºÐ°": 4135,
      "ĠÐ±Ð¾Ð³": 4136,
      "Ð»ÑıÐ´Ñĥ": 4137,
      "ĠÐ¼Ð¸Ð»ÑĮ": 4138,
      "ĠÐ¿Ð¾ÑģÐ¸Ð»": 4139,
      "Ð´ÐµÑĤÐµ": 4140,
      "ĠÑĢÐ¾Ð±Ð¸Ð²": 4141,
      "ĠÐ²Ð°ÑĪÐ¸Ñħ": 4142,
      "ĠÐ¼Ð°Ð»Ñı": 4143,
      "ĠÐ±ÑĢÐ°Ðº": 4144,
      "ĠÐ¿ÐµÐ²Ð½Ð¸Ð¹": 4145,
      "Ð¿ÑĢÐ¾ÑģÑĤÐ¾": 4146,
      "ĠÐºÑĸÐ½ÐµÑĨÑĮ": 4147,
      "ĠÑĪÐ»ÑıÑħÐ¾Ð¼": 4148,
      "ĠÑģÐ¸ÑĤÑĥÐ°ÑĨÑĸÑİ": 4149,
      "ĠÑĢÐµÐ°Ð»ÑĮÐ½ÑĸÑģÑĤÑĮ": 4150,
      "Ġgoogle": 4151,
      "ĠÐ¿ÑĢÐ¸ÑģÑĤÑĢÑĸÐ¹": 4152,
      "ĠÐ¼Ð°Ð»ÑİÐ½": 4153,
      "ĠÐ¿Ð¾Ð¿ÑĥÐ»ÑıÑĢ": 4154,
      "ĠÐ¿ÑĢÐ¸ÑĢÐ¾Ð´Ð¸": 4155,
      "ĠÐ·Ð¾ÐºÑĢÐµÐ¼Ð°": 4156,
      "ÐµÑĢÐº": 4157,
      "Ð°Ð»Ð¾Ð³": 4158,
      "Ð°Ð½ÑĤÐ¸": 4159,
      "ĠÑĩÐµÑĤ": 4160,
      "ĠÐ°Ñģ": 4161,
      "Ð¸Ð¼Ð°": 4162,
      "ĠÐ»Ð¾Ð½": 4163,
      "Ð²Ð¾ÑģÑĤÑĸ": 4164,
      "Ð»ÐµÐ³": 4165,
      "ĠÐ·Ð°Ð¿ÑĢÐ¾Ñģ": 4166,
      "ĠÐ±Ð»Ð¸Ð¶": 4167,
      "ĠÐ·Ð°Ð¼Ð¾Ð²": 4168,
      "ĠÐ¼ÐµÑĤÐ°ÑĦ": 4169,
      "ĠÐ´Ð¾ÐºÐ¸": 4170,
      "ĠÐ»ÑİÐ±Ð¾Ð²": 4171,
      "ĠÐ·ÑĸÐ±ÑĢ": 4172,
      "ĠÐ½ÐµÐ³Ð°ÑĤÐ¸Ð²": 4173,
      "ĠÐ¾Ð¿ÑĤÐ¸Ð¼Ñĸ": 4174,
      "Ġh": 4175,
      "Ġy": 4176,
      "Ð¾Ñī": 4177,
      "Ð²Ð¾Ð³Ð¾": 4178,
      "Ð´Ð¾Ñģ": 4179,
      "ĠÑģÐ²Ð¸": 4180,
      "ÑĩÐ°ÑĢ": 4181,
      "ĠÐ±Ð¾Ð¶Ðµ": 4182,
      "ÑģÑĮÐºÐ¸Ð¼Ð¸": 4183,
      "ĠÐ»Ð°Ð½": 4184,
      "ĠÐ¶ÐµÑĢÑĤÐ²": 4185,
      "ĠÑĤÐµÐ¼Ñĥ": 4186,
      "ĠÐ¿ÑĢÐ¸Ð»Ð°Ð´": 4187,
      "ĠÑĪÐ°Ð½Ñģ": 4188,
      "ĠÑĦÑĥÑĤ": 4189,
      "Ð¾ÑĩÐµ": 4190,
      "Ð¾ÑģÐ¾ÑĦ": 4191,
      "Ð»ÑĸÐ¿": 4192,
      "ĠÑĨÑĸÐ»Ð¸Ð¹": 4193,
      "ĠÑĸÐ½ÑĪÐ¾Ð¼Ñĥ": 4194,
      "ĠÐ´ÑĸÑĤÑıÐ¼": 4195,
      "ĠÐ´ÑĥÐ¼Ð°ÑİÑĤÑĮ": 4196,
      "ÑĸÑģÐ½ÑĥÑĶ": 4197,
      "ĠÐºÐ¾Ð½ÑĨÐµÐ¿": 4198,
      "ÑĪÐ¸Ð»Ð°": 4199,
      "ĠÐºÑĢÐ¸Ñħ": 4200,
      "Ð¸Ð»Ð°ÑģÑı": 4201,
      "ĠÐ¿ÐµÑĢÑĪÑĥ": 4202,
      "ĠÐ²Ð¸Ð±Ð¾ÑĢÑĥ": 4203,
      "ĠÐ´Ð¶Ð¾Ð½": 4204,
      "ĠÐºÐ½Ð¸Ð³Ñĥ": 4205,
      "Ġ500": 4206,
      "ĠÐ²ÑģÑĸÐ¹": 4207,
      "ĠÐ·Ð¾Ð²Ð½ÑĸÑĪ": 4208,
      "ĠÐ´Ð¾ÐºÑĥÐ¼": 4209,
      "ĠÐ¿ÑĢÐ°ÑĨÑİÑĶÐ¼Ð¾": 4210,
      "ĠÐ²Ð¾Ð´Ð½Ð¾ÑĩÐ°Ñģ": 4211,
      "ĠÑģÐ°Ð¼Ð¾ÑģÑĤ": 4212,
      "ĠÑģÐ¼ÐµÑĢÑĤ": 4213,
      "ĠÐ·Ð°ÑħÐ¸Ñī": 4214,
      "ĠÐ¿Ð¾Ð²ÐµÐ´ÑĸÐ½ÐºÑĥ": 4215,
      "ĠÑģÑħÐ¾Ð¶Ñĸ": 4216,
      "ĠÐ¿Ð°ÑĨÑĸÑĶÐ½ÑĤÑĸÐ²": 4217,
      "ĠÐ¼ÑĸÐºÑĢÐ¾Ñģ": 4218,
      "ĠÐµÑĤÐ°Ð¿": 4219,
      "Ð´Ð¾Ð·Ð²Ð¾Ð»": 4220,
      "ÐµÑĢÑĪÑĥ": 4221,
      "ÑĨÐ¸Ð½Ð¸": 4222,
      "Ð»ÑıÑĩÐ¸": 4223,
      "ĠÐ¼Ð¸ÑĤÑĮ": 4224,
      "ĠÐ¶Ð¾Ð²": 4225,
      "ĠÑĹÐ¶Ñĥ": 4226,
      "ĠÑĤÐµÑħÐ½Ñĸ": 4227,
      "ĠÑĢÐµÐ¶": 4228,
      "ĠÐ´ÐµÐ¿ÑĢÐµ": 4229,
      "ĠÐ¾Ð¿Ð¸Ð½Ð¸": 4230,
      "ĠÑģÐ²ÑĸÑĤÐ»Ð°": 4231,
      "ĠÐºÑĢÐ¾Ð²": 4232,
      "ĠÐ¿ÑĢÐ¾Ð²ÐµÑģÑĤÐ¸": 4233,
      "Ð½ÑĸÑĪÐ¸Ð¹": 4234,
      "ĠÐ¾ÑģÑĤÐ°Ð½Ð½ÑĸÐ¹": 4235,
      "ĠÐ¿Ð¾ÑĩÐ¸Ð½Ð°ÑİÑĤÑĮ": 4236,
      "ĠÐ´Ð¾Ð·Ð²Ð¾Ð»Ð¸ÑĤÐ¸": 4237,
      "ĠÑģÐ¸Ð»ÑĮÐ½Ð¾": 4238,
      "ĠÐ²ÑĢÐ°Ð¶Ð°Ñİ": 4239,
      "ĠÐ¿ÑĢÐ¸Ð¼Ñĸ": 4240,
      "ÑĪÑĤÐ¾Ð²Ñħ": 4241,
      "ĠÑĸÑģÐ»Ð°Ð¼": 4242,
      "ĠÑĥÐ½ÑĸÐº": 4243,
      "Ð²Ð¾ÑĶ": 4244,
      "Ð»Ð¾Ñİ": 4245,
      "ĠÐ¿ÑĸÐ´ÑĤ": 4246,
      "ĠÑıÐ·Ð½Ð¸ÑĨÑĸ": 4247,
      "ĠÐ¿ÑĢÐ°Ð²Ð¸Ð»Ð°": 4248,
      "ĠÐ¿Ð¾Ð·Ð°": 4249,
      "ĠÐ°Ð½ÑĤÐ¸": 4250,
      "ĠÐ¿Ð¾Ð²Ð¸Ð½Ð½Ð°": 4251,
      "ĠÐ´Ð¸ÑĤÐ¸Ð½Ð¸": 4252,
      "ĠÐ±Ð»Ð¾Ðº": 4253,
      "ĠÐ¼ÑĸÐ»ÑĮÑıÑĢÐ´Ð¸": 4254,
      "ĠÑĩÐ¸ÑĤÐ°ÑĤÐ¸": 4255,
      "ĠÐ¿Ð¾Ð²ÐµÐ´ÑĸÐ½ÐºÐ¸": 4256,
      "ĠÑĤÐ¾Ð²Ð°ÑĢÐ¸": 4257,
      "Ð¹Ð¾ÑĢÐºÑĥ": 4258,
      "ĠÐ½ÐµÐ¹ÑĢÐ¾Ð½ÑĸÐ²": 4259,
      "ĠÐ¾ÑĩÐµÐ²Ð¸Ð´Ð½Ð¾": 4260,
      "ĠÑĩÐµÑĤÐ²ÐµÑĢ": 4261,
      "ĠÐ²ÑĢÐ°Ð·": 4262,
      "ĠÐ´Ð¾ÑĤÑĢÐ¸Ð¼": 4263,
      "ĠÐºÐ¾Ð´": 4264,
      "ĠÑĢÐ°Ð¼": 4265,
      "ÐµÐ½Ð¾Ð³Ð¾": 4266,
      "ĠÐ½Ð°ÑĤ": 4267,
      "ĠÐ°ÑģÐ¿ÐµÐº": 4268,
      "Ð°ÑĢÐµ": 4269,
      "Ð¸ÑĤÐ¾": 4270,
      "ĠÑĸÐ½Ð°ÐºÑĪÐµ": 4271,
      "ĠÐ¿ÑĢÐ¸ÑĹÑħ": 4272,
      "ĠÑĹÑħÐ½Ñı": 4273,
      "ÑĢÐ°ÑĹ": 4274,
      "ĠÐ³Ð¾Ð»Ð¾Ð²Ñĸ": 4275,
      "ĠÐ´ÑĢÑĥÐ³Ð°": 4276,
      "Ð½ÑĸÑĪÐ¸Ð¼Ð¸": 4277,
      "ĠÑĤÐµÑĢÐ¼ÑĸÐ½": 4278,
      "ĠÐ·Ð°Ð¿Ð¸ÑĤÐ°Ð²": 4279,
      "ĠÑĸÐ½ÑĤÐµÑĢÐ½ÐµÑĤÑĸ": 4280,
      "ĠÑıÐ²Ð»ÑıÑĶÑĤÑĮÑģÑı": 4281,
      "ĠÐ³Ð¾ÑĤÐ¾Ð²Ñĸ": 4282,
      "ĠÐ´Ð²Ð¾Ð¼Ð°": 4283,
      "ĠÑīÐ°ÑģÐ»Ð¸Ð²Ñĸ": 4284,
      "ĠÐ¿Ð¾Ð»ÑĸÑĤÐ¸ÐºÐ¸": 4285,
      "ĠÐ½Ð°ÑĢÐ¾Ð´Ð¸": 4286,
      "ĠÐ¿ÐµÑĢÐµÐ±ÑĥÐ²": 4287,
      "ÑĸÐ½ÑĪÐ¾Ð¼Ñĥ": 4288,
      "ĠÐ±ÑĸÐ±Ð»Ñĸ": 4289,
      "ĠÑĸÐ½Ð´Ð¸Ð²ÑĸÐ´Ñĥ": 4290,
      "ĠÐ¿Ð°Ð½Ñĸ": 4291,
      "Ð´Ð¾Ð½": 4292,
      "ĠÑĤÐ¾Ð¼": 4293,
      "ĠÐºÐ°ÑĤÐµ": 4294,
      "ĠÐ¾Ð·Ð½": 4295,
      "Ð»ÑıÑĢ": 4296,
      "ĠÑĢÐ¾Ð±ÑĸÑĤ": 4297,
      "ĠÐ¾Ð±ÑĢÐ¾Ð±": 4298,
      "ÑĸÑĢÐ°": 4299,
      "Ð»Ð¸Ð²Ð¾ÑģÑĤÑĸ": 4300,
      "Ġ21": 4301,
      "ĠÐ±ÐµÐ·Ð»ÑĸÑĩ": 4302,
      "ĠÐ²Ð¸Ð¿ÑĢÐ°Ð²": 4303,
      "ĠÐ¿Ð¾ÑĢÑĤ": 4304,
      "ĠÐ³Ð¾Ð²Ð¾ÑĢÐ¸Ð²": 4305,
      "ĠÐ¼Ð°Ð»ÐµÐ½ÑĮÐºÐ¸Ñħ": 4306,
      "ĠÐ¼ÐµÑĤÐ¾Ð´": 4307,
      "ĠÐ²Ð¸Ð¹ÑĤÐ¸": 4308,
      "ĠÐ¼Ð¾Ð»Ð¾Ð´Ð¸Ñħ": 4309,
      "ĠÐ¼Ð¾Ð²Ð¾Ñİ": 4310,
      "ÑģÑĤÐ²Ð¾Ð¼": 4311,
      "ĠÐ²ÑĸÐ´ÐºÑĢÐ¸ÑĤÑĤÑı": 4312,
      "ĠÐ¼Ð°Ð³Ð°Ð·": 4313,
      "ĠÐ´Ð¾Ð²ÐµÐ»Ð¾ÑģÑı": 4314,
      "ĠÐ¿ÑĢÐµÐ·Ð¸Ð´": 4315,
      "ĠÐ¿ÑĢÐ°ÐºÑĤÐ¸ÑĩÐ½Ð¾": 4316,
      "ĠÑĥÐ¿ÑĢÐ°Ð²Ð»ÑĸÐ½Ð½Ñı": 4317,
      "re": 4318,
      "ÑĤÐ°ÑĢ": 4319,
      "ÑĥÐ¹ÑĤÐµ": 4320,
      "ÑıÐ¼": 4321,
      "ĠÐ´Ð¸Ð½": 4322,
      "ĠÑĤÐ¸Ð¼Ð¸": 4323,
      "ĠÑĢÑıÐ´": 4324,
      "ĠÐ²Ð¸ÑĢÐ¾Ñī": 4325,
      "ĠÑĥÑĤÐ²Ð¾ÑĢ": 4326,
      "ĠÐ´Ð¾Ð½ÑĮ": 4327,
      "Ð¼Ð¾Ñģ": 4328,
      "ĠÐ½ÑĸÐ¼Ðµ": 4329,
      "ĠÐ¿Ð¾Ð´Ð°ÑĢ": 4330,
      "ĠÐ¾Ð¿Ð¾Ð²ÑĸÐ´": 4331,
      "ĠÐ·Ð°Ð¿ÑĢÐ¾": 4332,
      "ĠÐ¿Ð¾Ð»ÑĮ": 4333,
      "ĠÐ´Ð¾Ð²Ðº": 4334,
      "ÑĢÐ°Ð·Ñĸ": 4335,
      "ĠÐ´ÑĢÑĥÐ·Ñĸ": 4336,
      "ĠÑĩÐ°ÑģÑĤÐ¸Ð½Ñĸ": 4337,
      "ĠÐ·Ð°ÑģÐ¾Ð±": 4338,
      "ĠÐ¾ÑģÑĤÐ°Ð½Ð½ÑĸÑħ": 4339,
      "ĠÐ¿Ð¾ÑģÑĤÑĸÐ¹": 4340,
      "ĠÑĢÐ¾Ð·Ð¿Ð¾Ð²ÑĸÐ¼": 4341,
      "ĠÑĶÐ´Ð¸Ð½Ð¸Ð¹": 4342,
      "ĠÐ´ÐµÑĢÐµÐ²Ð°": 4343,
      "ĠÑģÐµÐºÑģÑĥ": 4344,
      "ĠÑģÐ¿Ð¾ÑģÐ¾Ð±Ð¸": 4345,
      "ĠÑħÑĸÑĢÑĥÑĢ": 4346,
      "ĠÑģÑĤÐ°Ð½ÐµÑĤÑĮÑģÑı": 4347,
      "Ð³Ð¾Ð»Ð¾Ð²": 4348,
      "ĠÐºÐ¾Ð»ÐµÐ³": 4349,
      "ĠÐ¿ÑĢÐµÐ¿Ð°ÑĢ": 4350,
      "Ð´Ð¾Ð·Ð²Ð¾Ð»ÑĮÑĤÐµ": 4351,
      "ÐºÑĤÐ¸": 4352,
      "Ð»Ð°Ð½Ð´": 4353,
      "ĠÐ´Ð¸Ñħ": 4354,
      "ÑĩÐ½Ð¸Ð¼Ð¸": 4355,
      "Ð½Ð¸Ð»Ð¸": 4356,
      "ĠÐ¾ÑĦ": 4357,
      "ĠÑıÐºÐ¾ÑģÑĮ": 4358,
      "ĠÑıÐºÐ¾ÑģÑĤÑĸ": 4359,
      "ĠÐ²Ð¸ÑħÑĸÐ´": 4360,
      "ĠÑĥÐ¶Ðµ": 4361,
      "ĠÑĩÑĥÐ²": 4362,
      "ÑĥÐ²Ð°Ð¶": 4363,
      "Ð»ÑıÐ»Ð¸": 4364,
      "ÑĸÐ»ÑĮÐ½Ð¾": 4365,
      "ĠÑĢÐµÐ³Ñĥ": 4366,
      "ĠÐ¿ÐµÑĢÐµÐ¼Ñĸ": 4367,
      "ĠÐ¿ÐµÑĢÐµÑĤÐ²Ð¾ÑĢÐ¸": 4368,
      "ĠÐ¼Ð¾Ð¶ÐµÑĪ": 4369,
      "ÑıÐºÐ¾Ð¼Ñĥ": 4370,
      "ĠÐ¿ÐµÑĢÑĪÐµ": 4371,
      "ĠÑģÑĤÐ²Ð¾ÑĢÐ¸Ð²": 4372,
      "ĠÑĢÑĸÐ·Ð½Ð¸Ð¼Ð¸": 4373,
      "ĠÑĩÑĥÐ´Ð¾Ð²Ñĸ": 4374,
      "ĠÐ´Ð¸ÑĢÐµÐº": 4375,
      "Ð»ÑİÐ²Ð°Ð½Ð½Ñı": 4376,
      "ĠÑĢÑĥÐºÑĥ": 4377,
      "ĠÑĩÐ°ÑģÑĤÑĸÑĪÐµ": 4378,
      "ĠÐ²Ð¿Ð»Ð¸Ð²Ð°ÑĶ": 4379,
      "ĠÐ¶Ð¾Ð´Ð½Ð¸Ñħ": 4380,
      "ĠÐ·ÑĢÐ¾Ð·ÑĥÐ¼ÑĸÐ»Ð°": 4381,
      "ĠÑģÐµÑĢÐµÐ´Ð¾Ð²Ð¸ÑīÐµ": 4382,
      "ĠÐ¿Ð¸ÑĤÐ°Ð½ÑĮ": 4383,
      "ĠÐ½Ð°ÑĥÐºÐ¸": 4384,
      "ĠÑĥÑĢÐ¾Ðº": 4385,
      "ĠÐ°Ð½ÑĸÐ¶": 4386,
      "ĠÑĢÐµÐºÐ»Ð°Ð¼": 4387,
      "ĠÐ±ÑĥÐºÐ²Ð°Ð»ÑĮÐ½Ð¾": 4388,
      "Ð¾Ð²ÑĸÐ¹": 4389,
      "ĠÐ½Ð°ÑĤÐ¾Ð¼ÑĸÑģÑĤÑĮ": 4390,
      "ĠÐ½ÐµÐ¼Ð°": 4391,
      "ÑĶÑĢ": 4392,
      "Ð»ÑıÐ²": 4393,
      "Ð¾ÑĤÑĸ": 4394,
      "Ð°ÑħÐ¸": 4395,
      "ĠÐ¼ÑĸÑĨ": 4396,
      "ĠÐ¾Ð´Ð½Ð¾ÑĩÐ°Ñģ": 4397,
      "ĠÐ½ÑĸÑĩ": 4398,
      "Ð´ÑĸÐ»Ð¸": 4399,
      "ĠÐ²ÐµÐ»Ð¾": 4400,
      "ĠÐ¿ÐµÑĢÑģÐ¿ÐµÐº": 4401,
      "ÑıÐ²Ð»ÑıÑĶÑĤÑĮÑģÑı": 4402,
      "ĠÐ»ÑİÐ´ÑģÑĤÐ²Ð°": 4403,
      "ĠÐ·Ð°ÑģÐ½": 4404,
      "ĠÐ²ÑĸÑĢÑĤÑĥ": 4405,
      "ĠÐ´Ð¾ÑģÑıÐ³Ð½ÐµÐ½Ð½Ñı": 4406,
      "ĠÐºÑĥÐ»ÑĮÑĤÑĥÑĢÐ¸": 4407,
      "ÑĢÐ¾Ð²Ð°Ð´": 4408,
      "ĠÐºÐ°Ð·Ð°Ð»Ð¸": 4409,
      "ĠÐºÐ¾ÑĢÐ¸ÑģÑĤÑĮ": 4410,
      "ĠÑĨÐµÐ½ÑĤÑĢÑĸ": 4411,
      "Ð·Ð½Ð°Ð¹Ð¾Ð¼": 4412,
      "Ð¸Ð±": 4413,
      "Ð½Ð¾Ð¶": 4414,
      "ÐµÐ»": 4415,
      "Ð¿Ð¾Ñĩ": 4416,
      "ĠÐºÐ°Ð»Ñĸ": 4417,
      "ĠÐºÐ²Ð°ÑĢ": 4418,
      "Ð·Ð²ÑĸÑģÐ½Ð¾": 4419,
      "Ð°Ð·Ñĥ": 4420,
      "Ð¼ÑĸÑĢ": 4421,
      "ĠÐ¿ÑĢÐ¸ÑĶÐ¼": 4422,
      "ĠÐ¿ÑĢÐ¸Ð´ÑĥÐ¼": 4423,
      "ĠÑĹÑħÐ½ÑĶ": 4424,
      "ĠÐ¾Ð±Ð¸Ð´": 4425,
      "Ġ13": 4426,
      "ÑģÐ¸Ð»Ð¸": 4427,
      "ĠÐ·Ð°Ð¿Ð¾Ð±Ñĸ": 4428,
      "Ð°ÑĶÑĤÐµÑģÑĮ": 4429,
      "ĠÐ¿Ð¾Ð³Ð°Ð½Ð¾": 4430,
      "ÑĢÑıÑĤÐ¸": 4431,
      "ĠÐºÑĢÐ°ÑĹÐ½Ð°": 4432,
      "ĠÐ½Ð°Ð¼Ð°Ð³Ð°Ð²ÑģÑı": 4433,
      "ĠÑģÐ¿ÑĢÐ°ÑĨ": 4434,
      "ĠÑĤÐ¸Ð¶Ð½Ñı": 4435,
      "ĠÐºÐ¾Ð½ÑĤÑĢÐ¾Ð»Ñİ": 4436,
      "ĠÐ·Ð¼ÑĥÑģ": 4437,
      "ĠÐ°Ð²ÑĤÐ¾Ð¼Ð¾Ð±": 4438,
      "ĠÐ¿ÑĢÐ°ÑĨÑĸÐ²Ð½Ð¸ÐºÑĸÐ²": 4439,
      "ĠÐ¿ÑĢÐ¾Ð²ÐµÐ»Ð¸": 4440,
      "ĠÑĸÐ½Ð²ÐµÑģÑĤ": 4441,
      "Ð´Ð¾Ð±ÑĢÐµ": 4442,
      "ĠÐ·ÑĸÑĤÐº": 4443,
      "eb": 4444,
      "st": 4445,
      "ĠÐ¼Ð°Ð½Ð´": 4446,
      "ÐµÑĢÑĸÑĹ": 4447,
      "Ð°Ð»ÑĸÑĹ": 4448,
      "ĠÐ²Ð¸ÑĤÑıÐ³": 4449,
      "Ð°ÐºÐ¸ÑĤ": 4450,
      "ÑĥÐ²Ð°Ð½Ð½Ñĸ": 4451,
      "ĠÐ»Ð°Ð¼": 4452,
      "ĠÐ»ÐµÐº": 4453,
      "ÑĸÐ½Ñĥ": 4454,
      "ĠÐ³ÑĸÐ´": 4455,
      "Ð¼Ð¾ÑģÑı": 4456,
      "ĠÐ·Ð°Ð¾Ñħ": 4457,
      "ĠÐ½Ð°Ð¹Ð³": 4458,
      "ĠÐ²Ð°ÑĪÐ¾ÑĹ": 4459,
      "ĠÐ±ÑĥÐ´ÐµÑĤÐµ": 4460,
      "ĠÐºÐ¾ÑĢÐ°Ð±": 4461,
      "ĠÐ²Ð»Ð°ÑģÐ½Ñĥ": 4462,
      "ÑģÐºÑĢÐ°Ð²": 4463,
      "ĠÑģÑħÐ¸Ð»ÑĮ": 4464,
      "ĠÐ¿ÐµÑĢÑĪÐ°": 4465,
      "Ð½ÑĸÑĪÐ°": 4466,
      "ĠÐ½Ð°Ð¼Ð°Ð³Ð°ÑİÑĤÑĮÑģÑı": 4467,
      "ĠÑģÑĤÐ¸Ð¼Ñĥ": 4468,
      "ĠÐ·Ð°Ð½ÑĥÑĢ": 4469,
      "ĠÐ·Ð°Ð»ÐµÐ¶Ð¸ÑĤÑĮ": 4470,
      "ĠÐ½Ð°ÑĢÐºÐ¾": 4471,
      "ĠÑĢÐ¸Ð·Ð¸Ðº": 4472,
      "ĠÐ¿Ð¾Ð·Ð±Ð°Ð²": 4473,
      "ĠÑĦÑĸÐ»Ð¾ÑģÐ¾ÑĦ": 4474,
      "ÑģÑİ": 4475,
      "ÐºÐ°ÑĢ": 4476,
      "ÑıÐºÐ¸Ñħ": 4477,
      "Ð¼ÐµÐ½ÑĤÑĸÐ²": 4478,
      "ĠÐ½Ð¾Ð²Ð°": 4479,
      "ĠÑģÑĥÑĤÑĮ": 4480,
      "ĠÑĤÐµÐ½": 4481,
      "ĠÑĤÑıÐ³": 4482,
      "ĠÐºÑĸÑģÑĤ": 4483,
      "ÑĪÐ²Ð¸Ð´": 4484,
      "Ð¾Ð³Ð°Ð´": 4485,
      "Ð¾ÑĢÑĥÑĩ": 4486,
      "Ð°Ð½Ð½Ñİ": 4487,
      "ĠÐ³Ð»ÑıÐ´": 4488,
      "ĠÐ¿ÑĢÐ¾Ñħ": 4489,
      "ÐºÑĥÐ¿": 4490,
      "Ð¼ÑĸÐ½Ñĸ": 4491,
      "ĠÐ½Ð°Ð¹Ð¼ÐµÐ½": 4492,
      "Ð²ÐµÑģÑĤÐ¸": 4493,
      "ĠÑģÐ¸ÑģÑĤÐµÐ¼Ñĸ": 4494,
      "ĠÐ¿ÑĢÐ¾Ð²ÑĸÐ²": 4495,
      "ĠÐ·Ð°Ð»Ð¸ÑĪÐ°ÑĶÑĤÑĮÑģÑı": 4496,
      "ĠÐ·Ð±Ð¸ÑĢÐ°ÑİÑģÑı": 4497,
      "ĠÐ´ÑĸÑıÑĤÐ¸": 4498,
      "ĠÑĸÑģÑĤÐ¾ÑĤ": 4499,
      "ĠÐ¿ÐµÑĢÐµÑĢÐ¾Ð±": 4500,
      "ĠÐµÐ¿Ð¾Ñħ": 4501,
      "ĠÐ½Ð¾Ð¼ÐµÑĢ": 4502,
      "ĠÐ¿Ð¾ÑģÐ»ÑĸÐ´Ð¾Ð²": 4503,
      "ĠÐ´Ð¾Ð²ÐºÑĸÐ»Ð»Ñı": 4504,
      "Ð½ÐµÐ½Ð°": 4505,
      "ĠÐ¿Ñĥ": 4506,
      "ĠÐ·Ð°Ð¼Ð¸": 4507,
      "ĠÑģÑĨÐµ": 4508,
      "ĠÐ±Ð°Ð¹": 4509,
      "ĠÐ±ÑĢÐ°Ð·": 4510,
      "Ð¾ÑĢÐ¾Ð½": 4511,
      "Ð»ÑıÐ¼Ð¸": 4512,
      "ĠÐ¿ÑĸÐ´ÑħÑĸÐ´": 4513,
      "ĠÑģÐ°Ð¼Ð¸Ð¹": 4514,
      "ĠÐ½Ð°Ð²ÐºÐ¾Ð»Ð¸ÑĪ": 4515,
      "ĠÐ·Ð°Ð¿Ð¾Ð²": 4516,
      "ĠÑģÑĤÐ²Ð¾ÑĢÑİÑĶÐ¼Ð¾": 4517,
      "ĠÐ´Ð¸Ð²Ð¸ÑĤÐ¸ÑģÑı": 4518,
      "ÑĸÐ±ÑĢ": 4519,
      "ĠÐ½ÐµÐ·Ð²Ð°Ð¶Ð°ÑİÑĩÐ¸": 4520,
      "ĠÐºÐ½Ð¸Ð³": 4521,
      "ĠÐ¿ÑĢÐ¸ÐºÐ»Ð°Ð´ÑĸÐ²": 4522,
      "ĠÐ¿ÑĢÐ¾ÑĨÐµÑģÑĸ": 4523,
      "ĠÑĢÐ¾Ð·ÑĥÐ¼ÑĸÑĶÐ¼Ð¾": 4524,
      "ĠÐ¼Ð°ÑĪÐ¸Ð½Ð°": 4525,
      "ĠÐ»ÑĸÑĤÐµÑĢ": 4526,
      "ĠÐ°ÑĦÐ³Ð°Ð½Ñĸ": 4527,
      "ĠÐ½Ð°Ð¹ÐºÑĢÐ°ÑīÐµ": 4528,
      "Ð°ÑĤÑĥÑĢÐ¸": 4529,
      "ĠÐ¾ÑħÐ¾Ð¿": 4530,
      "ĠÐ±ÑĥÐ´ÑĸÐ²Ð»Ñĸ": 4531,
      "ĠÐ¿ÑĢÐ¾ÑģÑĤÐ¾ÑĢÑĥ": 4532,
      "ĠÐ·Ð½Ð¸Ñī": 4533,
      "ĠÐºÐ²Ð°Ð´": 4534,
      "ĠÐ·Ð¼ÐµÐ½ÑĪ": 4535,
      "ĠÐ·Ð²ÑĥÐºÐ¸": 4536,
      "ĠÐ²Ð·ÑıÐ»Ð¸": 4537,
      "ĠÐ´ÐµÑģÑıÑĤÐ¸Ð»Ñĸ": 4538,
      "ĠÐºÐ¾Ð¼Ð°Ð½Ð´Ð°": 4539,
      "Ð½Ð½Ñı": 4540,
      "Ð²Ð°Ð¼": 4541,
      "ÐºÑĸÑģ": 4542,
      "ĠÐ²ÑģÑĤÑĥÐ¿": 4543,
      "ĠÐ¿ÑĥÐ½": 4544,
      "ÑĩÐºÑĥ": 4545,
      "Ð°Ð½Ð´Ñĸ": 4546,
      "Ð½Ð¾ÑģÑĤÐµÐ¹": 4547,
      "ĠÐ°Ð¹": 4548,
      "ĠÑģÑĤÑĢÐ¸Ð±": 4549,
      "ĠÑĸÐ½ÑĦ": 4550,
      "Ð´ÐµÐ±ÑĸÐ»ÑĮÑĪ": 4551,
      "ĠÐ·Ð°ÑģÑĤ": 4552,
      "ĠÑĩÐ°ÑģÑĸ": 4553,
      "ĠÐ¿ÐµÑĢÐµÐ½": 4554,
      "ĠÐ±ÐµÐ·Ð¿": 4555,
      "ĠÐºÐ¾Ð½Ñģ": 4556,
      "ÑĥÑĢÐ°": 4557,
      "ĠÐ¾ÑĤÑĢÐ¸Ð¼Ð°Ð»Ð°": 4558,
      "ĠÐ¿ÑĢÐ°Ð²Ð¸Ð»": 4559,
      "ĠÐ³ÑĢÐ°": 4560,
      "ĠÐ³ÑĢÐ°ÑĤÐ¸": 4561,
      "ĠÐ¿Ð»Ð°Ð²": 4562,
      "ĠÐ¿Ð¾Ð¼Ð¸ÑĢ": 4563,
      "ĠÐ¿Ð¾Ð±Ð°ÑĩÐ¸Ð¼Ð¾": 4564,
      "ĠÐ²Ð¸ÐºÐ¾ÑĢÐ¸ÑģÑĤÐ¾Ð²ÑĥÐ²Ð°Ð»Ð¸": 4565,
      "ĠÐ²Ð¸Ð¿Ð°Ð´Ð¾Ðº": 4566,
      "ĠÐºÐµÑĢÑĥÐ²Ð°ÑĤÐ¸": 4567,
      "ĠÐ°ÑĦÑĢÐ¸ÐºÐ¸": 4568,
      "Ð½Ð°ÑĪÑĸ": 4569,
      "ĠÐ»ÑĮÐ¾Ð´": 4570,
      "ĠÐ¾Ð´Ð½Ð¾ÑĩÐ°ÑģÐ½Ð¾": 4571,
      "Ð´ÐµÐ±ÑĸÐ»ÑĮÑĪÐ¾Ð³Ð¾": 4572,
      "Ð´ÑĢ": 4573,
      "ĠÐ·Ð½Ðµ": 4574,
      "Ð¿Ð°Ð½Ñĸ": 4575,
      "ÑģÑĤÑĢÐ¸": 4576,
      "Ð¾Ð´Ð½Ð¾Ð³Ð¾": 4577,
      "Ð°Ð´ÑĨÑı": 4578,
      "ĠÐ¿Ð¾Ñħ": 4579,
      "Ð¼ÑĸÑĤÑĮ": 4580,
      "ĠÑĢÐ¾Ð·Ð±": 4581,
      "ĠÑĹÑģÑĤÐ¸": 4582,
      "ĠÐ»ÑİÐ±Ð¸": 4583,
      "ĠÑĪÐ¾Ñĥ": 4584,
      "ĠÐ·Ð°ÑıÐ²": 4585,
      "ĠÑĹÑħÐ½Ñİ": 4586,
      "ĠÐ½Ð°Ð²Ð¸Ñĩ": 4587,
      "ĠÐ·Ð°Ð¿Ð»": 4588,
      "ĠÐ´ÑĥÐ¼Ð°Ð»Ð°": 4589,
      "ĠÐ·Ð²ÑĥÑĩ": 4590,
      "ĠÐµÐºÐ¾Ð»Ð¾Ð³ÑĸÑĩ": 4591,
      "ĠÐ·Ð°ÐºÑĸÐ½": 4592,
      "ĠÑģÐºÐ»Ð°Ð´Ð°ÑĶÑĤÑĮÑģÑı": 4593,
      "ĠÑĸÐ½ÑĦÐ¾ÑĢÐ¼Ð°ÑĨÑĸÑı": 4594,
      "ĠÐ¼ÑĥÐ·Ð¸ÐºÑĥ": 4595,
      "ĠÐ¾ÑĢÐ³Ð°Ð½ÑĸÐ·Ð°ÑĨÑĸÑı": 4596,
      "ĠÐ·ÐµÐ¼Ð»Ñİ": 4597,
      "ĠÑģÑĤÐ¾ÑģÐ¾Ð²Ð½Ð¾": 4598,
      "ĠÐ¿ÑĢÐ°ÑĨÑİÐ²Ð°Ð»Ð°": 4599,
      "ĠÐ´Ð¾Ð¿Ð¾Ð¼Ð°Ð³Ð°ÑĶ": 4600,
      "ĠÑĢÐ¾Ð·Ð²Ð¸Ð²Ð°ÑİÑĤÑĮÑģÑı": 4601,
      "ÑģÐ¿ÑĢÐ°Ð²Ð¶": 4602,
      "ĠÑĩÐ¾ÑĤÐ¸ÑĢÑĮÐ¾Ñħ": 4603,
      "Ð¾ÑģÐ¸ÑģÑĤÐµ": 4604,
      "ÑĢÐ°Ð´": 4605,
      "ÐºÑģ": 4606,
      "ĠÐ²Ð´Ñı": 4607,
      "ĠÐ¿Ð°Ð»ÑĮ": 4608,
      "Ð´Ð½Ñĸ": 4609,
      "Ð´Ð²Ð°": 4610,
      "ÑĪÐ¾Ñİ": 4611,
      "Ð·Ð°Ð²": 4612,
      "ĠÐ¾ÑģÑĸÐ±": 4613,
      "ĠÑĥÐ¿ÐµÑĢÐµÐ´": 4614,
      "ĠÐ°Ð¿Ð°ÑĢ": 4615,
      "ĠÐ»Ð¾Ð³": 4616,
      "Ð¾ÐºÑĥÑģ": 4617,
      "ĠÐ¼Ð¸Ñģ": 4618,
      "ĠÐ¿ÑĢÐ¾ÑĨ": 4619,
      "Ð°Ð³Ñĥ": 4620,
      "ĠÐ¿ÑĢÐ¸ÑĶÐ´Ð½": 4621,
      "ĠÐ¿Ð¾Ð´ÑĸÑĹ": 4622,
      "ĠÑģÐ»Ð°Ð±": 4623,
      "Ð°Ð»ÑĸÑģÑĤÑĮ": 4624,
      "ĠÐ²ÐµÐ»Ð¸ÐºÐ¾ÑĹ": 4625,
      "ÑģÑĤÑĢÐ°": 4626,
      "ĠÐ¼Ð¾ÑĤÐ¸Ð²": 4627,
      "ĠÐºÐ¾ÑĢÐ¿Ð¾ÑĢ": 4628,
      "ĠÐ¿Ð¾Ð²ÐµÑĢÑħ": 4629,
      "ĠÐ°Ð²ÑģÑĤÑĢ": 4630,
      "ÐµÐ¹Ñģ": 4631,
      "ĠÐ½Ð°Ð¼Ð°Ð³Ð°ÑĶÑĤÑĮÑģÑı": 4632,
      "ĠÑģÐµÑĢÑĨÑı": 4633,
      "ĠÐ·Ð¼ÑĸÐ½ÑİÑĶÑĤÑĮÑģÑı": 4634,
      "ĠÐ·ÑĥÑģÐ¸Ð»ÑĮ": 4635,
      "ĠÐ¿Ð¾ÑĤÑĢÐµÐ±ÑĥÑĶ": 4636,
      "ĠÐ²Ð¾Ð»Ð¾Ð´Ñĸ": 4637,
      "ĠÐ±ÑĥÐ´Ð¸Ð½Ð¾Ðº": 4638,
      "ĠÐ·ÑĥÐ¿Ð¸Ð½Ð¸": 4639,
      "ĠÑģÑĦÐµÑĢÑĸ": 4640,
      "ĠÐºÐ¾ÑģÐ¼Ñĸ": 4641,
      "ĠÐ¿Ð¾ÑĩÐ°ÑĤÐ¾Ðº": 4642,
      "ĠÐ·Ð²Ð¸Ðº": 4643,
      "ĠÐ±ÑĢÐ¸ÑĤÐ°Ð½": 4644,
      "ĠÐ¿ÑĢÐµÐ·Ð¸Ð´ÐµÐ½ÑĤ": 4645,
      "ĠÐ´Ð¸Ð½Ð°Ð¼": 4646,
      "ÑģÐµÑĢ": 4647,
      "ĠÐ²ÑĤÑĸ": 4648,
      "ÑĩÐ¾Ñİ": 4649,
      "ĠÐ²Ð¸ÑħÐ¾Ð²": 4650,
      "Ð°Ð½Ð¾ÑĹ": 4651,
      "Ð°ÑĤÐ¸Ð¼ÑĥÑĤÑĮ": 4652,
      "ĠÑĸÐ½ÐºÐ¾Ð»Ð¸": 4653,
      "ĠÐ¼ÐµÑĤÐ°": 4654,
      "ĠÐ¿ÑĸÐ´Ð½ÑĸÐ¼": 4655,
      "ĠÑıÐºÑĸÑģÑĮ": 4656,
      "ĠÐ½Ð°ÑĪÐ¸Ð¼Ð¸": 4657,
      "ĠÐ´ÑĥÑĢ": 4658,
      "ĠÑģÑĥÐ±": 4659,
      "ĠÑģÐ¿ÑĢÐ°Ð²ÐµÐ´": 4660,
      "ĠÐ²ÑĸÐ´ÑĩÑĥÐ²Ð°ÑĤÐ¸": 4661,
      "Ð°Ð»ÑĸÐ·Ð°ÑĨÑĸÑĹ": 4662,
      "ĠÑĢÐ¾Ð·ÑĥÐ¼ÑĸÑĶÑĤÐµ": 4663,
      "ĠÐ´Ð°Ð½Ð¸Ð¹": 4664,
      "ĠÐ¿ÑĢÐ¾Ð³ÑĢÐ°Ð¼Ð°": 4665,
      "ĠÐ³ÐµÐ½ÐµÑĢ": 4666,
      "ĠÑĨÐ¸ÑĦÑĢÐ¾Ð²": 4667,
      "ĠÐ·Ð°ÑħÐ¾Ð¿Ð»ÑİÑİ": 4668,
      "ĠÐ¿Ð¾Ð²ÐµÑĢÐ½ÑĥÑĤÐ¸ÑģÑı": 4669,
      "ĠÐ¿Ð¾ÑĤÐµÐ½ÑĨÑĸ": 4670,
      "ĠÐ±ÑĸÐ·Ð½ÐµÑģÑĥ": 4671,
      "ĠÐºÐ°ÑĤÐµÐ³Ð¾ÑĢ": 4672,
      "ĠÐ·Ð»": 4673,
      "ĠÐºÐ°Ð²": 4674,
      "ĠÑĩÐ°ÑĢÑĸÐ²": 4675,
      "ĠÐ·Ð½Ð°Ð½ÑĮ": 4676,
      "ĠÐ·Ð½Ð°ÑĶÑĪ": 4677,
      "ĠÑĪÐ¸": 4678,
      "ÑĤÑĥÑĢ": 4679,
      "Ð¾ÑģÐºÐ¾Ð½": 4680,
      "ĠÑĢÐ¾Ð±Ð¸ÑĤÐµ": 4681,
      "ĠÐ¾Ð´Ð½Ð¾": 4682,
      "ĠÐ·Ð°Ð¿Ð¸": 4683,
      "ĠÑıÐ·Ð°ÑĤÐ¸": 4684,
      "ĠÐ¾ÑĤÑĢÐ¸Ð¼ÑĥÑĶÐ¼Ð¾": 4685,
      "ĠÐ³Ð¾Ð»Ð¾Ð²Ñĥ": 4686,
      "ĠÐ¿Ð¾Ð¿ÑĢÐ¸": 4687,
      "ĠÐ¿Ð¾ÑĩÐ¸Ð½Ð°ÑĶ": 4688,
      "ĠÐºÑĸÐ½ÑĨÐµ": 4689,
      "ĠÑİÑĤÐµÑĢÐ¸": 4690,
      "ĠÐ±Ð»Ð°ÐºÐ¸ÑĤ": 4691,
      "ĠÑĢÑĸÑĪÐµÐ½ÑĮ": 4692,
      "ĠÑģÑĤÑĥÐ´ÐµÐ½ÑĤÐ¸": 4693,
      "ĠÐµÑĦÐµÐºÑĤ": 4694,
      "ĠÐºÑĢÑĸÑģ": 4695,
      "ĠÐ´ÐµÐ¼Ð¾ÐºÑĢÐ°ÑĤÐ¸": 4696,
      "ĠÑĤÐ°Ð½ÑĨ": 4697,
      "ĠÑĢÐ¾Ð·ÐºÐ°Ð·": 4698,
      "ĠÐ±Ð´Ð¶ÑĸÐ»": 4699,
      "ĠÐ±ÑİÐ´Ð¶Ðµ": 4700,
      "ĠÑģÑĤÐ¾ÑĹÑĤÑĮ": 4701,
      "ÑĤÐ¾Ñİ": 4702,
      "ÐºÑĢÑĸ": 4703,
      "ÑıÐ½Ð¸": 4704,
      "Ð¿ÑĢÐ¾Ð±": 4705,
      "ĠÑĸÐ»Ñİ": 4706,
      "Ð¾Ð¼Ñĸ": 4707,
      "Ð¾ÑĢÐµ": 4708,
      "Ð»Ð¸Ð¼": 4709,
      "ĠÑĥÐ¿": 4710,
      "ĠÐ¶Ð¸Ð»Ð¸": 4711,
      "ĠÐ¿Ð¾ÑģÑĤÑĥÐ¿": 4712,
      "ĠÑħÐ¾Ð´Ð¸ÑĤÐ¸": 4713,
      "Ð°ÑħÑĥ": 4714,
      "Ð°Ð»ÑĮÐ½Ð¾ÑģÑĤÑĸ": 4715,
      "ĠÑĪÐµÑģÑĤÐ¸": 4716,
      "ÑĤÑĥÑİÑĤÑĮ": 4717,
      "ĠÐ¿ÐµÑĢÐµÑģÑĤ": 4718,
      "ĠÐ¿ÐµÑĢÐµÐºÐ¾": 4719,
      "ĠÐ¿ÑĸÐ´Ñħ": 4720,
      "Ð»Ð¸Ð²Ñĥ": 4721,
      "ĠÐ±ÑĸÐ»ÑĮÑĪÑĥ": 4722,
      "ĠÐ²Ð¿ÑĢÐ°Ð²": 4723,
      "ĠÐ¼ÑĥÑĪÑĥ": 4724,
      "Ð½ÑĥÑĤÐ¸ÑģÑı": 4725,
      "ĠÐ²Ð»Ð°ÑģÐ½Ð¸Ð¹": 4726,
      "ĠÐ½Ð¾Ð²Ð¸Ð½": 4727,
      "ĠÐ¿Ð¾Ð²ÐµÑĢÑħÐ½Ñĸ": 4728,
      "Ð»ÑıÑĶÑĤÐµ": 4729,
      "ÑħÐ¾Ð´Ð¸ÑĤÐ¸": 4730,
      "Ð³Ð¾ÑĢÐ¸ÑĤ": 4731,
      "ĠÐ²Ð°Ð¶Ð»Ð¸Ð²Ð¸Ð¼": 4732,
      "ĠÑĦÐ¾ÑĤÐ¾Ð³ÑĢÐ°ÑĦÑĸÑĹ": 4733,
      "ĠÐ´Ð¾ÑģÐ²ÑĸÐ´Ñĥ": 4734,
      "ĠÑģÐµÑĢÐµÐ´Ð¾Ð²Ð¸ÑīÐ°": 4735,
      "ĠÑĸÐ³ÑĢÐ°ÑĪ": 4736,
      "ĠÑĤÐµÐ¾ÑĢÑĸÑĹ": 4737,
      "ĠÑģÐ¿ÑĢÐ¸ÑĩÐ¸": 4738,
      "ĠÐ·Ð°Ð±ÐµÐ·Ð¿ÐµÑĩÐ¸ÑĤÐ¸": 4739,
      "ĠÐºÐ¾Ð½ÑĦÐµÑĢÐµÐ½": 4740,
      "ĠÑĶÐ²ÑĢÐ¾Ð¿Ñĸ": 4741,
      "ĠÐ°Ð»Ð³Ð¾ÑĢÐ¸ÑĤ": 4742,
      "ĠÐ½Ð°ÑģÐ¸Ð»ÑĮÑģÑĤÐ²Ð°": 4743,
      "ĠÐ¿Ð¾Ð´ÑĸÐ»Ð¸ÑĤÐ¸ÑģÑı": 4744,
      "ĠÐ¼ÐµÑĪÐºÐ°Ð½": 4745,
      "ĠÐ²ÐµÐ»Ð¾ÑģÐ¸": 4746,
      "Ð¸Ð½Ð¾Ñİ": 4747,
      "ÑĥÑģÑı": 4748,
      "ĠÐ²Ð½ÐµÑģ": 4749,
      "ĠÐ½Ð¾Ð²Ð¸Ð½Ð¸": 4750,
      "ĠÐ·Ð°Ð½Ðµ": 4751,
      "ĠÐ·ÑĢÐµÑĪÑĤÐ¾Ñİ": 4752,
      "ĠÐ¼Ð°Ð½": 4753,
      "ĠÑĤÐ°Ð¹": 4754,
      "ÑģÑĤÑıÐ¼Ð¸": 4755,
      "Ð±ÑĢ": 4756,
      "ÑĨÑĥ": 4757,
      "ÑĹÑĹ": 4758,
      "ÑĸÐ½Ð½Ñĸ": 4759,
      "Ð¾ÑĤÑĸÐ²": 4760,
      "ĠÐ¿ÑĢÐ¾ÑģÑĤÐ°": 4761,
      "Ð¼Ð¾ÑĹ": 4762,
      "Ð»ÐµÐ¶": 4763,
      "Ð¼Ð¸Ñģ": 4764,
      "ĠÐ¿Ð¾ÑĹ": 4765,
      "ĠÑħÐ°": 4766,
      "ĠÑħÐ¾Ð´": 4767,
      "ĠÐ²Ð¾ÑģÑĮ": 4768,
      "ĠÑĪÐ°Ð½": 4769,
      "ĠÐ¿ÐµÑĢÐµÐ²Ð°Ð¶": 4770,
      "ĠÑĹÑħÐ½ÑĮÐ¾Ð³Ð¾": 4771,
      "ĠÐ½ÑĸÐ³": 4772,
      "ÐºÐ¾ÑĪÑĤÐ¾Ð²": 4773,
      "ĠÐ½Ð°Ð´ÑĸÑİ": 4774,
      "ĠÑģÐ»Ð°Ð¹": 4775,
      "Ð¾Ð´ÑĸÐ±": 4776,
      "ĠÐ·Ð´Ð¾Ð±": 4777,
      "ĠÑĢÑĸÐ·Ð½Ð¸ÑĨÑı": 4778,
      "ĠÑģÑħÑĸÐ´": 4779,
      "Ð½ÑĸÑĪÐ¾Ñİ": 4780,
      "ĠÐ²Ð¸ÐºÐ¾ÑĢÐ¸ÑģÑĤÐ¾Ð²ÑĥÑĶ": 4781,
      "ĠÐ¿ÑĢÐ¸Ð²ÑĸÑĤ": 4782,
      "ĠÐ´Ð¸Ð¿Ð»": 4783,
      "ĠÐ²ÑĸÐ´ÑģÑĥÑĤ": 4784,
      "ĠÐ²Ð°ÑĢÑĤÑĸ": 4785,
      "ĠÐºÐ¾Ð½ÑĤÑĢÐ¾Ð»ÑĮ": 4786,
      "ĠÐ¶Ð¾Ð´Ð½Ð¾ÑĹ": 4787,
      "ĠÐ¿Ð¾Ð»Ð¾Ð²Ð¸Ð½Ð¾Ñİ": 4788,
      "Ð¹Ð¾ÑĢÐº": 4789,
      "ĠÐ°ÑĢÑħÑĸÑĤÐµÐº": 4790,
      "ĠÑģÐµÐºÑĥÐ½Ð´": 4791,
      "ĠÑĥÐ¼Ð¾Ð²Ð°Ñħ": 4792,
      "Ð¿Ð¾Ð³Ð»Ñı": 4793,
      "Ð¾ÑīÐ°Ð´": 4794,
      "ĠÐºÑĢÐ¸ÑħÑĸÑĤ": 4795,
      "tu": 4796,
      "ÑĸÑĪÐµ": 4797,
      "ÑģÐºÑĥ": 4798,
      "Ð»Ð°Ð»Ð¸": 4799,
      "ĠÐ½Ð¾": 4800,
      "ĠÐ·Ð¾Ð»": 4801,
      "ĠÑıÑģÐºÑĢÐ°Ð²": 4802,
      "Ð·Ð°Ð¼": 4803,
      "ĠÑĨÑĥÐº": 4804,
      "Ð°ÐºÐ°": 4805,
      "ÑĢÐ¸Ð³": 4806,
      "ĠÐ¿ÑĢÐ¸Ð´": 4807,
      "ĠÐµÐ¿ÑĸÐ´": 4808,
      "ÑİÐ²Ð°Ð»Ð°": 4809,
      "Ġ24": 4810,
      "ĠÐºÐ¾Ð¶Ð½Ñĥ": 4811,
      "ĠÐºÑĢÐ°Ð¿": 4812,
      "ĠÐºÐ¾ÑĢÐ´Ð¾": 4813,
      "ĠÐºÐ°ÑĢÑĤÐ¸Ð½": 4814,
      "ĠÐ¼Ð¾Ð¼ÐµÐ½ÑĤÑĥ": 4815,
      "ĠÐ²Ð¸Ð·Ð½Ð°ÑĩÐµÐ½Ð½Ñı": 4816,
      "ĠÐ½Ð°Ð¹ÐºÑĢÐ°ÑīÐ¸Ð¹": 4817,
      "ĠÐµÐ½ÐµÑĢÐ³ÑĸÑİ": 4818,
      "ÐµÐ¼Ð¾Ð½": 4819,
      "ĠÐ¿ÑĢÐ¸ÑĩÐ¸Ð½Ð¾Ñİ": 4820,
      "ĠÑģÐµÐ½ÑģÑĸ": 4821,
      "ĠÑĢÐ¸Ð½Ð¾Ðº": 4822,
      "ĠÑĢÐ¸Ð½ÐºÑĥ": 4823,
      "ĠÐ·Ð¼Ð¾Ð¶Ñĥ": 4824,
      "ĠÐ¶Ð¾ÑĢÑģÑĤÐ¾Ðº": 4825,
      "ĠÑħÑĸÑĢÑĥÑĢÐ³": 4826,
      "ĠÐ´Ð¸Ð¿Ð»Ð¾Ð¼": 4827,
      "ol": 4828,
      "Ð¾Ð½ÑĥÑĶ": 4829,
      "ĠÐ²ÑĥÑħ": 4830,
      "ĠÐ½Ð¾ÑĩÑĸ": 4831,
      "ĠÐ¼ÑĸÐ½": 4832,
      "ĠÑĤÑĢÐµÑĤ": 4833,
      "Ð½Ð¸ÐºÑĥ": 4834,
      "ĠÑĸÑģÑĤÐ¸": 4835,
      "ÑĸÐ´Ðµ": 4836,
      "ĠÐ¾Ð¾Ð½": 4837,
      "Ð½ÑıÑĶ": 4838,
      "Ð»ÑıÐ´Ñĸ": 4839,
      "ĠÐ¿ÑĢÐ¾ÑģÑĤÐµ": 4840,
      "Ð¼Ð¸Ðº": 4841,
      "ĠÑħÐ°Ðº": 4842,
      "Ð´Ð¸ÑĤÑĮ": 4843,
      "ĠÑĢÐ¾Ð·ÑĩÐ°ÑĢ": 4844,
      "ÑĢÐµÐ¹": 4845,
      "Ð¾ÑĹÐ²": 4846,
      "ĠÐ·Ð°Ð²Ð°Ð½ÑĤÐ°Ð¶": 4847,
      "ĠÐ¾ÑĤÑĢÐ¸Ð¼ÑĥÑĶ": 4848,
      "ĠÐºÐ¾Ð»ÑĸÑĢ": 4849,
      "ĠÐ·Ð°Ð±ÑĥÐ²": 4850,
      "ĠÐ¿ÐµÑĢÑĪÐ¾Ð³Ð¾": 4851,
      "ĠÑĩÑĥÐ´Ð¾Ð²Ð°": 4852,
      "ĠÐ²Ð¸Ð¿Ð°Ð´ÐºÑĸÐ²": 4853,
      "ĠÑģÑĤÐ°Ð²Ð»ÐµÐ½Ð½Ñı": 4854,
      "ĠÐ²ÑģÑİÐ´Ð¸": 4855,
      "ĠÑĤÐµÑĢÐ¾ÑĢÐ¸": 4856,
      "ĠÐºÑĥÐ¿Ð¸ÑĤÐ¸": 4857,
      "ĠÐ²Ð°Ð¶Ð»Ð¸Ð²Ðµ": 4858,
      "ĠÑģÐ¿ÑĢÐ¸Ð¹Ð½ÑıÑĤÑĤÑı": 4859,
      "ĠÐ´Ð¾Ð¿Ð¾Ð¼Ð°Ð³Ð°ÑİÑĤÑĮ": 4860,
      "ĠÑĸÐ½ÑģÑĤÑĢÑĥÐ¼ÐµÐ½ÑĤÐ¸": 4861,
      "ĠÑĢÐ¾ÑģÐ»Ð¸Ð½": 4862,
      "ÐµÐ¼ÑĸÐ½Ñĸ": 4863,
      "ĠÐ½ÐµÐ²ÐµÐ»Ð¸Ñĩ": 4864,
      "ĠÐ·Ð°Ð²ÐµÑĢÑĪ": 4865,
      "ĠÑĸÐ½Ð²ÐµÑģÑĤÐ¸": 4866,
      "ĠÐ´ÑĸÐ°Ð³Ð½Ð¾": 4867,
      "ĠÐ¿ÑĸÐ´ÑģÑĥÐ¼": 4868,
      "Ð»Ð¾Ð¼Ñĥ": 4869,
      "ĠÐ²Ð¶Ð¸Ð²": 4870,
      "ĠÐ¿ÐµÐ½": 4871,
      "ĠÐ¿Ð°Ðº": 4872,
      "ÑĤÐ¸Ð¼": 4873,
      "ÑĩÐ¸Ð¼Ð¸": 4874,
      "Ð½Ð¸Ð²": 4875,
      "ĠÐ±Ð¾Ð¼": 4876,
      "Ð½ÑĸÑİ": 4877,
      "Ð°Ð»ÑĸÐ¹": 4878,
      "ĠÑĢÑı": 4879,
      "ĠÑĥÑĤÑĢÐ¸Ð¼": 4880,
      "ÐµÑĢÐµÐ¶ÐµÐ½Ð½Ñı": 4881,
      "Ð»ÐµÐ¼": 4882,
      "Ð°ÑĩÑĥ": 4883,
      "ĠÑĢÐ¾Ð·ÑĢÐ°Ñħ": 4884,
      "ĠÑĪÐ¾Ðº": 4885,
      "ĠÑĪÐºÑĸÐ»ÑĮ": 4886,
      "ÑĢÐµÑģÑĥ": 4887,
      "ĠÐ¹ÑĤÐ¸": 4888,
      "ĠÐ¿Ð¾Ð²Ð¾Ð´": 4889,
      "Ð´ÑĸÐ±": 4890,
      "ĠÐ´ÑĥÐ¼Ð°Ð»Ð¸": 4891,
      "Ð¾Ð²ÑĥÑİÑĩÐ¸": 4892,
      "ÑĩÐµÐ½Ð¸Ð¹": 4893,
      "ĠÐ²ÐµÐ»Ð¸ÐºÐµ": 4894,
      "ÐµÐ´ÐµÐ½Ð½Ñı": 4895,
      "ÑĤÐ¾ÑĢÐ¾Ð¼": 4896,
      "ĠÐ¿ÑĢÐ¾Ð´ÐµÐ¼Ð¾Ð½": 4897,
      "ĠÐ»ÑİÐ´ÑģÑĮÐºÐ¸Ñħ": 4898,
      "ĠÐ¼Ð¾Ð³Ð»Ð¾": 4899,
      "ĠÑĪÐ²Ð¸Ð´ÐºÑĸÑģÑĤÑĮ": 4900,
      "ĠÐ¿Ð¾ÑĩÐ¸Ð½Ð°ÑĶÐ¼Ð¾": 4901,
      "ĠÐ¿ÑĢÐ¾ÑĨÐµÑģÑĥ": 4902,
      "ÑĤÐ¸Ð½Ð³": 4903,
      "ÑĶÐ½ÑĤ": 4904,
      "ĠÐ½ÐµÐ¿ÑĢÐ¸": 4905,
      "ĠÐ¼Ð°ÑĤÐµÑĢÑĸÐ°Ð»Ð¸": 4906,
      "ĠÑģÐ¼ÐµÑĢÑĤÑĮ": 4907,
      "ĠÐ¿Ð¸ÑĪ": 4908,
      "ĠÐ¿Ð¾ÑĤÑĢÐµÐ±ÑĥÑİÑĤÑĮ": 4909,
      "ĠÑĢÐµÐ°Ð»ÑĮÐ½Ð¾Ð¼Ñĥ": 4910,
      "ĠÐ·Ð°Ð±ÐµÐ·Ð¿ÐµÑĩÐµÐ½Ð½Ñı": 4911,
      "ĠÐ´ÑĢÑĥÐ·ÑıÐ¼Ð¸": 4912,
      "ĠÑĢÐµÐ²Ð¾Ð»ÑİÑĨÑĸÑĹ": 4913,
      "ĠÐºÐ°ÑĢÑĤÐ¸Ð½Ñĥ": 4914,
      "ĠÐºÐ°Ð»ÑĸÑĦÐ¾ÑĢ": 4915,
      "ĠÐ½Ð°ÑĢÐºÐ¾ÑĤÐ¸": 4916,
      "Ð²Ð¸Ð¼": 4917,
      "ÑıÐºÑĥ": 4918,
      "ĠÐ¿ÑĸÐ½Ð³": 4919,
      "Ð´Ð½Ð¾": 4920,
      "ÑĤÐ¸ÑģÑĮ": 4921,
      "ĠÐ´ÑĢÑĸÐ±": 4922,
      "ĠÐ¾Ð´Ð¸": 4923,
      "Ð³Ðµ": 4924,
      "Ð°ÐºÑĤÐ¸Ð²": 4925,
      "ÑĸÐ½ÐºÐ¸": 4926,
      "ĠÐ¿ÐµÑĢÐµÐ²Ñĸ": 4927,
      "ĠÐ¼ÐµÑĤÑĢÑĸÐ²": 4928,
      "ÑĢÐ¾Ð±ÑĸÑĤ": 4929,
      "ĠÐ¿Ð¾Ð²ÑĸÑĢ": 4930,
      "ĠÐ¿ÑĸÐ´Ð²Ð¸Ñī": 4931,
      "ĠÑıÐºÑĸÑģÑĤÑĮ": 4932,
      "ĠÐ·ÑĢÐ¾Ð±Ð¸Ð¼Ð¾": 4933,
      "ĠÑĤÐ¸Ð¿": 4934,
      "ĠÐ¿Ð¾ÑĩÑĥÑĤÐ¸": 4935,
      "ÑĨÑıÐ¼": 4936,
      "ĠÐ½Ð°Ð¿Ð¾Ð²": 4937,
      "ĠÐ±ÐµÐ·ÐºÐ¾ÑĪÑĤÐ¾Ð²": 4938,
      "ĠÐºÐ¾Ð½ÐºÑĥÑĢ": 4939,
      "ĠÐµÐºÐ¾ÑģÐ¸ÑģÑĤÐµ": 4940,
      "ÑĤÐ°ÐºÐ¸": 4941,
      "ĠÐ¼Ð°Ð¹ÑģÑĤÐµÑĢ": 4942,
      "ĠÑģÑħÐµ": 4943,
      "ĠÐ¿ÑĢÐ¾ÐµÐºÑĤÐ¸": 4944,
      "ĠÐ´Ð¾ÑĢÐ¾Ð³": 4945,
      "ĠÐ½Ð°Ð¿Ð¸ÑģÐ°ÑĤÐ¸": 4946,
      "ĠÑĤÐµÐ»ÐµÐ²ÑĸÐ·": 4947,
      "ĠÑĤÐ²Ð°ÑĢÐ¸Ð½Ð¸": 4948,
      "Ð»Ð¸ÑĤÐ¸ÑģÑı": 4949,
      "ĠÑĶÐºÑĤ": 4950,
      "ĠÐ¾Ð¿ÐµÑĢÐ°ÑĨÑĸÐ¹": 4951,
      "ÑĤÐ¾Ð²Ñħ": 4952,
      "ĠÐ°Ð²ÑĤÐ¾Ð¼Ð°ÑĤÐ¸": 4953,
      "ĠÑģÑĤÑĢÑĥÐºÑĤÑĥÑĢÑĥ": 4954,
      "ĠÑĢÑĥÐºÐ°Ñħ": 4955,
      "ĠÑĥÐ½ÑĸÐ²ÐµÑĢÑģÐ¸ÑĤÐµÑĤÑĥ": 4956,
      "ĠÐ¾Ð±Ð¼ÐµÐ¶": 4957,
      "ĠÑĸÑģÑĤÐ¾ÑĢÐ¸": 4958,
      "ĠÐ¿Ð¾Ð±ÑĥÐ´ÑĥÐ²Ð°ÑĤÐ¸": 4959,
      "ĠÐ³ÑĢÐ°ÑĦÑĸÐº": 4960,
      "ĠÐ½ÐµÑīÐ¾Ð´Ð°Ð²Ð½Ð¾": 4961,
      "ĠÑĪÐ¸ÑĢÐ¾Ðº": 4962,
      "ĠÑģÐ¿Ð¸ÑģÐ¾Ðº": 4963,
      "ĠÐ²ÑĸÐ»": 4964,
      "ĠÐ¿Ð¾Ð¶": 4965,
      "ĠÐ·Ð´ÐµÐ±ÑĸÐ»ÑĮÑĪÐ¾Ð³Ð¾": 4966,
      "ĠÐºÑĸÐ½Ð¾": 4967,
      "ÑĨÐµÐ½ÑĤÑĢ": 4968,
      "ĠÐ²Ð¸ÑĢÐ°Ð·": 4969,
      "ĠÑĥÐ³": 4970,
      "Ð½ÑıÐ²": 4971,
      "Ð°ÐºÑĤ": 4972,
      "Ð½ÑĥÐº": 4973,
      "ĠÐ¶Ð°ÑĢ": 4974,
      "ĠÑĢÐ¾Ð·ÑĤÐ°ÑĪ": 4975,
      "ÑĢÑĥÐ¶": 4976,
      "ĠÐ·Ð°ÑĥÐ²Ð°Ð¶": 4977,
      "ĠÐ·Ð°Ð¾ÑīÐ°Ð´": 4978,
      "ĠÐ´ÐµÑħÑĤÐ¾": 4979,
      "ĠÑģÐ°Ð¼Ð¸Ð¼": 4980,
      "ĠÐ´ÑĸÐ¼": 4981,
      "Ð¿ÐµÑĢÑĪÐ¸Ð¹": 4982,
      "Ð¾Ð²Ð¸Ð½Ð°": 4983,
      "ĠÐºÐ¾Ð¶Ð½Ð¾ÑĹ": 4984,
      "ĠÑĥÑģÑĸÐ¼Ð°": 4985,
      "ĠÑĢÐ¾Ð·Ð¿ÑĸÐ·Ð½": 4986,
      "ĠÐ¼Ð¾Ð»Ð¾Ñĩ": 4987,
      "Ġ300": 4988,
      "ĠÑĨÑĸÐ»Ñĸ": 4989,
      "ĠÐ¾ÐºÑĢÑĸÐ¼": 4990,
      "ĠÐ¼ÐµÑĤÐ¾Ñİ": 4991,
      "ĠÐ¼Ð°ÑĪÐ¸Ð½Ñĥ": 4992,
      "ĠÐ¿ÑĢÐ¾ÑĤÐ¸Ð»ÐµÐ¶": 4993,
      "ĠÐºÐ¸ÑĤÐ°ÑĹ": 4994,
      "ĠÐ¾ÑģÐ¾Ð±Ð¸ÑģÑĤÑĸ": 4995,
      "ĠÐ²ÑĸÑĢÑĥÑģ": 4996,
      "ĠÐ²Ð¸Ð¿ÑĢÐ¾Ð±ÑĥÐ²Ð°Ð½Ð½Ñı": 4997,
      "ĠÑĢÐµÐ»ÑĸÐ³ÑĸÐ¹": 4998,
      "ĠÐºÐ¾Ð¼Ð°Ð½Ð´Ð¸": 4999,
      "ĠÐºÑĸÐ»Ð¾Ð¼Ðµ": 5000,
      "ĠÐ±ÑĸÐ±Ð»ÑĸÐ¾ÑĤÐµ": 5001,
      "Ð»ÑĥÑĩ": 5002,
      "ĠÐ²Ð¼": 5003,
      "ĠÐ·Ð´ÑĸÐ±": 5004,
      "ĠÑģÑĸÐ´": 5005,
      "Ð¿Ð¾Ð½": 5006,
      "Ð¾Ð²Ð°Ð½Ðµ": 5007,
      "ĠÐ±Ð°ÑĤ": 5008,
      "ĠÐ±Ð¾Ð»Ñİ": 5009,
      "ĠÐºÐ°Ð»": 5010,
      "ÑĪÐºÑĥ": 5011,
      "Ð·Ð³": 5012,
      "ĠÐ½Ð°ÑıÐ²": 5013,
      "Ð¾Ð´Ð½Ð¾": 5014,
      "ĠÐ´Ð¾Ñī": 5015,
      "Ð»ÐµÑİ": 5016,
      "ĠÑħÐ¾Ð»Ð¾Ð´": 5017,
      "Ð°Ð³Ð¾ÑĢ": 5018,
      "Ð½ÐµÐ½Ð¸Ñħ": 5019,
      "ĠÑĤÐµÑħ": 5020,
      "ÑĤÑĢÐ¾Ð¿": 5021,
      "ĠÐ¾Ð±ÐµÑĢÑĤ": 5022,
      "ĠÐ²ÐµÐ´": 5023,
      "Ð¸Ð½ÑĥÐ²": 5024,
      "ĠÐºÐ¾Ð½ÑĤÐµÐº": 5025,
      "ĠÐºÐ¾Ð¼Ð¿Ð¾Ð½": 5026,
      "Ð²ÐµÑģÑĮ": 5027,
      "ĠÑĢÐ¾Ð·Ð¿Ð¾Ð´": 5028,
      "ÐºÐ¾Ð²Ð¾Ð³Ð¾": 5029,
      "ĠÐ¼Ð°Ð»ÐµÐ½ÑĮÐºÐ°": 5030,
      "ĠÑĤÑĥÐ°Ð»Ðµ": 5031,
      "ĠÐ¼ÐµÑĤÐ¾Ð´Ð¸": 5032,
      "ĠÐ´Ð¾Ð·Ð²Ð¾Ð»ÑĮÑĤÐµ": 5033,
      "ĠÑĤÐ¸Ð¶Ð½Ñĸ": 5034,
      "ĠÑģÑĤÐ¾ÑģÑĥÐ½ÐºÐ¸": 5035,
      "ĠÑģÐ¿ÑĢÐ°Ð²Ð¶Ð½ÑĸÐ¹": 5036,
      "ĠÑģÐ¸Ð¼Ð¿": 5037,
      "ĠÐ¿ÑĢÐ¸Ð³Ð¾Ð»Ð¾Ð¼": 5038,
      "ĠÐ¿ÑĢÐ¾Ð´ÑĥÐºÑĤÐ¸Ð²": 5039,
      "ĠÑĶÐ²ÑĢÐ¾Ð¿ÐµÐ¹": 5040,
      "ĠÐ¿Ð¾Ð»Ð¾Ð²Ð¸Ð½Ð°": 5041,
      "ĠÑĢÐ¾Ð·Ð¿Ð¾Ð²ÑģÑİ": 5042,
      "ĠÑĤÑĢÐ°Ð¿Ð¸Ð»Ð¾ÑģÑı": 5043,
      "ĠÐ½Ð°Ð¿ÑĢÑıÐ¼ÐºÑĥ": 5044,
      "ĠÐ²Ð¸ÑĢÑĸÑĪÐ¸Ð»Ð°": 5045,
      "ĠÐ·Ð°Ð¼Ð¸Ñģ": 5046,
      "Ð½ÐµÐ½ÑĮ": 5047,
      "ÐºÑģÐ¸": 5048,
      "ĠÐ²ÐºÐ»Ð°Ð´": 5049,
      "ĠÐ½ÐµÑĢÑĸÐ²": 5050,
      "ĠÐ¼Ð¾ÑĤ": 5051,
      "ĠÐ±Ð¾Ð³Ð°": 5052,
      "ĠÑĸÑģÐ¿": 5053,
      "ÐµÐ½ÐµÑĢ": 5054,
      "ĠÐ½Ð°ÑĤÐ¸": 5055,
      "ĠÐ½ÐµÑģ": 5056,
      "ÑĶÐ´Ð¸": 5057,
      "Ð½Ð°ÑģÑĤÑĥÐ¿": 5058,
      "ĠÐ²ÑĸÐ´ÐºÐ¸": 5059,
      "ĠÐ³Ð½Ñĥ": 5060,
      "ĠÑģÐ¿ÑĢÐ¾": 5061,
      "ĠÑģÐ¿Ð¾Ð´Ð¾Ð±": 5062,
      "ĠÐ¿Ð¾Ñī": 5063,
      "ÑĩÐ¸ÑĤÑĮ": 5064,
      "Ð²Ð¸ÑıÐ²Ð»ÑıÑĶÑĤÑĮÑģÑı": 5065,
      "ĠÑĪÐ°Ñħ": 5066,
      "Ð°Ð±ÑĢÐ¸": 5067,
      "ĠÑĩÐ°ÑģÑĸÐ²": 5068,
      "Ð´ÑĸÑİ": 5069,
      "Ð»Ð¸Ð²Ð¾Ð³Ð¾": 5070,
      "ĠÐºÐ¾Ð¶Ð½ÑĸÐ¹": 5071,
      "ĠÐ²Ð°Ð¶Ð»Ð¸Ð²Ð°": 5072,
      "ĠÐ»ÑİÐ´ÑģÑĮÐºÐ¾ÑĹ": 5073,
      "ĠÐ·Ð°Ð±ÑĥÐ´": 5074,
      "ĠÐ²Ð¸Ð±Ð¾ÑĢ": 5075,
      "ĠÐ·Ð¼ÑĸÐ½ÑİÑĶ": 5076,
      "ĠÐ»ÑĸÐ¶": 5077,
      "ĠÐ·ÑĥÑģÐ¸Ð»": 5078,
      "Ð½ÑĥÐ²ÑĪÐ¸": 5079,
      "ĠÐ·Ð°Ð¿Ð¸ÑĤÐ°ÑĤÐ¸": 5080,
      "ĠÑĤÐ¾ÑĢÐº": 5081,
      "ĠÐ»ÑĸÐºÐ°ÑĢÐ½Ñĸ": 5082,
      "ĠÐ²Ð¸ÑĢÐ¾Ð±Ð½Ð¸ÑĨÑĤÐ²Ð°": 5083,
      "ĠÐ¿ÑĢÐ¾Ð´Ð¾Ð²Ð¶ÑĥÐ²Ð°ÑĤÐ¸": 5084,
      "ĠÐ½Ð°ÑĥÐºÐ°": 5085,
      "ĠÐ´ÐµÐ¼Ð¾ÐºÑĢÐ°ÑĤÑĸÑĹ": 5086,
      "ĠÐ¿Ð¸ÑģÑĮÐ¼ÐµÐ½": 5087,
      "ĠÐ¹Ð¼Ð¾Ð²ÑĸÑĢÐ½Ð¾": 5088,
      "ĠÐ³Ð¾ÑģÐ¿Ð¾Ð´": 5089,
      "ĠÐ·Ð°Ð¾ÑħÐ¾Ñĩ": 5090,
      "ĠÐ¿Ð¾ÑīÐ°ÑģÑĤÐ¸": 5091,
      "ÑĸÐ¿": 5092,
      "Ð½ÑİÐ²Ð°ÑĤÐ¸": 5093,
      "ÐµÑĤÐ¸Ñĩ": 5094,
      "ĠÐ´Ð¾Ð¼Ñĥ": 5095,
      "ĠÑĤÐ°Ð»": 5096,
      "ĠÑıÑĤÑĸ": 5097,
      "Ð½ÑĸÑħÑĤÐ¾": 5098,
      "ÑĪÑĤÐµÐ¹": 5099,
      "Ð·Ð°Ð¿": 5100,
      "Ð·ÑĸÑĹ": 5101,
      "Ð¶Ð´Ð¶": 5102,
      "ĠÑıÐºÑĢÐ°Ð·": 5103,
      "ĠÑģÑĤÐ¾ÑĢÐ¾Ð½Ð¸": 5104,
      "ĠÐ¿Ð¾ÑĶÐ´": 5105,
      "ĠÑĦÐµÐ¼ÑĸÐ½Ñĸ": 5106,
      "ĠÐ¾Ð´ÐµÑĢÐ¶": 5107,
      "ĠÐ¾Ð´ÑĢÐ°Ð·Ñĥ": 5108,
      "ÑĸÑıÐ¼Ð¸": 5109,
      "ĠÐ¼ÑĥÑģÐ¸ÑĤÑĮ": 5110,
      "ĠÐºÐ¾ÑĢÐµ": 5111,
      "ĠÐ½Ð¾Ð²Ð¾ÑĹ": 5112,
      "ĠÐ¿Ð¾ÐºÐ°Ð·Ð°Ð²": 5113,
      "ĠÑĤÐµÑħÐ½Ð¾Ð»Ð¾Ð³ÑĸÑİ": 5114,
      "Ġ197": 5115,
      "ĠÐ¿ÐµÐ²Ð½Ñĥ": 5116,
      "ĠÐ·Ð³ÑĸÐ´Ð½Ð¾": 5117,
      "ĠÐ¿ÑĢÐ¸ÐºÐ»Ð°Ð´Ñĥ": 5118,
      "ĠÐ´Ð¾ÑģÑıÐ³ÑĤÐ¸": 5119,
      "ĠÑĩÐµÑĢÐ³Ñĥ": 5120,
      "ĠÐ²ÐµÑĢÑĪÐ¸": 5121,
      "ĠÐºÐ¾ÑĤÑĢÐ¸Ð¹": 5122,
      "ĠÐ°Ð¼ÐµÑĢÐ¸ÐºÐ°Ð½ÑĨÑĸÐ²": 5123,
      "ĠÑĪÑĤÐ°ÑĤÑĸÐ²": 5124,
      "ĠÐ¿Ð¾Ð´ÑĸÐ±Ð½Ðµ": 5125,
      "ĠÑĸÐ³ÑĢÐ¸": 5126,
      "ĠÑĢÐ¾Ð·Ð¼Ð¾Ð²Ð¸": 5127,
      "Ð¿Ð¾Ð´Ð¸Ð²": 5128,
      "ĠÑģÐ°Ð¹ÑĤ": 5129,
      "ÑħÐ¾ÑĩÐ°": 5130,
      "ĠÐ¿ÐµÑĢÐµÐ²ÑĸÑĢÐ¸ÑĤÐ¸": 5131,
      "ĠÐ±Ð»Ð¸Ð¶ÑĩÐµ": 5132,
      "ĠÑģÐ°Ð¼Ð¾ÑģÑĤÑĸÐ¹Ð½Ð¾": 5133,
      "ĠÑĢÐµÐ¶Ð¸Ð¼": 5134,
      "ĠÐ·Ð¼ÑĥÑģÐ¸ÑĤÐ¸": 5135,
      "ps": 5136,
      "ĠÐ²ÑĸÐ²": 5137,
      "Ð´Ð°Ð½": 5138,
      "ĠÑĤÑĸÐ¹": 5139,
      "Ð¿Ð°Ð´": 5140,
      "ĠÑĢÐ°Ñģ": 5141,
      "ĠÑĨÐ¸Ðº": 5142,
      "Ð¾ÑĢÐ³Ð°Ð½Ñĸ": 5143,
      "Ð±Ð¾Ð»": 5144,
      "Ð±ÐµÐ·": 5145,
      "ÑĨÐ¸Ð´": 5146,
      "ĠÐ½Ð°ÑģÑĤÐ°Ð²": 5147,
      "Ð°ÑĢÐ¾Ð¼": 5148,
      "ĠÑģÑĤÐ°Ð´": 5149,
      "ĠÐ¿ÑĢÐ¾ÑıÐ²": 5150,
      "Ð°ÑĤÐ¾Ð¼": 5151,
      "ĠÑģÐ¿Ð°Ð»": 5152,
      "ĠÐ·Ð½Ð°Ðº": 5153,
      "ĠÐ·Ð°Ð¿Ð°Ð¼": 5154,
      "ĠÐ¿Ð¾ÐºÐ»Ð°Ð´": 5155,
      "ÑĨÑıÑħ": 5156,
      "Ð°ÑĶÑĤÐµÑģÑı": 5157,
      "ĠÐ±Ð°ÑĩÐµÐ½Ð½Ñı": 5158,
      "Ð¾Ð²Ð°Ð½Ð¸Ð¼": 5159,
      "ĠÐ²ÐµÐ»Ð¸ÐºÐ¾Ð³Ð¾": 5160,
      "ĠÑĸÑģÑĤÐ¾ÑĢÑĸÐ¹": 5161,
      "ĠÐ²Ð»Ð°ÑģÑĤÐ¸": 5162,
      "ÑĸÐ½Ð½ÑıÐ¼": 5163,
      "ĠÑģÐºÐ»Ð°Ð´Ð½Ñĸ": 5164,
      "ĠÐ¿ÑĢÐ¾Ð²Ð¾Ð´Ð¸ÑĤÐ¸": 5165,
      "ĠÑģÐ²Ñı": 5166,
      "ĠÑģÑĮÐ¾Ð³Ð¾Ð´Ð½ÑĸÑĪ": 5167,
      "ÑĥÐ²Ð°Ð»Ð°ÑģÑı": 5168,
      "ĠÐ°ÑĢÐ°Ð±": 5169,
      "ĠÑĢÑĥÐ¹": 5170,
      "ÐµÑĢÐµÐ´Ð¸Ð½Ñĥ": 5171,
      "ĠÑıÐ²Ð»ÑıÑİÑĤÑĮÑģÑı": 5172,
      "ĠÐ²ÐµÐ»Ð¸ÑĩÐµÐ·Ð½Ð¸Ð¹": 5173,
      "ĠÑĶÐºÑĤÐ¸": 5174,
      "ĠÐ³Ð¾Ð´Ð¸Ð½Ñĥ": 5175,
      "ĠÐ¶ÑĥÑĢÐ½Ð°Ð»Ñĸ": 5176,
      "ĠÐ²ÑģÐµÑģÐ²ÑĸÑĤÑĥ": 5177,
      "ĠÑĤÐµÐºÑģÑĤ": 5178,
      "ĠÐ²ÑĥÐ³Ð»Ðµ": 5179,
      "ĠÐ¾ÑĦÑĸÑģ": 5180,
      "ĠÐµÐ¿ÑĸÐ´ÐµÐ¼Ñĸ": 5181,
      "20": 5182,
      "ÐºÑĢÑĸÐ¼": 5183,
      "ĠÐ·Ð¾ÑĢ": 5184,
      "ĠÐ¼ÑĥÐ´": 5185,
      "ĠÐ¿ÑĢÐ¸ÑĤ": 5186,
      "Ð¾Ð³Ð½Ñĸ": 5187,
      "Ð°Ð½Ð¾Ñİ": 5188,
      "Ð°Ð¼Ðµ": 5189,
      "ÑĤÐµÑģÑĮ": 5190,
      "Ð²ÑĸÑĩÑĸ": 5191,
      "ĠÐ¿ÑĢÐ¸ÑģÑĤÐ¾Ñģ": 5192,
      "ĠÐ½Ð°ÑģÐ¾Ð»": 5193,
      "ĠÐ¾Ð±ÑĩÐ¸": 5194,
      "ĠÐ½Ð°Ð²ÑĩÐ¸": 5195,
      "ĠÑĢÐ¾ÐºÐ°Ñħ": 5196,
      "ĠÐ¾Ð¿Ð¸ÑĤ": 5197,
      "ĠÐ½Ð°Ð´ÑĸÐ¹": 5198,
      "Ð¾Ð»Ð¾Ð³Ð¸": 5199,
      "ĠÐºÑĸÐ»ÑĮÐºÑĸÑģÑĤÑİ": 5200,
      "ĠÐ¶ÑĸÐ½ÐºÑĥ": 5201,
      "ĠÑģÐ¿Ð¾Ð½ÑĥÐº": 5202,
      "ĠÐ¿Ð¾Ð²ÐµÑĢÐ½ÑĥÐ²ÑģÑı": 5203,
      "ÑĢÑĸÑĪÐºÐ¸": 5204,
      "ĠÐ¿ÑĢÐ¸Ð¹Ð½ÑıÑĤÐ¸": 5205,
      "ĠÐ¿ÐµÑĢÑĪÐ¸Ñħ": 5206,
      "ĠÐ²Ð¸Ð³Ð»ÑıÐ´Ð°ÑİÑĤÑĮ": 5207,
      "ĠÑĢÐ¾Ð·ÑĥÐ¼Ñĥ": 5208,
      "ÑģÑĤÑĢÑĥÐºÑĤÑĥ": 5209,
      "Ð»ÑĥÐ·": 5210,
      "ĠÑĤÐµÐ»ÐµÐ±Ð°Ñĩ": 5211,
      "ĠÐ¿ÑĢÐ¾Ð¼Ð¾Ð²": 5212,
      "ĠÐ¿Ð¾Ð³Ð»ÑıÐ½ÑĥÑĤÐ¸": 5213,
      "ĠÐ·Ð°ÑħÐ¸ÑģÑĤÑĥ": 5214,
      "ĠÐ²ÑĸÐ´ÑĩÑĥÐ²Ð°ÑİÑĤÑĮ": 5215,
      "ĠÐ±ÑĥÐ´ÑĸÐ²ÐµÐ»ÑĮ": 5216,
      "ĠÑĪÑĥÐºÐ°ÑĤÐ¸": 5217,
      "ĠÑģÐµÑĢÐµÐ´Ð¾Ð²Ð¸ÑīÑĸ": 5218,
      "ĠÐ³Ð»Ð¸Ð±Ð¾ÐºÐ¾": 5219,
      "ĠÐ·Ð°ÑħÐ²Ð¾ÑĢÑİÐ²": 5220,
      "ĠÑģÐµÑĢÐ¹Ð¾Ð·Ð½Ð¾": 5221,
      "ĠÑģÐ²Ð¾Ð±Ð¾Ð´Ñĥ": 5222,
      "ĠÑĤÑĢÐ°Ð½ÑģÐ¿Ð¾ÑĢÑĤ": 5223,
      "ĠÑģÑĤÐ°Ð½Ð¾Ð²Ð¸ÑĤÑĮ": 5224,
      "Ð¿ÑĢÐ¾Ð±Ð»Ðµ": 5225,
      "Ġr": 5226,
      "ÑĤÐ°Ð½": 5227,
      "ÑĢÐ°Ð½Ñĸ": 5228,
      "Ð»ÐµÑĢ": 5229,
      "ÑıÐ¶": 5230,
      "ĠÐ¿ÑĥÑħ": 5231,
      "ĠÑĤÑĢÑĸÑĪÐºÐ¸": 5232,
      "ÑħÐ°Ð¹": 5233,
      "Ð°Ð»Ñı": 5234,
      "ĠÐ¾Ð³Ð¾Ð»": 5235,
      "Ð°Ð¼ÐµÑĢ": 5236,
      "ĠÐ»Ð¾Ñģ": 5237,
      "Ð¾ÑĤÐ¾Ð³ÑĢÐ°ÑĦ": 5238,
      "ĠÐ³ÑĸÐ³": 5239,
      "ÐºÑĥÐ»Ñı": 5240,
      "ĠÑħÐ¾Ð»": 5241,
      "Ð¶ÐµÑİ": 5242,
      "ĠÑĤÐµÐ°ÑĤ": 5243,
      "ĠÑĶÐ³Ð¸": 5244,
      "ĠÑĦÐ°Ð±ÑĢÐ¸": 5245,
      "Ð¾ÑĩÐºÐ¸": 5246,
      "Ð¾ÑģÐºÑĸÐ»ÑĮÐºÐ¸": 5247,
      "ĠÐ¾Ð±Ñĸ": 5248,
      "ĠÐ¾Ð±ÑģÑĤÐ°Ð²": 5249,
      "Ð»ÑİÑĩÐ½Ð¾": 5250,
      "ĠÐ·Ð°Ð¿ÐµÑĢÐµÑĩ": 5251,
      "ĠÐ±ÑĸÐ»ÑĮÑĪÐ¸Ð¹": 5252,
      "ĠÐºÐ¾Ð¼Ð¿Ð»ÐµÐº": 5253,
      "ĠÐºÑĢÐ°Ð¹": 5254,
      "ĠÐ²ÑĸÐ´ÑĩÑĥÑĤÐ¸": 5255,
      "ĠÐ¿ÑĢÐ¾Ð³ÑĢÐµÑģ": 5256,
      "ĠÑĸÐ½ÑĦÐ¾ÑĢÐ¼Ð°ÑĨÑĸÐ¹": 5257,
      "ĠÐ²ÑĸÐ´Ð±ÑĥÐ²Ð°ÑİÑĤÑĮÑģÑı": 5258,
      "ÑħÐ¾Ð´ÑĸÐ²": 5259,
      "ĠÐ´Ð¾Ð¿Ð¾Ð¼Ð¾Ð³Ñĥ": 5260,
      "ĠÐ¿Ð¾Ð´ÑĥÐ¼Ð°Ð»Ð¸": 5261,
      "ĠÑģÑĥÐ¿ÑĥÑĤ": 5262,
      "ĠÐ¿Ð¾ÑģÐ»ÑĥÐ³": 5263,
      "ĠÑĤÐµÐ¾ÑĢÑĸÑı": 5264,
      "ĠÑģÑĤÑĢÑĥÐºÑĤÑĥÑĢÐ¸": 5265,
      "ĠÑģÐºÐ°Ð¶ÑĸÐ¼Ð¾": 5266,
      "ĠÑģÑĤÐ¾Ð»ÑĸÑĤÑĤÑĸ": 5267,
      "ĠÐ²Ð»Ð°Ð´Ð¸": 5268,
      "ĠÑģÐ¿ÑĸÐ²Ð¿ÑĢÐ°ÑĨÑĸ": 5269,
      "ĠÐ¼ÐµÑħÐ°Ð½ÑĸÐ·Ð¼": 5270,
      "ĠÐ¿ÑĢÐ¾ÑģÑĤÐ¾ÑĢÑĸ": 5271,
      "ĠÐ½Ð°Ð¹Ð±Ð»Ð¸Ð¶": 5272,
      "ĠÐ´ÑĸÑıÐ»ÑĮÐ½Ð¾ÑģÑĤÑĸ": 5273,
      "ĠÐ·Ð²Ð¾ÑĢÐ¾ÑĤ": 5274,
      "ÐµÐ½Ð¸Ñħ": 5275,
      "ÑĥÑģÑĤÐ¸ÑĤÐ¸": 5276,
      "Ð´Ð¾Ð²": 5277,
      "ĠÐ½ÐµÑĢÐ²": 5278,
      "Ð°Ñī": 5279,
      "ĠÑĤÑİ": 5280,
      "ĠÑĢÑĸ": 5281,
      "Ð±Ð°ÑĤÐ¸": 5282,
      "ĠÐ½ÐµÐ·Ð½Ð°Ð¹Ð¾Ð¼": 5283,
      "ĠÐ²Ð¸Ð½ÑıÑĤ": 5284,
      "Ð½ÑıÑĤÑĮ": 5285,
      "ĠÑĩÑĥÑĤ": 5286,
      "ĠÐ³Ð°Ð¼": 5287,
      "Ð½ÑĥÐ»Ð¾": 5288,
      "ĠÐ¿ÐµÑĢÐµÐ²ÐµÑĢ": 5289,
      "ĠÑģÐºÐ¾ÑĢÐ¾": 5290,
      "ĠÐ¿Ð¾ÑĤÐ¾Ð¼Ñĥ": 5291,
      "ĠÐ¾ÑĤÑĢÐ¸Ð¼Ð°ÑĶÑĤÐµ": 5292,
      "ĠÐ²Ð¿Ð¾ÑĢ": 5293,
      "ĠÐ´Ð¾Ð²ÐµÑģÑĤÐ¸": 5294,
      "ĠÐ²Ð¸Ð³Ð»ÑıÐ´Ñĸ": 5295,
      "Ð»ÐµÐ½Ðµ": 5296,
      "ĠÐ½Ð°Ð¼Ð°Ð³Ð°Ð»Ð¸ÑģÑı": 5297,
      "ĠÐ½Ð°Ð¼Ð°Ð³Ð°ÑİÑĩÐ¸ÑģÑĮ": 5298,
      "Ð¿Ð¾ÑĤÐµ": 5299,
      "ĠÑħÐ»Ð¾Ð¿ÑĨÑĸÐ²": 5300,
      "ĠÐ´Ð°Ð²Ð½Ð¾": 5301,
      "ĠÐ½Ð°ÑģÑĤÑĥÐ¿Ð½Ñĸ": 5302,
      "ĠÑģÑĥÑģÐ¿ÑĸÐ»ÑĮÑģÑĤÐ²Ñĸ": 5303,
      "ĠÑĢÐ¾Ð·Ð¼ÑĸÑĢÑĥ": 5304,
      "ĠÐºÐ½Ð¸Ð¶ÐºÑĥ": 5305,
      "ĠÐ¿Ð¾Ð´ÑĸÐ±Ð½Ñĸ": 5306,
      "ĠÐ´Ð¾Ð²ÐµÐ´ÐµÑĤÑĮÑģÑı": 5307,
      "ook": 5308,
      "ĠÑĢÐµÐ²Ð¾Ð»ÑİÑĨÑĸÑı": 5309,
      "ÐºÑĸÐ½ÑĨÑĸ": 5310,
      "ĠÑĦÑĥÐ½ÐºÑĨÑĸÐ¾Ð½": 5311,
      "ĠÑģÐ¾Ð½ÑĨÑı": 5312,
      "ĠÐ¼ÑĸÐºÑĢÐ¾Ð±": 5313,
      "ĠÐºÐ¾Ð½ÑĤÑĢÐ¾Ð»ÑİÐ²Ð°ÑĤÐ¸": 5314,
      "ĠÑĸÐ½Ð½Ð¾Ð²Ð°ÑĨÑĸÐ¹": 5315,
      "ĠÑĦÐ°Ð½ÑĤÐ°Ñģ": 5316,
      "ĠÐ¼ÑĸÐºÑĢÐ¾ÑģÐºÐ¾Ð¿": 5317,
      "ĠÑĤÐµÐ½Ð´ÐµÐ½": 5318,
      "ĠÐ¾Ð±ÑĸÑĨÑı": 5319,
      "Ð¾ÑĪ": 5320,
      "Ð½ÐµÐ½": 5321,
      "ÐµÑĤÑĥ": 5322,
      "ĠÐ²ÑĢÐ°Ñħ": 5323,
      "ĠÐ¿ÑĸÐ·Ð½": 5324,
      "ĠÐ¼ÑĥÐ»ÑĮ": 5325,
      "ÑĤÐ¸Ñħ": 5326,
      "ÑĩÐ½Ð¾Ð¼Ñĥ": 5327,
      "ĠÑĨÐ¸ÑĤ": 5328,
      "Ð¾Ð»Ð¾Ð²": 5329,
      "ÑĨÐ¸ÑĦ": 5330,
      "ĠÐ°ÑĥÑĤÐ¸": 5331,
      "Ð¾ÐºÑģÐ¸": 5332,
      "ĠÐ¼Ð¸Ð»Ð¾": 5333,
      "ĠÐ³Ð¾": 5334,
      "ĠÑģÑĤÑĸÐ½Ð¸": 5335,
      "ĠÑħÑĸÐ±Ð°": 5336,
      "Ð¾Ð½Ð°Ñħ": 5337,
      "ÑĢÑĥÐ³Ð°": 5338,
      "ĠÑĢÐµÐ´": 5339,
      "ĠÐ¼ÐµÐºÑģÐ¸": 5340,
      "ĠÐ¿ÑĸÐ´ÑĢÐ°Ñħ": 5341,
      "ĠÐ¾Ð±Ð¸ÑĢ": 5342,
      "ÑĥÐ¿Ð¸": 5343,
      "ĠÐ¿Ð¾Ð´Ð°ÑĤ": 5344,
      "ĠÐ¾Ð¿Ð¸": 5345,
      "ĠÐ½Ð°Ð´ÑĸÑĹ": 5346,
      "Ġ2000": 5347,
      "ĠÑıÐ·ÐºÐ¾Ð²Ð¾": 5348,
      "ĠÐ¾ÑĤÑĢÐ¸Ð¼ÑĥÐ²Ð°ÑĤÐ¸": 5349,
      "Ð°Ð½ÐµÑĨÑĮ": 5350,
      "ĠÐ¿ÐµÑĢÐµÐ´Ð°ÑĤÐ¸": 5351,
      "ĠÐ·Ð°ÑģÐ»Ñĥ": 5352,
      "ĠÐ±Ð°ÑĤÑĮÐºÐ°": 5353,
      "ĠÐ¼ÑĸÑģÑĤÐ°Ñħ": 5354,
      "ĠÐ´Ð¾Ð´Ð°ÑĤÐ¸": 5355,
      "ĠÐ½Ð°ÑģÑĤÑĥÐ¿Ð½Ðµ": 5356,
      "ĠÐ½Ð°Ð¹ÐºÑĢÐ°ÑīÐ¸Ñħ": 5357,
      "ĠÐ·Ð°Ð·Ð½": 5358,
      "ĠÐ²ÐµÐ»Ð¸ÑĩÐµÐ·Ð½Ð°": 5359,
      "ĠÐ¿ÑĢÐ¸Ð³Ð°Ð´": 5360,
      "ĠÐ²Ð·Ð°ÑĶÐ¼Ð¾Ð´Ñĸ": 5361,
      "ĠÐ²Ð¸Ð½Ð¸ÐºÐ°ÑĶ": 5362,
      "ĠÑģÑĤÑĢÐ°ÑĪÐµÐ½Ð½Ð¾": 5363,
      "ĠÑĢÐµÑģÑĥÑĢÑģÐ¸": 5364,
      "ĠÑĩÑĸÑĤÐºÐ¾": 5365,
      "ĠÐ¿ÑĸÐ´Ð¿Ð¸Ñģ": 5366,
      "30": 5367,
      "ÑĸÐºÑĥ": 5368,
      "ÑĤÑĸÐ»ÑĮÐºÐ¸": 5369,
      "ÑģÐ°Ð¹": 5370,
      "ĠÐ²ÐµÑĢÐµÑģ": 5371,
      "ÑıÑĤÑĤÑı": 5372,
      "Ð¼Ð¾Ð¼": 5373,
      "Ð¿Ð°": 5374,
      "Ð¿Ð¾Ð»": 5375,
      "Ð¿Ð°Ð¼": 5376,
      "ĠÐ¿ÑĢÐ¾ÑĢ": 5377,
      "ĠÐ¾ÑĨÑĸ": 5378,
      "ĠÐ½ÐµÐ²ÑĸÐ´Ð¾Ð¼": 5379,
      "ÑĹÐ¼": 5380,
      "Ð¾ÐºÐ°": 5381,
      "Ð¾ÐºÐ»Ñĸ": 5382,
      "ĠÑģÑĤÑĸÐ»": 5383,
      "Ð½ÑĥÑİ": 5384,
      "ÑĢÑĸÐ·Ð½": 5385,
      "ÑĢÐ¸ÑģÑĤÐ¸": 5386,
      "ÑĸÐºÑģ": 5387,
      "ÑıÐºÐµ": 5388,
      "ĠÐ¿Ð¾Ð´ÑĸÐ¹": 5389,
      "ĠÐ´ÑĥÑħ": 5390,
      "ĠÐ²ÐµÑģ": 5391,
      "ÑģÐ¸Ð»Ð°": 5392,
      "ĠÐ¿ÑĢÐ°Ð²Ð¸Ð»Ð¾": 5393,
      "ÑĥÑĶÐ¼Ð¾ÑģÑı": 5394,
      "ĠÐ²ÑĸÐ´Ð¿Ð¾Ð²ÑĸÐ´Ð°Ð»ÑĮÐ½ÑĸÑģÑĤÑĮ": 5395,
      "ĠÐ·Ð±ÑĢ": 5396,
      "ĠÐ°Ð½Ð°Ð»Ð¾Ð³": 5397,
      "ĠÐ»ÑĸÐºÑĸÐ²": 5398,
      "ĠÑĨÑĸÐ»Ð¾Ð¼Ñĥ": 5399,
      "ĠÐ¼ÑĥÐ·Ð¸ÐºÐ¸": 5400,
      "ĠÐ²ÑĸÐ¹Ð½Ñĥ": 5401,
      "ĠÐ¿Ð¾ÑģÑĤÐ°Ñĩ": 5402,
      "Ð»ÑĸÐ²Ð°": 5403,
      "ĠÑģÐ¿Ð¾ÑģÑĤÐµÑĢÐµÐ¶ÐµÐ½Ð½Ñı": 5404,
      "ĠÐ²Ð°Ð¶Ð»Ð¸Ð²Ð¸Ð¹": 5405,
      "ĠÐ´ÑĢÑĥÐ³Ð¸Ð¹": 5406,
      "ĠÐ³ÐµÑĤÑĮ": 5407,
      "ÑĥÑİÑĩÐ¸ÑģÑĮ": 5408,
      "ĠÐ·ÑĢÐ¾ÑģÑĤÐ°ÑĶ": 5409,
      "ĠÐºÑĸÐ¼Ð½Ð°ÑĤÐ¸": 5410,
      "ĠÐ¼ÑĢÑĸÑı": 5411,
      "ĠÑģÐ¿Ð¾ÑģÐ¾Ð±ÑĸÐ²": 5412,
      "ĠÐ½ÐµÐ½Ð°Ð²Ð¸": 5413,
      "ĠÐ½Ð°Ð³Ð°Ð´ÑĥÑĶ": 5414,
      "ĠÐ¿ÐµÑĢÐµÐ²Ð°Ð³Ñĥ": 5415,
      "ĠÐ²Ð¿ÐµÐ²Ð½ÐµÐ½Ð¸Ð¹": 5416,
      "ĠÐ¼ÐµÐ¶Ð°Ð¼Ð¸": 5417,
      "ĠÐ²Ð¸Ð½Ð°ÑħÑĸÐ´": 5418,
      "ĠÐ½Ð°Ð¹Ð³ÑĸÑĢ": 5419,
      "ĠÐºÐ²Ð°Ð´ÑĢÐ°ÑĤ": 5420,
      "ĠÐ±ÐµÐ·Ð¿Ð¾ÑģÐµÑĢÐµÐ´": 5421,
      "ĠÐºÑĸÐ»Ð¾Ð¼ÐµÑĤÑĢÑĸÐ²": 5422,
      "ĠÑģÐ¸Ð¼Ð¿ÑĤÐ¾Ð¼": 5423,
      "ion": 5424,
      "ÑĸÑģÐ»": 5425,
      "ÑĢÐ¾Ð¶": 5426,
      "ÑĢÐ°ÑĨ": 5427,
      "ĠÐ·Ð¾Ð±": 5428,
      "ĠÑĤÐ²ÑĸÑĤ": 5429,
      "ÑĩÐ½Ð¾Ñİ": 5430,
      "Ð¾Ð²Ð¸ÑĤÐ¸": 5431,
      "Ð»Ð¸Ð½Ð°": 5432,
      "ĠÐ¾ÑĢÑĸ": 5433,
      "ĠÐ°ÐµÑĢ": 5434,
      "ÑĤÐµÑģÑı": 5435,
      "ĠÐ³Ð»Ñı": 5436,
      "ĠÑģÑĤÑĥÐ¿": 5437,
      "ÐºÑĥÑĶ": 5438,
      "Ð½ÑĥÐ»Ð¸ÑģÑı": 5439,
      "Ð½ÐµÐ¹": 5440,
      "Ð¶ÐµÐ½Ð¸Ð¹": 5441,
      "ÑĢÐ¸ÐºÑĸÐ½ÑĨÑĸ": 5442,
      "ÑĢÑĥÑģ": 5443,
      "ĠÑģÐºÐ°Ð½": 5444,
      "Ð½Ð¸ÐºÐ°Ð¼": 5445,
      "Ð¿ÐµÑĢÑĪÐ°": 5446,
      "ĠÑģÐ²ÑĸÑĤÐ¾Ð²Ð¾ÑĹ": 5447,
      "ĠÑıÐ·Ð°Ð½Ð½Ñı": 5448,
      "ĠÐ»ÑİÐ´ÑģÑĮÐºÑĸ": 5449,
      "ĠÐ¿Ð¾ÐºÐ°Ð·Ð°Ð»Ð¸": 5450,
      "ĠÐ¿ÑĢÐ¾Ð²ÑĸÐ´": 5451,
      "ĠÑĢÐ¾Ð±Ð¾ÑĤÑĸÐ²": 5452,
      "ĠÐ¿ÑĢÐ¾ÐµÐºÑĤÑĸÐ²": 5453,
      "Ð°Ð»ÑĸÐ·ÑĥÐ²Ð°ÑĤÐ¸": 5454,
      "Ġ196": 5455,
      "Ð½Ð°Ð¹Ð¾Ð¼": 5456,
      "ĠÐ²ÑĸÐ´ÑģÐ¾ÑĤÐºÐ¸": 5457,
      "ĠÑĦÑĸÐ»ÑĮÐ¼Ñĥ": 5458,
      "ĠÑĤÑĢÐ°Ð¿Ð»ÑıÑĶÑĤÑĮÑģÑı": 5459,
      "ĠÑĥÑĢÑıÐ´Ñĥ": 5460,
      "ĠÐ³Ð¾Ð»Ð¾Ð²Ð½Ð¾Ð³Ð¾": 5461,
      "ĠÐºÐ»Ð°ÑģÑĸ": 5462,
      "ĠÐ¿Ð¸ÑĪÐµ": 5463,
      "ĠÐ¿Ð¾ÑģÐ¼Ñĸ": 5464,
      "ĠÒĳÑĢÑĥÐ½": 5465,
      "ĠÐ´Ð²ÐµÑĢÑĸ": 5466,
      "ĠÐ¿ÐµÑĢÐµÑĤÐ²Ð¾ÑĢÐ¸ÑĤÐ¸": 5467,
      "ĠÑĤÑĢÐµÑĤÑĮ": 5468,
      "Ð´ÑĥÐ¼Ð°Ñİ": 5469,
      "ĠÑĥÐ½ÑĸÐ²ÐµÑĢÑģÐ¸ÑĤÐµÑĤÑĸ": 5470,
      "ĠÑģÐ¿ÑĸÐ»ÑĮÐ½Ð¾ÑĤÐ¸": 5471,
      "ĠÑĨÐµÐ½ÑĤÑĢÑĥ": 5472,
      "Ġip": 5473,
      "ĠÐ²ÑĤÑĸÐ»": 5474,
      "ĠÐ²ÑĸÐ´Ð½Ð¾ÑģÐ¸Ð½Ð¸": 5475,
      "ĠÐ¿ÑĢÐ¾ÑĦÐµÑģÑĸÐ¹": 5476,
      "ĠÐ»Ð°Ð½ÑĨÑİ": 5477,
      "ĠÐ·Ð°ÐºÑĸÐ½ÑĩÐ¸": 5478,
      "ma": 5479,
      "Ġe": 5480,
      "ÐµÑĤÐ°": 5481,
      "Ð²Ñı": 5482,
      "ÐºÐ¾Ð²Ð°": 5483,
      "ĠÐ·Ð°Ð»ÑĸÐ·": 5484,
      "ÑĩÐ½ÑĸÐ¹": 5485,
      "ĠÐºÑĥÑħ": 5486,
      "ÑĪÐ½Ð¾": 5487,
      "ĠÑĨÑĸÐ»ÑĮ": 5488,
      "Ð¾Ð»Ð¾Ñģ": 5489,
      "Ð¾Ð´Ð¾": 5490,
      "ĠÐ½ÐµÐ´Ð°Ð²": 5491,
      "ĠÐ²Ð¸ÑĢÐ°Ð¶": 5492,
      "ÑĸÐ²ÐºÐ¸": 5493,
      "ĠÑĩÐµÑĢÐµ": 5494,
      "ĠÐ±ÑĥÑĢ": 5495,
      "Ð°Ð³Ð°": 5496,
      "Ð¾Ð´Ð¸Ð»Ð°": 5497,
      "ĠÐ½Ð°Ð¹Ð¼": 5498,
      "ĠÐ·Ð´Ð¾Ð³Ð°Ð´": 5499,
      "ĠÐ±ÑĥÐ´ÑĥÐ²Ð°ÑĤÐ¸": 5500,
      "ĠÐ²Ð¿Ð»Ð¸": 5501,
      "ĠÐ¼ÑĥÐ·Ðµ": 5502,
      "ĠÐ¼ÑĥÑģÑıÑĤÑĮ": 5503,
      "ĠÐºÑĢÐ°ÑĹÐ½Ñĥ": 5504,
      "ÑģÐºÑĸÐ»ÑĮÐºÐ¸": 5505,
      "ĠÐ¿Ð¾ÐºÐ°Ð·ÑĥÑİÑĤÑĮ": 5506,
      "ĠÐ·Ð°ÑģÐ½Ð¾Ð²": 5507,
      "ĠÐ½Ð°Ð¼Ð°Ð³Ð°ÑĶÐ¼Ð¾ÑģÑı": 5508,
      "ĠÐ²Ð¸Ð¿Ð°Ð´ÐºÐ°Ñħ": 5509,
      "ĠÑģÐ¿ÑĢÐ¾Ð¼": 5510,
      "Ð¸Ð»Ð»Ñı": 5511,
      "ĠÑĶÐ´Ð½Ð°Ð½Ð½Ñı": 5512,
      "ĠÐ°Ð²ÑĤÐ¾Ð¼Ð¾Ð±ÑĸÐ»ÑĮ": 5513,
      "ĠÐ·ÑĸÐ±ÑĢÐ°ÑĤÐ¸": 5514,
      "ĠÑģÐ¿ÑĢÐ¸Ñı": 5515,
      "ĠÐ¿Ð¾ÑģÑĤÐ°Ð²Ð¸ÑĤÐ¸": 5516,
      "ĠÑħÐ²Ð¾ÑĢÐ¾Ð±Ð°": 5517,
      "ĠÐ°Ð²ÑĤÐ¾Ð±": 5518,
      "ĠÑħÐ°ÑĢÐ°ÐºÑĤÐµÑĢÐ¸": 5519,
      "ĠÐ²ÑĸÐ´ÑĢÑĸÐ·Ð½ÑıÑĶÑĤÑĮÑģÑı": 5520,
      "ĠÐ±Ð°ÐºÑĤÐµÑĢÑĸÑĹ": 5521,
      "ĠÐ´ÐµÐ¼Ð¾Ð½ÑģÑĤÑĢÑĥ": 5522,
      "ĠÐ¿Ð¾Ð´Ð¾Ð»Ð°ÑĤÐ¸": 5523,
      "ĠÐ¿Ð¾ÑĤÐµÐ½ÑĨÑĸÐ°Ð»": 5524,
      "ÑĸÐ½Ñĸ": 5525,
      "ÑģÑİÐ´Ð¸": 5526,
      "ĠÐ·Ð»Ð°Ð¼": 5527,
      "Ð½ÑĸÑĤ": 5528,
      "ĠÐºÐµ": 5529,
      "ĠÐºÐµÐ½Ñĸ": 5530,
      "Ð¾ÑĢÑĤÑĥ": 5531,
      "Ð½Ð°ÑĤÐ¾Ð¼ÑĸÑģÑĤÑĮ": 5532,
      "Ð°ÑĢÑħ": 5533,
      "ĠÐ¿ÑĢÐ¾ÑħÐ¾Ð´Ð¸ÑĤÑĮ": 5534,
      "ĠÐ¿ÑĢÐ¸Ð½Ð¾": 5535,
      "ĠÐ¿ÐµÑĢÐµÐº": 5536,
      "ĠÐ¿ÐµÑĢÐµÑħ": 5537,
      "ĠÑģÐ°Ð¼Ñĥ": 5538,
      "ÑĸÑıÑħ": 5539,
      "ĠÐ·Ð²Ð°Ð¶": 5540,
      "Ð·Ð½Ð¾Ð²Ñĥ": 5541,
      "ĠÐ±Ð°ÑĩÐ¸Ð»Ð°": 5542,
      "Ð¾Ð²Ð°Ð½Ð¸Ð¼Ð¸": 5543,
      "ĠÐ½Ð°Ð¿Ð°Ð´": 5544,
      "ĠÐ¼Ð¾ÑĶÑİ": 5545,
      "ĠÐ´Ð¾Ð²ÑĪÐµ": 5546,
      "ĠÐ¶ÑĸÐ½ÐºÐ¾Ñİ": 5547,
      "ĠÐ²Ð»Ð°ÑģÐ½Ð¾Ð³Ð¾": 5548,
      "ĠÐ¿ÑĢÐ¸Ð¹ÑĪÐ»Ð¸": 5549,
      "ĠÐ·Ð°ÑģÐ¾Ð±Ð¸": 5550,
      "ĠÐ²Ð¸Ð¿Ð°Ð´ÐºÐ¾Ð²Ð¾": 5551,
      "ĠÐ½Ð°Ð±Ð»Ð¸Ð¶": 5552,
      "ĠÐ·Ð¼ÑĸÐ½Ð¸Ð»Ð¸": 5553,
      "ĠÑīÐ¾Ð´ÐµÐ½": 5554,
      "ĠÑĢÐ¾Ð·ÑĥÐ¼ÑĸÑİÑĤÑĮ": 5555,
      "ĠÐ´Ð¸ÑĤÐ¸Ð½Ñĥ": 5556,
      "ĠÑĦÐ¾ÑĢÐ¼Ñĸ": 5557,
      "ĠÐ²Ð¸Ð¹ÑĪÐ»Ð¾": 5558,
      "ĠÐ±Ð°Ð³Ð°ÑĤÑĮÐ¼Ð°": 5559,
      "ĠÐºÐ°Ð·Ð°ÑĤÐ¸": 5560,
      "ĠÐ°ÑĦÑĢÐ¸ÐºÐ°Ð½": 5561,
      "ĠÐ¿Ð¾ÑģÐµÑĢÐµÐ´": 5562,
      "ĠÐ·Ð°ÑħÐ¸ÑģÑĤ": 5563,
      "ĠÐµÐºÐ¾Ð½Ð¾Ð¼ÑĸÐºÐ°": 5564,
      "ĠÑģÐ¿Ð¾ÑģÑĤÐµÑĢÑĸÐ³Ð°ÑĤÐ¸": 5565,
      "ĠÐ¿ÑĢÑıÐ¼": 5566,
      "ĠÐ±Ð¾ÑĢÐ¾ÑĤÐ¸": 5567,
      "ĠÐ½Ð°Ð·Ð²Ñĥ": 5568,
      "ĠÐ¿ÑĢÐ¾Ð¹ÑĤÐ¸": 5569,
      "ĠÐ¿ÑĢÐ¾ÑģÑĤÐ¸Ñħ": 5570,
      "ĠÐ¿ÑĢÐ¾ÑģÑĤÐ¸Ð¹": 5571,
      "ĠÐºÐ¾Ð¼ÑĥÑģÑĮ": 5572,
      "ĠÐ·Ð´ÑĸÐ¹ÑģÐ½Ð¸ÑĤÐ¸": 5573,
      "ĠÑĤÑĢÐ°Ð¿Ð¸Ð»Ð¾ÑģÑĮ": 5574,
      "ĠÐ¼ÑĸÑģÑĤÐ¸ÑĤÑĮ": 5575,
      "ĠÐºÐ¾Ð»ÐµÐºÑĤÐ¸Ð²": 5576,
      "he": 5577,
      "Ġv": 5578,
      "ÑĤÑĥÐ²Ð°Ð»Ð¸": 5579,
      "ÑģÐ¸Ð¼": 5580,
      "ĠÐ²Ð½Ð¾ÑĩÑĸ": 5581,
      "ĠÑģÑĨ": 5582,
      "ĠÑģÐ»Ð¾": 5583,
      "ĠÑģÑĥÐ¼Ñĸ": 5584,
      "ĠÑĤÑĸÐ»": 5585,
      "Ð¾Ð²ÑĥÐ²Ð°Ð½Ð½Ñı": 5586,
      "ĠÐ±ÑĸÐº": 5587,
      "ĠÑĸÐ³Ð¾ÑĢ": 5588,
      "Ð°Ð»Ñİ": 5589,
      "ĠÑĢÐ¸ÑĤ": 5590,
      "Ð±Ð»": 5591,
      "Ð±ÑĢÐ¾": 5592,
      "ĠÐ²Ð¸ÑĢÑĥ": 5593,
      "ĠÐ³Ð¾Ð½": 5594,
      "ĠÐ³ÑĢÐµ": 5595,
      "ĠÑģÐ¿ÑĢÑı": 5596,
      "ĠÑĢÐ¾Ð·ÑĢÑĸÐ·": 5597,
      "ÑĦÐ¾Ð½": 5598,
      "ĠÐ¿ÑĢÐ¸ÐºÑĢ": 5599,
      "ĠÐ¿ÑĢÐ¸ÑģÐº": 5600,
      "ĠÑĪÐ»Ñı": 5601,
      "ĠÑĦÑĢ": 5602,
      "ĠÑĢÐµÐ¿": 5603,
      "ĠÐ´ÐµÐºÑĸÐ»ÑĮ": 5604,
      "ĠÑģÐºÐµ": 5605,
      "ĠÐ¼ÐµÐ´": 5606,
      "ÑģÐµÐ»": 5607,
      "ÑģÐ¿Ð¾ÑĩÐ°ÑĤÐºÑĥ": 5608,
      "Ð»Ð¸Ð²Ð¾Ñİ": 5609,
      "ÑĸÑĩÐ½Ðµ": 5610,
      "ĠÐ²ÐµÐ»Ð¸ÐºÐ¸Ð¼": 5611,
      "ĠÐºÐ¾Ð½ÑģÑĤÑĢÑĥ": 5612,
      "ĠÐ·ÑĸÐ³": 5613,
      "ĠÐ·Ð°ÐºÐ»Ð¸Ðº": 5614,
      "ĠÐ¿Ð¾Ð±Ð°ÑĩÐ¸Ð»Ð°": 5615,
      "ĠÐ·Ð°Ð±ÑĢÑĥ": 5616,
      "ĠÐ¿ÑĢÐ¸Ð¹Ð½ÑıÑĤÑĤÑı": 5617,
      "Ð½ÑİÑİÑĤÑĮ": 5618,
      "ĠÐ²Ð¸Ð´Ð°Ð²": 5619,
      "ÑĢÐ°ÑģÑĤÑĢÑĥÐºÑĤÑĥ": 5620,
      "ĠÐ³Ð¾Ð²Ð¾ÑĢÑİ": 5621,
      "ĠÐ²Ð¸Ð³Ð»ÑıÐ´Ð°ÑĤÐ¸": 5622,
      "ĠÐ°ÐºÑĤÐ¸Ð²Ñĸ": 5623,
      "ĠÐ²ÑĸÑĢÐ¸ÑĤÐ¸": 5624,
      "ÑĶÐ½Ð½Ñı": 5625,
      "ĠÑĢÐ°Ð´Ð¸Ðº": 5626,
      "ĠÐ½Ð°ÑģÑĤÑĥÐ¿Ð½Ð¸Ð¹": 5627,
      "ĠÑģÐ¿ÑĢÐ°Ð²Ð¶Ð½Ñı": 5628,
      "ĠÐ¿ÑĸÐ´ÑĤÑĢÐ¸Ð¼ÐºÐ¸": 5629,
      "ĠÑĸÐ½Ð´ÑĸÐ¹": 5630,
      "ĠÑģÑĥÐ¿ÐµÑĢÐµÑĩ": 5631,
      "ĠÑĨÑĸÐ½Ð½ÑĸÑģÑĤÑĮ": 5632,
      "ĠÐ²Ð¸ÑģÐ¾ÐºÐ¾": 5633,
      "ĠÑĥÐ½ÑĸÐ²ÐµÑĢÑģ": 5634,
      "ĠÑģÑĦÐ¾ÑĤÐ¾Ð³ÑĢÐ°ÑĦ": 5635,
      "ĠÑĢÐµÑĩÐµÐ½Ð½Ñı": 5636,
      "ÑĤÑĶÐ²Ð¾": 5637,
      "ĠÐ²ÑĸÐ´Ð¼ÑĸÐ½Ð½Ð¾ÑģÑĤÑĸ": 5638,
      "Ð¾Ð²Ð°Ð½Ð¾Ð³Ð¾": 5639,
      "ĠÐºÐ¾ÑħÐ°Ð½Ð½Ñı": 5640,
      "ĠÐ·Ð¼ÑĥÑĪÑĥÑĶ": 5641,
      "ĠÐ¿ÑĢÐ¾Ð·Ð¾ÑĢ": 5642,
      "ĠÐ²Ð·Ð°ÑĶÐ¼Ð¾Ð´ÑĸÑı": 5643,
      "ĠÐ²ÑĸÐ´Ð¿Ð¾Ð²ÑĸÑģÑĤÐ¸": 5644,
      "aceb": 5645,
      "ĠÐ²Ð¸Ð¶Ð¸Ð²Ð°Ð½Ð½Ñı": 5646,
      "ĠÑĪÐºÑĸÑĢÐ¸": 5647,
      "Ð¾ÑģÐºÐ¾Ð½Ð°Ð»": 5648,
      "ĠÐ¿Ð¾ÑīÐ°ÑģÑĤÐ¸Ð»Ð¾": 5649,
      "acebook": 5650,
      "ÐºÐ¾Ð²Ñĥ": 5651,
      "ĠÐ¿Ð°Ð»Ð¸": 5652,
      "Ð´Ð¾Ð¼": 5653,
      "ĠÑıÐ¿Ð¾": 5654,
      "ĠÑĸÑĤ": 5655,
      "ĠÑĸÐ¼Ñĸ": 5656,
      "ĠÑīÑĸÐ»ÑĮ": 5657,
      "ĠÑĩÐ¾Ð²": 5658,
      "ĠÐ°ÑĤÐ¾Ð¼": 5659,
      "ĠÐ³Ð¾ÑĤÐµ": 5660,
      "ĠÑģÑĤÑĸÐ¹": 5661,
      "ĠÑģÑĤÐ°Ð½Ñĸ": 5662,
      "ĠÑģÑĤÐ°Ð»Ð¾ÑģÑĮ": 5663,
      "ĠÑģÐ¿ÐµÑĢÑĪÑĥ": 5664,
      "ĠÐ¿Ð¾ÑĪÑĥ": 5665,
      "Ð¸ÑĤÑĤÑı": 5666,
      "Ð½ÐµÐ·": 5667,
      "Ð½ÐµÐ½Ð¸Ð¹": 5668,
      "ÑĨÐµÑİ": 5669,
      "ĠÑĪÐ²Ðµ": 5670,
      "ĠÑĦÐ¾ÐºÑĥÑģ": 5671,
      "ÑĢÐµÐ±Ð¸": 5672,
      "ĠÐ·Ð°ÑĤÐµ": 5673,
      "ÑĤÑĢÐ¾": 5674,
      "Ð°Ð±ÑĸÐ»ÑĮ": 5675,
      "ĠÐ¿Ð¾ÑĤÑĢÐµÐ±Ð¸": 5676,
      "ÐºÐ¾Ñħ": 5677,
      "ĠÐ½Ð°Ð¼Ð°Ð»": 5678,
      "ÑģÑĤÐ¾ÑĤÐ¸": 5679,
      "ĠÐ·ÑĢÐ¾Ð±Ð»ÐµÐ½Ð¾": 5680,
      "ĠÐ½Ð°Ð´ÑĸÑı": 5681,
      "ĠÐ¿Ð¾ÐºÑĥÐ¿": 5682,
      "ĠÐ»Ð¸ÑģÑĤÑĸÐ²": 5683,
      "ĠÐ´Ð¾Ð¿Ð¾Ð¼Ð¾Ð¶Ðµ": 5684,
      "ĠÐ¶ÑĸÐ½ÐºÐ°Ð¼Ð¸": 5685,
      "ĠÐ¿Ð»Ð°Ðº": 5686,
      "ĠÐ·Ð±Ð°Ð³": 5687,
      "ĠÑĸÐ½ÑĦÐ¾ÑĢÐ¼Ð°ÑĨÑĸÑĶÑİ": 5688,
      "ĠÑģÑĤÐ°ÑĢÑĸ": 5689,
      "ĠÐ½Ð°ÑģÑĤÑĥÐ¿Ð½Ð¸Ñħ": 5690,
      "ĠÐ³Ð°ÑĢÐ½Ð¾": 5691,
      "ĠÐ»ÑİÐ±Ð»ÑıÑĤÑĮ": 5692,
      "ĠÐ¿Ð¾Ð´Ð¸Ð²ÑĸÑĤÑĮÑģÑı": 5693,
      "ĠÐ²Ð¸Ð²ÑĩÐµÐ½Ð½Ñı": 5694,
      "ĠÑıÐ²Ð¸Ð²ÑģÑı": 5695,
      "ĠÐºÐ»Ð°ÑģÑĥ": 5696,
      "ĠÐ´ÐµÑģÑıÑĤ": 5697,
      "ĠÐ·Ð°Ð»Ð¾Ð·Ð¸": 5698,
      "ĠÐ²ÑĸÐ´ÑĩÑĥÐ²Ð°Ñİ": 5699,
      "ĠÐ°Ð»ÑĮÑĤÐµÑĢ": 5700,
      "ĠÐ¿ÑĢÐ¸Ð·Ð²": 5701,
      "ĠÐ³ÑĸÐ¿Ð¾ÑĤÐµ": 5702,
      "ĠÐ·Ð²ÑĥÐºÑĥ": 5703,
      "ĠÑĦÑĢÐ°Ð½ÑĨÑĥ": 5704,
      "ĠÐ¿Ð¾ÑĢÑıÐ´ÐºÑĥ": 5705,
      "ĠÑĩÐµÑģÐ½Ð¾": 5706,
      "ĠÐ½ÐµÑģÐ¿Ð¾Ð´ÑĸÐ²": 5707,
      "ĠÑģÑĨÐµÐ½Ñĸ": 5708,
      "ĠÑĤÐ²ÑĸÑĤÑĤÐµÑĢ": 5709,
      "Ð¼Ð°Ð¹": 5710,
      "ĠÐ¿ÑĸÑĤ": 5711,
      "ĠÐ¼Ð°": 5712,
      "ĠÐ¼Ð°Ð½Ñĸ": 5713,
      "ĠÐ´Ð¾Ð»Ð¸": 5714,
      "ĠÐ´Ð¸Ðº": 5715,
      "ÑĩÐ¾Ðº": 5716,
      "ÐµÑĢÑĨÑĸÐ¹": 5717,
      "ĠÑĩÑĥÑĤÐ¸": 5718,
      "Ð½Ð°Ð½Ð¸Ð¹": 5719,
      "ÑĦÑĢÐ°Ð½": 5720,
      "ĠÐ¿ÑĢÐ¸Ð¿Ð¸": 5721,
      "ĠÑĢÐµÑĨÐµÐ¿": 5722,
      "ĠÐ¿ÑĸÐ´Ð»": 5723,
      "Ð»ÑİÑĶÐ¼Ð¾": 5724,
      "ĠÑģÐ°Ð¼Ð¾Ð¼Ñĥ": 5725,
      "ÑıÐºÐ¾ÑĹ": 5726,
      "ĠÑģÐ¸Ð»Ð¾Ñİ": 5727,
      "ĠÐ»ÑİÐ´Ð¸Ð½Ñĸ": 5728,
      "ĠÐ·Ð¼Ð¾Ð·Ñĸ": 5729,
      "ĠÐ²ÐµÐ»Ð¸Ðº": 5730,
      "ĠÐ²Ð¸Ð¿ÑĥÑģÐº": 5731,
      "Ð¸ÑĤÐµÑģÑı": 5732,
      "ĠÐ¿Ð¾ÑĢÑĥÑĪ": 5733,
      "ĠÐ¿ÑĢÐ¾Ð´Ð°Ð²": 5734,
      "ĠÐ¿ÑĢÐ¸Ð¹Ð¼Ð°ÑĤÐ¸": 5735,
      "ĠÐ¿ÐµÑĢÑĪÐ¸Ð¼": 5736,
      "ĠÑıÐºÑĥÑģÑĮ": 5737,
      "ĠÐ¿Ð°ÑĢÐ¸": 5738,
      "ĠÐºÐ»ÑĸÐ½Ñĸ": 5739,
      "ĠÐ¼ÑĸÑģÑĨÐµÐ²Ñĸ": 5740,
      "ĠÐ±ÑĢÐ°ÑĤ": 5741,
      "ĠÐ·Ð¼ÑĸÐ½Ð¸Ð²": 5742,
      "ĠÑĨÑĸÐ»Ñĥ": 5743,
      "ĠÑħÐ»Ð¾Ð¿ÑĨÑı": 5744,
      "ĠÐ´Ð¾ÑģÑıÐ³Ð½ÑĥÑĤÐ¸": 5745,
      "ĠÐºÐ¾ÑĪÑĤ": 5746,
      "ĠÐ·Ð°Ð¿Ð¸ÑĤÐ°Ð»Ð°": 5747,
      "ĠÐ²Ð¾Ð´Ð¾Ñİ": 5748,
      "ĠÐºÐ¸ÑĤÐ°Ñİ": 5749,
      "ĠÐ¿ÑĢÐ¸ÑħÐ¾Ð´ÑıÑĤÑĮ": 5750,
      "ĠÑĨÑĸÐ½Ð½Ð¾ÑģÑĤÑĸ": 5751,
      "ĠÑĶÐ´Ð¸Ð½Ð°": 5752,
      "ĠÐ´ÐµÑģÑıÑĤÐºÐ¸": 5753,
      "ĠÐ¿ÑĸÑĪÐ»Ð¸": 5754,
      "Ġgps": 5755,
      "ĠÐ²Ð·Ð°ÑĶÐ¼Ð¾Ð·": 5756,
      "ĠÑĶÐ´Ð½Ð°ÑĤÐ¸": 5757,
      "ĠÐ²ÑĩÐ¸ÑĤÐµÐ»ÑĮ": 5758,
      "ĠÐ¿Ð¾ÑģÐ»Ñĥ": 5759,
      "ĠÐ¼ÑĢÑĸÑĹ": 5760,
      "ĠÐ¾Ð±Ð¼ÐµÐ¶ÐµÐ½Ð½Ñı": 5761,
      "ĠÐ¿ÐµÑĢÐµÐ³Ð»ÑıÐ´": 5762,
      "ĠÐ²ÑĸÐ´Ð¿Ð¾Ð²ÑĸÐ»Ð°": 5763,
      "ĠÐ²ÑĸÐ´Ð½Ð¾Ð²Ð»ÐµÐ½Ð½Ñı": 5764,
      "ÑĥÑģÑĤÐ¸Ð»Ð¸": 5765,
      "ĠÑĢÐµÐ»ÑĸÐ³ÑĸÑĹ": 5766,
      "ĠÑĢÐµÑģÑĥÑĢÑģÑĸÐ²": 5767,
      "ĠÑĥÐ·Ð±": 5768,
      "ĠÐ³ÑĸÑĢÑĪÐµ": 5769,
      "ĠÐ²Ð¸Ð¼Ð°Ð³Ð°ÑĶ": 5770,
      "ĠÐ²ÑĸÐ´Ð½Ð¾ÑģÐ¸Ð½": 5771,
      "ĠÑģÐ¸Ð³Ð½Ð°Ð»": 5772,
      "ĠÐ¿Ð¾Ð¼ÑĸÑĤÐ¸Ð»Ð¸": 5773,
      "ĠÐ¿ÑĤÐ°ÑħÑĸÐ²": 5774,
      "Ð²ÐµÑĢÐ´Ð¶ÐµÐ½Ð½Ñı": 5775,
      "ĠÐ»Ð¾Ð½Ð´Ð¾": 5776,
      "ĠÐ¿ÑĢÐ¾ÑĨÐ²ÑĸÑĤ": 5777,
      "ĠÐ³Ð½ÑĥÑĩ": 5778,
      "ĠÑĪÐ»ÑıÑħÐ¸": 5779,
      "op": 5780,
      "ÑĤÐ¾Ð³Ð¾": 5781,
      "ĠÐ²Ð»Ð°ÑĪ": 5782,
      "ĠÐ½Ð¾Ð³Ð¸": 5783,
      "ĠÑģÐ¾Ñİ": 5784,
      "ĠÑĤÑıÐ¶": 5785,
      "Ð¹Ð¾Ð¼": 5786,
      "ÑģÑĤÐ°Ñĩ": 5787,
      "ĠÐ±Ð¾Ð¹": 5788,
      "ĠÐºÐ¾Ð²": 5789,
      "ĠÐºÐ¸Ñģ": 5790,
      "ĠÐºÐ½Ð¾Ð¿": 5791,
      "ĠÑĢÐ¾Ð»Ñĸ": 5792,
      "Ð·Ð°Ð·": 5793,
      "Ð·Ð¾Ð½": 5794,
      "Ð¾Ð»Ñı": 5795,
      "ÑĨÐ¸Ñģ": 5796,
      "ĠÑĥÐ±": 5797,
      "ÑĸÐ»Ñİ": 5798,
      "Ð»ÑıÑİÑĩÐ¸": 5799,
      "ĠÐ²ÑĸÐ´Ð¿Ñĥ": 5800,
      "ĠÐ²ÑĸÐ´ÑģÑĤÐ°Ð½Ñĸ": 5801,
      "ĠÐ´Ð¾ÑģÑĤÐ°Ð²": 5802,
      "Ð°ÑĩÐµÐ¼": 5803,
      "ĠÑĢÐµÑģÑĤÐ¾ÑĢ": 5804,
      "ĠÐµÐ²": 5805,
      "ĠÐ½Ð°ÑģÐ¸Ð»Ð»Ñı": 5806,
      "ĠÐºÐ¾Ð»Ð¸ÑĪ": 5807,
      "ĠÐ¾Ð±ÑĸÐ¹": 5808,
      "ĠÑĢÐ°Ð·Ñĸ": 5809,
      "ĠÐ¼Ð¾Ð³ÑĥÑĤ": 5810,
      "Ð¼ÐµÐ½Ð°": 5811,
      "ĠÑĢÑĥÑħÐ°ÑĶÑĤÑĮÑģÑı": 5812,
      "ĠÐ³ÑĢÑĥÐ¿Ñĥ": 5813,
      "ĠÐ¼Ð°ÑĤÐµÑĢ": 5814,
      "ĠÐ»ÑĸÐ½ÑĸÑĹ": 5815,
      "Ð°ÑģÑĤÑĢÐ¾ÑĦ": 5816,
      "ĠÐºÐ¾Ð¼Ð¿Ð°Ð½ÑĸÑİ": 5817,
      "ĠÐ¾ÑģÑĤÐ°Ð½Ð½ÑĶ": 5818,
      "ĠÐ´Ð¾ÐºÑĥÐ¿Ð¸": 5819,
      "ĠÐ¿Ð¾Ð´Ð¸Ð²Ð¸ÑĤÐ¸ÑģÑĮ": 5820,
      "ĠÐ²Ð¿Ð»Ð¸Ð²Ð°ÑİÑĤÑĮ": 5821,
      "ĠÐ´ÑĸÐ·Ð½Ð°Ð²ÑģÑı": 5822,
      "ĠÑģÐ»ÑĥÑħÐ°ÑĤÐ¸": 5823,
      "ĠÐ½Ð°ÑĢÐ¾Ð´Ð¶": 5824,
      "ĠÑĢÐ¾Ð·Ð¿Ð¾Ð²ÑĸÐ´Ð°ÑĤÐ¸": 5825,
      "ĠÑĥÑģÐ²ÑĸÐ´Ð¾Ð¼Ð¸Ð²": 5826,
      "ĠÐ´Ð¸Ð·Ð°Ð¹Ð½Ñĥ": 5827,
      "ĠÐ¿ÑĢÐ¾Ð´ÑĥÐºÑĤ": 5828,
      "ĠÑħÐ¾ÑĢÐ¾ÑĪÑĸ": 5829,
      "ĠÐ²ÑĩÐ¸ÑĤÐµÐ»ÑĸÐ²": 5830,
      "Ð½Ð°ÑĪÐ°": 5831,
      "ĠÐ²ÑĸÐ´Ð¼ÑĸÐ½Ñĥ": 5832,
      "ĠÑĩÐ¸ÑģÐ»Ð°": 5833,
      "ĠÐ·Ð°Ð²ÐµÑĢÑĪÐµÐ½Ð½Ñı": 5834,
      "Ġfacebook": 5835,
      "ĠÐ±Ð´Ð¶Ð¾Ð»Ð¸": 5836,
      "ĠÐ¿Ð¾Ð·Ð±ÑĥÑĤÐ¸": 5837,
      "ĠÑĸÐ½ÑĤÐµÑĢÐµ": 5838,
      "ĠÑĦÐµÑĢÐ¼ÐµÑĢ": 5839,
      "ĠÐ·Ð´Ð°Ð²Ð°Ð»Ð¾ÑģÑı": 5840,
      "ĠÐ°ÑģÐ¾ÑĨÑĸ": 5841,
      "Ð»ÑıÑĩÐ¸ÑģÑĮ": 5842,
      "ĠÐ½Ð°ÑĤÑħÐ½": 5843,
      "Ð¼Ð¾ÑģÑĦ": 5844,
      "Ð¼ÑĸÐ½ÑĸÑģÑĤÑĢ": 5845,
      "ĠÑĸÐ½ÑĦÑĢÐ°ÑģÑĤÑĢÑĥÐºÑĤÑĥ": 5846,
      "Ð²Ð¾Ð´": 5847,
      "Ð¼Ðº": 5848,
      "ĠÐ¿Ð°Ð»Ðµ": 5849,
      "ĠÑģÑĦÐ¾ÑĢÐ¼": 5850,
      "ĠÐ¼ÑĥÑĤ": 5851,
      "ÑĤÐ¸Ð½Ñĥ": 5852,
      "Ð¾Ð¼Ð¾Ð³Ð°": 5853,
      "ĠÐºÐ¸Ð´": 5854,
      "ĠÐ²Ð¸Ð±Ð¸ÑĢ": 5855,
      "ĠÑĥÑıÐ²Ð¸": 5856,
      "ĠÑĥÐ²ÐµÑģÑĮ": 5857,
      "Ð»ÑıÐ»Ð°": 5858,
      "Ð½Ð°Ð½Ñĸ": 5859,
      "Ð°ÑĢÐ±": 5860,
      "ĠÐ¿ÑĢÐ¾Ð½Ð¸Ðº": 5861,
      "ÑĩÐ¸Ðº": 5862,
      "Ð²Ð¸Ð³": 5863,
      "ĠÑĦÐ»": 5864,
      "ĠÑĩÐ¸ÑģÐ»": 5865,
      "ÑģÑĤÐ¸Ð»Ð¸": 5866,
      "Ð¼ÑĥÑĤÑĮÑģÑı": 5867,
      "ÑĸÑĩÐ½Ð°": 5868,
      "ĠÐ´ÑĸÑĢÐ¸": 5869,
      "Ð¾Ð»Ð¾Ð³ÑĸÑİ": 5870,
      "ĠÐ²ÐµÐ»Ð¸ÐºÐ¾Ñİ": 5871,
      "ĠÐºÐ¾Ð»Ð¾": 5872,
      "ĠÐ¿Ð¾ÑĢÐ¾Ð¶": 5873,
      "ĠÐ¿Ð¾Ð·Ð°Ð´Ñĥ": 5874,
      "ĠÐ¿Ð¾Ð·Ð½Ð°Ð¹Ð¾Ð¼": 5875,
      "ĠÐºÐ»ÑĸÑĶÐ½": 5876,
      "ĠÐºÑĢÐ°ÑīÑĸ": 5877,
      "ĠÐ½ÐµÐ·Ð²Ð¸Ñĩ": 5878,
      "ĠÐ²Ð¸ÑĢÑĸÑĪÐµÐ½Ð½Ñı": 5879,
      "ĠÐ¼Ð°ÑĤÐ¸Ð¼Ðµ": 5880,
      "Ð½ÑĥÐ²Ð°Ñĩ": 5881,
      "ĠÑħÐ²Ð¸Ð»Ð¸Ð½Ñĥ": 5882,
      "ĠÐ¿Ð¾Ð´ÑĥÐ¼Ð°Ð»Ð°": 5883,
      "ĠÑģÐ¿ÑĸÐ»ÑĮÐ½Ð¾Ð³Ð¾": 5884,
      "ĠÑģÑĤÐ°Ð½ÑĥÑĤÑĮ": 5885,
      "ĠÐ²Ð¸Ð¹Ð´Ðµ": 5886,
      "ĠÑģÐ¿ÑĢÐ°Ð²Ð¶Ð½Ñĸ": 5887,
      "ĠÐ½ÐµÐ¾Ð±ÑħÑĸÐ´Ð½Ñĸ": 5888,
      "ĠÐ³Ð¾Ð»Ð¾Ð²Ð¾Ñİ": 5889,
      "ĠÑĤÑĢÐ¸Ð²Ð°Ð»ÑĸÑģÑĤÑĮ": 5890,
      "ĠÐ¾ÑģÐ½Ð¾Ð²Ð½Ñĸ": 5891,
      "ĠÐºÑĢÑĸÐ¼": 5892,
      "ĠÑĢÐµÐ°Ð»ÑĮÐ½Ð¾ÑģÑĤÑĸ": 5893,
      "ĠÐ¼Ð¸Ð½ÑĥÐ»Ð¾Ð¼Ñĥ": 5894,
      "ĠÑģÐ¿Ð¾Ð´ÑĸÐ²Ð°ÑİÑģÑı": 5895,
      "ĠÑĦÐ¾ÑĢÐ¼Ð°": 5896,
      "ĠÐ¿ÑĢÐ¾ÑĦÐµ": 5897,
      "ĠÐ¼ÑĥÑģÑĥÐ»ÑĮ": 5898,
      "ĠÑīÐ¾ÑĢÐ¾ÐºÑĥ": 5899,
      "ĠÐºÐ¾ÑĪÑĤÑĥÑĶ": 5900,
      "ĠÐ·Ð°Ð»ÑĥÑĩÐ¸ÑĤÐ¸": 5901,
      "ĠÐ»ÐµÐ¶Ð¸ÑĤÑĮ": 5902,
      "ĠÑĥÐ½Ð¸ÐºÐ½ÑĥÑĤÐ¸": 5903,
      "ĠÐ´ÐµÑģÑıÑĤÐ¸Ð»ÑĸÑĤÑĤÑı": 5904,
      "ĠÐ¿ÑĢÐ¾Ð´ÐµÐ¼Ð¾Ð½ÑģÑĤÑĢ": 5905,
      "ĠÑĢÐ¾Ð·Ð¿Ð¾Ð´ÑĸÐ»": 5906,
      "ĠÐ·ÑĥÑģÐ¸Ð»Ð»Ñı": 5907,
      "ĠÐ·Ð°ÑħÐ²Ð¾ÑĢÑİÐ²Ð°Ð½ÑĮ": 5908,
      "Ð°Ð¼ÐµÑĢÐ¸ÐºÐ°Ð½": 5909,
      "ve": 5910,
      "Ġj": 5911,
      "ÑĸÐºÐ¸": 5912,
      "ÑĤÑĢÑĥ": 5913,
      "ÐºÐ»": 5914,
      "Ð»ÐµÐ½ÑĮ": 5915,
      "ĠÐ²Ð°Ð½": 5916,
      "ĠÐ²Ð³": 5917,
      "ĠÐ¿Ð°ÑģÑĤ": 5918,
      "ĠÐ·Ð½Ð¸Ð·": 5919,
      "ÑĤÐ¸ÑĤÐ¸": 5920,
      "ĠÑĤÑĸÑģ": 5921,
      "ĠÐ±ÑĢÐ°": 5922,
      "ĠÐºÐ²Ñĸ": 5923,
      "ĠÑĢÐ¸Ñģ": 5924,
      "Ð·Ð°Ð³": 5925,
      "Ð¾Ð´ÑĸÐ¹": 5926,
      "ĠÐ²Ð¸Ð´Ñĥ": 5927,
      "Ð°Ð½ÑĤÑĸÐ²": 5928,
      "Ð³Ð°ÑĢÐ°Ð·Ð´": 5929,
      "ĠÐ»Ð¸Ñħ": 5930,
      "Ð¸Ð²Ð¾": 5931,
      "Ð²ÑĸÑģ": 5932,
      "Ð²ÑĸÐ·ÑĮ": 5933,
      "ÑīÐ¸ÑĢÐ¾": 5934,
      "Ð½ÐµÐ²": 5935,
      "Ð²Ð¸Ð½": 5936,
      "ÑĦÑĥ": 5937,
      "ÑĦÐ°Ðº": 5938,
      "ĠÐ¼ÑĸÑĢÑĸ": 5939,
      "ĠÑĢÐ¾Ð±Ð¸Ð»Ð°": 5940,
      "ĠÐ¾Ð±Ð¼ÑĸÐ½": 5941,
      "Ð»ÑİÐ´": 5942,
      "ĠÐ²Ð¸ÐºÐ»Ð¸": 5943,
      "ĠÐ±Ð°ÑĩÐ°ÑĤÑĮ": 5944,
      "Ð²ÑĸÐ´Ð¿Ð¾Ð²ÑĸÐ´": 5945,
      "ĠÐ¿Ð¾ÑĢÑĥ": 5946,
      "ĠÐ·Ð°ÐºÐ¾Ñħ": 5947,
      "Ð½ÑĮÐ¼Ð¾": 5948,
      "ĠÐ·Ð°Ð±Ð¸ÑĢ": 5949,
      "ĠÐºÐ°ÑĢÑĤ": 5950,
      "ÐµÑĤÑĢÐ¸": 5951,
      "ĠÐ²Ð²Ð°Ð¶Ð°Ð»Ð¸": 5952,
      "ĠÐ¿Ð¾Ð»ÑĸÐ¿": 5953,
      "ĠÐ½Ð°Ð²ÑĩÐ¸ÑĤÐ¸": 5954,
      "ĠÐ½Ð°Ð²ÑĩÐ¸ÑĤÐ¸ÑģÑı": 5955,
      "ÐºÐ¾Ð²Ð¾ÑĹ": 5956,
      "ĠÑĪÐ²Ð¸Ð´ÐºÑĸÑģÑĤÑİ": 5957,
      "ĠÐ½Ð°Ð±ÑĸÑĢ": 5958,
      "ĠÑĢÑĥÑĪ": 5959,
      "ĠÐ´Ð¸ÑĤÐ¸Ð½Ð¾Ñİ": 5960,
      "ĠÐºÑĥÐ¿Ñĥ": 5961,
      "ĠÐ·Ð°Ð¹Ð¼Ð°ÑĤÐ¸ÑģÑı": 5962,
      "ĠÐ¼Ð°ÑĢÐº": 5963,
      "ĠÐ½Ð¸Ð·": 5964,
      "ĠÐ¿ÑĢÐ¾ÑĤÐµÑģÑĤ": 5965,
      "ĠÐ´ÐµÑĢÐµÐ²Ð¾": 5966,
      "ĠÐ·ÑĢÐ¾Ð·ÑĥÐ¼ÑĸÐ»Ð¾": 5967,
      "ĠÐ²ÑĸÐºÐ¾Ð¼": 5968,
      "ĠÐ·Ð°ÑģÑĤÐ¾ÑģÑĥÐ²Ð°ÑĤÐ¸": 5969,
      "ĠÐ·Ð°ÑģÑĤÐ¾ÑģÑĥÐ²Ð°Ð½Ð½Ñı": 5970,
      "ĠÐ²Ð¸ÐºÐ»Ð¸ÐºÐ°ÑĶ": 5971,
      "ĠÐ¿Ð°ÑĨÑĸÑĶÐ½ÑĤÐ°": 5972,
      "ĠÐ¿ÐµÑĢÐµÐ¹Ð¼": 5973,
      "ĠÐ´ÐµÑĤÐ°Ð»Ñĸ": 5974,
      "ĠÐ°Ð½Ð³Ð»ÑĸÐ¹ÑģÑĮÐºÐ¾Ñİ": 5975,
      "ĠÐ¿ÑĢÐ¸Ð¿ÑĥÑģÐº": 5976,
      "ĠÑģÐ¿ÑĸÐ²Ð¿ÑĢÐ°ÑĨÑİÐ²Ð°ÑĤÐ¸": 5977,
      "ĠÐ¿ÑĸÐºÐ»": 5978,
      "ĠÑĤÐ¾ÑĢÐ³ÑĸÐ²Ð»Ñĸ": 5979,
      "ĠÑĤÑĢÐ°Ð½ÑģÑĦÐ¾ÑĢÐ¼": 5980,
      "ĠÐ¾Ð±Ð»Ð°ÑģÑĤÑĸ": 5981,
      "ĠÐ¿ÑĸÐ´ÑĤÐ²ÐµÑĢÐ´Ð¶": 5982,
      "ĠÐ²Ð½ÐµÑģÐ¾Ðº": 5983,
      "Ð·Ð°Ð¼ÑĸÑģÑĤÑĮ": 5984,
      "ÑĨÐ¸ÑģÐºÐ¾": 5985,
      "ri": 5986,
      "Ð²Ð»Ð°Ñģ": 5987,
      "ĠÐ¿ÑĤÐ°ÑĪ": 5988,
      "ĠÐ¼ÑĥÑħ": 5989,
      "ĠÐ´Ð°Ð»Ð°": 5990,
      "Ð¾Ð²Ð°Ð½Ñĥ": 5991,
      "ĠÐ±Ð°Ñģ": 5992,
      "ĠÑĸÑģÑĤÐ¾ÑĤÐ¸": 5993,
      "Ð¾Ð³Ð¾Ð´": 5994,
      "Ð¾ÑĢÐ´Ð¶": 5995,
      "ÑĨÐµÐ½ÑĤ": 5996,
      "ĠÐ½ÐµÐ²Ð¸Ð´": 5997,
      "ĠÐ½ÐµÐ¿ÑĢ": 5998,
      "ÑģÑĮÐºÐ¾": 5999,
      "ĠÐ´Ð¾ÑģÐº": 6000,
      "ĠÑħÐ¾Ð²": 6001,
      "ĠÑħÐ»Ñĸ": 6002,
      "ĠÐ¼Ð¾Ð¶Ð»Ð¸Ð²Ñĸ": 6003,
      "ĠÐ¼ÑĸÑĢ": 6004,
      "ĠÐ¾Ð¿Ð»": 6005,
      "ĠÑĤÑĢÐ¾Ð¿": 6006,
      "Ġ22": 6007,
      "ĠÑģÐ²ÑĸÑĤÐ¾Ð²Ð¾Ð³Ð¾": 6008,
      "ĠÐ·Ð°ÑħÐ¾Ñĩ": 6009,
      "Ð¸ÑĤÐµÑģÑĮ": 6010,
      "ĠÐ¿Ð¾Ð¼Ð¸": 6011,
      "ĠÐ¿Ð°ÑĢÐº": 6012,
      "ĠÐ²Ð¸Ð±Ð°Ñĩ": 6013,
      "ĠÑĢÑĥÑħÐ°ÑİÑĤÑĮÑģÑı": 6014,
      "Ð°Ð»ÑĸÐ·Ð°ÑĨÑĸÑı": 6015,
      "ĠÐ½ÐµÐ·Ð²Ð¸ÑĩÐ°Ð¹": 6016,
      "Ð¿ÑĢÐ¾ÑĤ": 6017,
      "ĠÑģÑĤÐ°ÑĢÑĸÐ½Ð½Ñı": 6018,
      "ĠÐ²ÑģÐµÑĢÐµÐ´Ð¸Ð½Ñĥ": 6019,
      "ĠÐ·ÐµÐ¼Ð»Ñı": 6020,
      "Ð³Ð°Ð½Ð¸": 6021,
      "ĠÐ¼Ð°ÑĤÐµÑĢÑĸÐ°Ð»ÑĸÐ²": 6022,
      "ĠÐ½Ð°Ð¿Ð¸ÑģÐ°Ð»Ð°": 6023,
      "ĠÑĢÐ¾Ð·Ð¼ÑĸÑĢÐ¾Ð¼": 6024,
      "ĠÐ¿ÑĸÐ´ÑĤÑĢÐ¸Ð¼ÑĥÐ²Ð°ÑĤÐ¸": 6025,
      "ĠÑĶÐ´Ð¸Ð½Ðµ": 6026,
      "ĠÑģÐ¿ÑĢÐ¸Ð¹Ð¼Ð°ÑĤÐ¸": 6027,
      "Ð°ÑĶÑĪÑģÑı": 6028,
      "ĠÐ´ÐµÑĢÐ¶Ð°Ð²Ð¸": 6029,
      "ĠÐ²ÑĸÐ´Ð½Ð¾ÑĪÐµÐ½Ð½Ñı": 6030,
      "ĠÐ²Ð¸ÑıÐ²Ð¸Ð»Ð¾ÑģÑı": 6031,
      "ĠÐ²Ð¸ÑģÑĤÑĥÐ¿Ñĥ": 6032,
      "Ð°ÑĤÐ¸Ð¼ÐµÐ¼Ð¾": 6033,
      "ĠÑĦÑĸÐ·Ð¸ÐºÐ¸": 6034,
      "ĠÐºÐ¾Ð»ÑĮÐ¾ÑĢÑĥ": 6035,
      "ĠÐ½Ð°Ð»ÐµÐ¶Ð¸ÑĤÑĮ": 6036,
      "ĠÐºÑĢÐµÐ°ÑĤÐ¸Ð²": 6037,
      "ĠÐ¾ÐºÑĢÐµÐ¼": 6038,
      "ĠÐ²Ð¸Ð·Ð½Ð°ÑĤÐ¸": 6039,
      "ĠÐ²ÐµÑĩÑĸÑĢ": 6040,
      "ĠÐ²ÑĢÑıÑĤÑĥÐ²Ð°ÑĤÐ¸": 6041,
      "ĠÑĢÐ°ÑħÑĥÐ½Ð¾Ðº": 6042,
      "ĠÐ°ÑĤÐ¼Ð¾ÑģÑĦ": 6043,
      "ĠÐ·ÑĥÑģÑĤÑĢÑĸÐ²": 6044,
      "ĠÐ´ÑĸÐ²ÑĩÐ¸Ð½ÐºÐ°": 6045,
      "Ð°ÑģÑĤÑĮÑģÑı": 6046,
      "ÑģÐ¿ÑĢÐ°Ð²Ð¶Ð½ÑĮÐ¾Ð¼Ñĥ": 6047,
      "ĠÐ²Ð¾ÑģÑĮÐ¼Ð¸": 6048,
      "ĠÐ¿ÐµÑĢÐµÐ²ÑĸÑĢÑı": 6049,
      "ĠÐ²Ð¼ÑĸÐ½Ð½Ñı": 6050,
      "ĠÐ¿ÑĢÐ¸Ð³Ð¾Ð»Ð¾Ð¼ÑĪ": 6051,
      "ĠÐ´Ð¾ÑģÐºÐ¾Ð½": 6052,
      "Ð°Ð½Ð¸Ð¼": 6053,
      "ÑĸÑīÐ¾": 6054,
      "ÑĢÐ¸ÑĤÐ¸": 6055,
      "Ð²ÑĢÐµÑĪÑĤÑĸ": 6056,
      "ĠÐ¿Ð°Ð½Ðµ": 6057,
      "ĠÐ½ÑĥÐ´": 6058,
      "ĠÐ´ÑĢ": 6059,
      "ĠÐ´ÑĸÐ´Ñĥ": 6060,
      "ĠÑĤÑĢÑĸ": 6061,
      "ĠÑıÑĢ": 6062,
      "ĠÐºÐ°": 6063,
      "ÑģÑıÐº": 6064,
      "ĠÐ½ÐµÐ»ÐµÐ³": 6065,
      "ĠÐ²Ð¸ÑĤ": 6066,
      "Ð°Ð½Ð¾Ð¼Ñĥ": 6067,
      "Ð½ÑıÑĶÑĤÑĮÑģÑı": 6068,
      "ÑĸÐ»Ð¾ÑĤ": 6069,
      "ĠÑĩÐµÑģ": 6070,
      "ĠÐ°Ð½Ð¾": 6071,
      "ĠÐ°Ð½Ð°": 6072,
      "Ð°ÑĢÐ´": 6073,
      "ĠÐ³ÐµÐ¹": 6074,
      "ĠÑģÑĤÐ¾Ð»Ð¸": 6075,
      "ÑĪÐµÐ½Ð¸Ð¹": 6076,
      "ĠÑĶÑĢ": 6077,
      "ÑĥÐ¼Ð°Ð¹ÑĤÐµ": 6078,
      "ĠÐ¿ÐµÑĢÐµÑĹÑħ": 6079,
      "ĠÐ¿Ð¾Ð²Ð·": 6080,
      "ĠÐ¿ÑĸÐ´Ð±": 6081,
      "ĠÐ¾Ð±Ð»Ð°Ð´": 6082,
      "ĠÐ¾Ð±Ð¾Ñħ": 6083,
      "Ð»ÑİÑİÑĩÐ¸": 6084,
      "ĠÐ´ÑĥÑħÐ¾Ð²": 6085,
      "ĠÑģÐ¸Ð´": 6086,
      "ĠÐ´ÑĥÐ¼Ð°ÑĶ": 6087,
      "ĠÐ±ÐµÐ·Ð³": 6088,
      "ĠÐ¿Ð¾Ð³Ð¾Ð´Ð¶": 6089,
      "ĠÐ´Ð¾ÑģÐ»ÑĸÐ´Ð¸ÑĤÐ¸": 6090,
      "ĠÐ¾ÑĢÐ³Ð°Ð½": 6091,
      "ĠÑģÑĮÐ¾Ð³Ð¾Ð´": 6092,
      "ĠÐ¿Ð°ÑĢÐºÑĥ": 6093,
      "ĠÐ¿Ð¾Ð»ÑĸÑĨÑĸÑĹ": 6094,
      "ĠÑģÐµÑĢÐµÐ´Ð½ÑĮÐ¾Ð¼Ñĥ": 6095,
      "ĠÐ¿ÑĢÐ¸Ð²Ðµ": 6096,
      "ĠÐ·Ð¼ÑĸÐ½Ñĥ": 6097,
      "ĠÐ¼Ð°Ð»ÐµÐ½ÑĮÐºÑĥ": 6098,
      "ĠÑħÐ²Ð¸Ð»Ð¸Ð½Ð¸": 6099,
      "ĠÐ·Ð°Ð»Ð¸ÑĪÐ¸ÑĤÐ¸": 6100,
      "ĠÐ³ÑĢÐ¾Ð¼Ð°Ð´ÑıÐ½Ð¸": 6101,
      "ĠÐ¼ÑĸÑģÑıÑĨÑı": 6102,
      "ĠÐ½Ð°Ð¹Ð±ÑĸÐ»ÑĮÑĪÐ¸Ñħ": 6103,
      "ĠÐ½Ð°Ð¹Ð±ÑĸÐ»ÑĮÑĪÐ¸Ð¹": 6104,
      "ĠÐ´ÑĸÐ·Ð½Ð°Ð»Ð¸ÑģÑı": 6105,
      "ĠÑĩÐµÑĢÐ²": 6106,
      "ĠÐ³Ð¾Ð²Ð¾ÑĢÐ¸Ð»Ð°": 6107,
      "ĠÐ¿Ð¾ÑģÐ°Ð´": 6108,
      "ĠÐ¿ÑĢÐ¸Ð³Ð¾ÑĤ": 6109,
      "Ð¿Ð¾ÑĤÑĢÑĸÐ±": 6110,
      "ĠÐ¿Ð¾Ð»ÑĸÑĤÐ¸ÐºÐ°": 6111,
      "ĠÐ¿ÑĢÐ¸Ð·Ð²Ðµ": 6112,
      "ĠÐºÑĥÑĢÑģ": 6113,
      "ĠÑĥÑģÐ¿ÑĸÑĪÐ½Ð¾": 6114,
      "ĠÑĢÐ¾Ð·Ð¿Ð¾Ð²ÑĸÐ²": 6115,
      "ĠÑģÐµÐºÑĥÐ½Ð´Ñĥ": 6116,
      "ĠÑģÐºÐ¾ÑĢÐ¾Ñĩ": 6117,
      "ĠÐ¿ÑĢÐ¸Ð½ÑĨÐ¸Ð¿": 6118,
      "ĠÐ·Ð°Ð¿ÑĢÐ¾Ð¿Ð¾Ð½ÑĥÐ²Ð°ÑĤÐ¸": 6119,
      "ĠÐ¼ÐµÐ¶Ð°Ñħ": 6120,
      "ĠÐµÐ»ÐµÐ¼ÐµÐ½ÑĤ": 6121,
      "ĠÐ´Ð¾Ð³Ð»ÑıÐ´": 6122,
      "ĠÑħÐ°ÑĢÑĩÑĥÐ²Ð°Ð½Ð½Ñı": 6123,
      "ĠÐ³Ð°Ð»Ð°ÐºÑĤÐ¸ÐºÐ¸": 6124,
      "ĠÐ²ÐºÑĢÐ°Ð¹": 6125,
      "ĠÐ·Ð°Ð¿ÑĢÐ¾ÑĪ": 6126,
      "Ð¿ÑĢÐ¾Ð±Ð»ÐµÐ¼Ð°": 6127,
      "as": 6128,
      "ÐµÑĤÑĮÑģÑı": 6129,
      "ÑģÐµÑĢÐµÐ´": 6130,
      "Ð²Ð¾Ð¼": 6131,
      "ĠÑģÐ¾ÑĢÐ¾Ð¼": 6132,
      "Ð¿ÐµÐ´": 6133,
      "ÑĩÐµÑĢ": 6134,
      "Ð±ÑĥÐº": 6135,
      "Ð»Ð¸Ð±": 6136,
      "ĠÐ¾Ð³Ð¸": 6137,
      "Ð¶Ñı": 6138,
      "ÑĨÐ°ÑĢ": 6139,
      "ĠÐ²Ð¸ÑģÑĤÐ°Ñĩ": 6140,
      "Ð³Ð¾Ð´Ð½Ð¾": 6141,
      "Ð¸Ð¼ÑĸÐ½": 6142,
      "Ð°Ð³Ð¸": 6143,
      "ĠÑĸÐ½ÑĤÑĥ": 6144,
      "ĠÑĸÐ½ÑĦÐµÐº": 6145,
      "ÑĩÐ¸Ð½Ñĥ": 6146,
      "Ð´ÐµÑħÑĤÐ¾": 6147,
      "ĠÐ·Ð½Ð°Ð´": 6148,
      "ÑĥÐ¼Ð±": 6149,
      "ĠÐ¼ÑĸÑĢÐ¾Ñİ": 6150,
      "ĠÐ¿Ð¾Ð²ÑģÑıÐº": 6151,
      "ĠÐ¿ÑĸÐ´Ð´": 6152,
      "ĠÐ¿ÑĸÐ´ÑĢÐ¾Ð±": 6153,
      "ĠÐ½Ð°ÑĪÐ¾Ñİ": 6154,
      "ĠÑĹÑħÐ½ÑĮÐ¾ÑĹ": 6155,
      "ÑıÐºÐ¾Ð³Ð¾": 6156,
      "ĠÑģÐ¼ÑĸÑĤÑĤÑı": 6157,
      "ĠÐ±ÑĥÐ²Ð°ÑĶ": 6158,
      "ĠÑģÑĤÐ²Ð¾ÑĢÐµÐ½Ñĸ": 6159,
      "ÑĤÐ°ÐºÑĸ": 6160,
      "ĠÐ³Ð¾Ð»Ð¾Ð²Ð¸": 6161,
      "ĠÐ²Ð»Ð°ÑģÐ½Ð¸Ñħ": 6162,
      "ĠÐ²ÑĸÐ´Ð¿Ð¾Ð²ÑĸÐ´Ð½Ð¾": 6163,
      "ĠÐ·Ð½Ð°Ð¹ÑĪÐ»Ð°": 6164,
      "ÑĨÑĸÐ¹Ð½Ð¾": 6165,
      "ĠÐ¿Ð°ÑĢÑĥ": 6166,
      "ĠÐ²Ð²Ð°Ð¶Ð°ÑĶ": 6167,
      "ĠÑģÐµÑĢÐµÐ´Ð½ÑĮÐ¾Ð³Ð¾": 6168,
      "ĠÐ¶Ð¸Ð²Ñĥ": 6169,
      "ĠÐ±ÑĢÐµÐ½Ð´": 6170,
      "ĠÐ·Ð°Ð¹Ð½Ñı": 6171,
      "ĠÐ¿ÐµÐ²Ð½Ð¸Ñħ": 6172,
      "ĠÐ·Ð¼ÑĸÐ½Ð¸Ð»Ð¾ÑģÑı": 6173,
      "ĠÐ¾ÑĢÐ³Ð°Ð½ÑĸÐ·Ð°ÑĨÑĸÐ¹": 6174,
      "ĠÐ´Ð¾ÑĢÐ¾Ð¶": 6175,
      "ĠÑĢÐ¾Ð·ÑĥÐ¼ÑĸÑĶ": 6176,
      "Ġ400": 6177,
      "ĠÐ¼Ð¾Ð¼ÐµÐ½ÑĤÐ¸": 6178,
      "ĠÑıÑĤÐ°ÑĶÑĤÐµ": 6179,
      "ĠÐ²Ð¿Ð»Ð¸Ð²Ñĥ": 6180,
      "ĠÐºÑĥÐ»ÑĮÑĤÑĥÑĢÐ°": 6181,
      "ĠÐ¾ÑģÐ²ÑĸÑĤÐ°": 6182,
      "ĠÐ½Ð°ÑĢÐ¾Ð´Ð¸Ð²ÑģÑı": 6183,
      "Ð½ÑıÑĤÐ¸ÑģÑı": 6184,
      "ĠÐ¾ÑħÐ¾ÑĢÐ¾": 6185,
      "ĠÐ´ÐµÑģÑıÑĤÑĮ": 6186,
      "ĠÐ¾ÑģÐ½Ð¾Ð²Ð½Ð¾Ð¼Ñĥ": 6187,
      "ĠÐ·Ð°ÑħÐ¾Ð¿Ð»ÐµÐ½Ð½Ñı": 6188,
      "ĠÐ²ÑĸÐ´Ð½Ð¾ÑģÐ½Ð¾": 6189,
      "Ġ150": 6190,
      "ĠÐ¿ÑĢÐ¾Ð±Ð»ÐµÐ¼Ð°Ð¼Ð¸": 6191,
      "ĠÑĢÐ¾ÑģÐ»Ð¸Ð½Ð¸": 6192,
      "ĠÐ¾Ð¿ÐµÑĢÐ°ÑĨÑĸÑĹ": 6193,
      "ĠÐ´Ð¸Ð²Ð¾Ð²Ð¸Ð¶Ð½Ð¾": 6194,
      "ĠÐ¿Ð¾Ð´Ð¾ÑĢÐ¾Ð¶Ñĸ": 6195,
      "ĠÐ¿Ð¾ÑĪÐ¸ÑĢÐµÐ½Ð½Ñı": 6196,
      "ĠÐ·Ð¼ÐµÐ½ÑĪÐ¸ÑĤÐ¸": 6197,
      "ĠÐºÐ¾ÑĪÑĤÐ¸": 6198,
      "ĠÑģÐ¿Ð¾ÑģÐ¾Ð±Ð¾Ð¼": 6199,
      "ĠÐ¿Ð°Ð¿ÐµÑĢÑĥ": 6200,
      "ĠÑģÐ²ÑĸÐ´Ð¾Ð¼ÑĸÑģÑĤÑĮ": 6201,
      "ĠÑģÐ²ÑĸÐ´Ð¾Ð¼Ð¾ÑģÑĤÑĸ": 6202,
      "ĠÐ·Ð±ÑĥÐ´ÑĥÐ²Ð°ÑĤÐ¸": 6203,
      "ĠÐºÐ¾Ð¼Ð°Ð½Ð´Ñĥ": 6204,
      "ĠÐºÑĸÐ»Ð¾Ð³ÑĢÐ°Ð¼": 6205,
      "ĠÐ¿ÑĢÐ¾ÑĩÐ¸ÑĤÐ°ÑĤÐ¸": 6206,
      "ĠÑģÐ¿Ð¸ÑĤÐ°Ð²": 6207,
      "ÑĨÑĸÐºÐ°Ð²Ð¾": 6208,
      "ÐºÑĥÐ»ÑĮÐ¿": 6209,
      "ĠÐ½ÐµÐ¿ÑĢÐ°Ð²Ð¸Ð»ÑĮÐ½Ð¾": 6210,
      "be": 6211,
      "ÐµÐ´Ñĥ": 6212,
      "ÑĢÐ¾Ðº": 6213,
      "Ð¼ÑĸÐ²": 6214,
      "ĠÐ´ÐµÐ½": 6215,
      "ĠÐ´Ð°Ð¼": 6216,
      "ÑĩÑĸÐ²": 6217,
      "ĠÐºÐ¾Ð³Ð½Ñĸ": 6218,
      "ĠÑĥÐ»ÑĮ": 6219,
      "ĠÑĥÐ²Ð°Ð¶": 6220,
      "Ð¸Ð¼ÑĸÑĢ": 6221,
      "ĠÐ²ÑĸÐ´Ð¼": 6222,
      "Ð²ÑĸÐ¼Ðº": 6223,
      "ĠÐ¿Ð¾ÑģÐ¿": 6224,
      "Ð°ÑħÑĸÐ²": 6225,
      "ĠÑĪÐµ": 6226,
      "ĠÐ¿ÐµÑĢÐµÑĪÐº": 6227,
      "ĠÐ¿ÑĸÐ´Ð¾Ð·": 6228,
      "ÑģÑĤÐ¸Ð¹": 6229,
      "ĠÑģÐ¸Ð´Ð¸ÑĤÑĮ": 6230,
      "ĠÐ½Ð°Ð´ÑģÐ¸Ð»": 6231,
      "ĠÐ·Ð¼Ð°Ð³": 6232,
      "ĠÐ²Ð°ÑĪÐ¸Ð½": 6233,
      "ÑĢÐ¾Ð·ÑĥÐ¼": 6234,
      "ĠÐºÑĢÐ¾Ð²Ñĸ": 6235,
      "ĠÐ»ÑİÐ´ÑģÑĮÐºÐ¸Ð¹": 6236,
      "ĠÐ¿Ð¾Ð²ÐµÑĢÐ½ÐµÐ¼Ð¾": 6237,
      "ĠÐ¿ÑĢÐ¸Ð¹ÑĪÐ»Ð°": 6238,
      "ĠÐ²Ð²Ð°Ð¶Ð°ÑĤÐ¸": 6239,
      "ĠÑģÐµÑĢÐµÐ´Ð½ÑĸÐ¹": 6240,
      "ĠÑĨÑĸÐºÐ°Ð²Ñĸ": 6241,
      "ÑħÑĤÐ¾ÑģÑĮ": 6242,
      "ĠÐ´Ð¾ÑĢÐ¾Ð³Ð¸": 6243,
      "ĠÐ¿ÑĢÐ¸ÐºÐ»Ð°Ð´Ð¸": 6244,
      "ĠÑİÑĤÐµÑĢÐ°": 6245,
      "ĠÐ²Ð¸Ð²ÑĩÐ¸ÑĤÐ¸": 6246,
      "Ð±Ð°ÑĩÐ¸ÑĤÐµ": 6247,
      "ĠÐºÐ¾ÑĤÑĢÐ°": 6248,
      "ĠÑĢÐµÐ·ÑĥÐ»ÑĮÑĤÐ°ÑĤÑĸÐ²": 6249,
      "ĠÐ²Ð±Ð¸ÑĤÐ¸": 6250,
      "ĠÐ²ÐµÐ»Ð¸ÑĩÐµÐ·Ð½Ñĸ": 6251,
      "ĠÐ»ÑĸÐºÐ°ÑĢÑĸ": 6252,
      "ĠÑĩÐ¾ÑĢÐ½Ñĸ": 6253,
      "ĠÐ·ÑĥÑģÑĤÑĢÑĸÑĩÑĸ": 6254,
      "ĠÐ·Ð°ÑħÐ¸ÑģÑĤÐ¸ÑĤÐ¸": 6255,
      "ĠÐ²Ð¾Ð»Ð¾Ñģ": 6256,
      "ĠÐ¿ÐµÑĢÐµÐºÐ¾Ð½Ð°ÑĤÐ¸": 6257,
      "ĠÑģÑĤÐ¾Ñı": 6258,
      "ing": 6259,
      "ĠÐ¿Ð¸ÑģÐ°Ð²": 6260,
      "ĠÐ²Ð»Ð°Ð´Ð°": 6261,
      "ĠÐ²Ð°Ð³ÑĸÑĤ": 6262,
      "ĠÐ½Ð¾ÑĢÐ¼Ð°Ð»ÑĮÐ½Ð¾": 6263,
      "ĠÐ´Ð¾Ð²Ð³Ð¸Ð¹": 6264,
      "ĠÐ´Ð¸ÑģÐºÑĥ": 6265,
      "ĠÑĢÐ¾Ð´Ð¸Ð½Ð¸": 6266,
      "ĠÑĩÐ°ÑģÑĤÐºÐ¾Ð²Ð¾": 6267,
      "ĠÐ¼Ð°ÑĤÐµÐ¼Ð°ÑĤÐ¸ÐºÐ¸": 6268,
      "ĠÐºÐ¾Ð»ÐµÐ³Ð¸": 6269,
      "Ð½ÐµÐ¼Ð°ÑĶ": 6270,
      "ĠÐºÑĢÑĥÑĤÐ¾": 6271,
      "ĠÐ¿Ð¾Ð¿ÑĢÐ¾ÑģÐ¸Ð»Ð¸": 6272,
      "ĠÐ·Ð±ÐµÑĢÐµÐ³ÑĤÐ¸": 6273,
      "Ð³Ð°Ð´Ð°Ñİ": 6274,
      "ĠÑĩÐµÑģÑĤÑĮ": 6275,
      "ĠÐ½ÐµÐ´Ð¾ÑģÑĤÐ°ÑĤÐ½ÑĮÐ¾": 6276,
      "ĠÐºÐ°ÑĤÐ°ÑģÑĤÑĢÐ¾ÑĦ": 6277,
      "ĠÐ´Ð¶ÐµÐ¹": 6278,
      "ĠÐ½ÐµÐ¼Ð¾Ð²Ð»Ñı": 6279,
      "ĠÐ²Ð¸ÐºÐ¾Ð½ÑĥÑĶ": 6280,
      "ĠÐ¿ÑĥÐ½Ðº": 6281,
      "ĠÐ»ÑĮÐ¾Ð´Ð¾Ð²Ð¸": 6282,
      "ĠÐ·Ð°Ð½ÐµÐ¿": 6283,
      "ĠÐ²ÐµÑĢÐµÑģÐ½Ñı": 6284,
      "ĠÐ²ÐµÐ»Ð¸ÐºÐ¾Ð±": 6285,
      "os": 6286,
      "Ġx": 6287,
      "ÑĤÑĥÐ²Ð°Ð½Ð½Ñı": 6288,
      "ÑģÐ²ÑĸÑĤ": 6289,
      "Ð²Ð¾Ð¼Ñĥ": 6290,
      "ÐºÑĥÐ²Ð°Ð»Ð¸": 6291,
      "Ð»Ð°Ð¼Ð¸": 6292,
      "ĠÐ²Ð¾Ð³": 6293,
      "ĠÐ¿Ð»Ñİ": 6294,
      "ĠÐ·Ð²Ð°": 6295,
      "ĠÑģÐ°ÑĢ": 6296,
      "ĠÐ¼Ð°Ð¿": 6297,
      "ÑĤÐ¸Ð¹": 6298,
      "Ð¿Ð¾Ð¿": 6299,
      "Ð¿ÑĥÐ»ÑĮ": 6300,
      "ÐµÑĢÐ½Ñĸ": 6301,
      "ĠÑĢÐ¸ÑĦ": 6302,
      "Ð·Ð°Ñģ": 6303,
      "ÐµÐ½Ð¾Ð¼": 6304,
      "ĠÑıÐºÐ¾Ð¼Ð¾Ð³Ð°": 6305,
      "ĠÑīÐ¾Ð½Ð°Ð¹": 6306,
      "ĠÑĥÑģÑĤÐ°Ð½Ð¾Ð²": 6307,
      "ĠÑĩÐ»Ðµ": 6308,
      "ĠÐ»Ñı": 6309,
      "ĠÐ»ÑĸÐ±ÐµÑĢ": 6310,
      "ĠÐ³ÑĥÑĢ": 6311,
      "ĠÐ´Ð¾ÑģÑĤ": 6312,
      "ĠÐ¶ÐµÑĢÑĤ": 6313,
      "ĠÑħÐ¼Ð°ÑĢ": 6314,
      "Ð°Ð»Ð¸Ð¹": 6315,
      "Ð½ÐµÑĤÑĮÑģÑı": 6316,
      "ÑĢÑĸÑı": 6317,
      "ÑģÑĤÐ¸ÐºÐ¸": 6318,
      "ĠÑĢÐ¾ÐºÐ°Ð¼Ð¸": 6319,
      "ĠÐ½Ð°Ð¹Ð³Ð¾Ð»Ð¾Ð²": 6320,
      "Ð¾Ð»Ð¾Ð³ÑĸÑı": 6321,
      "ĠÐ¾ÑĤÑĢÐ¸Ð¼ÑĥÑĶÑĤÐµ": 6322,
      "ĠÐ´Ð¾Ð¿Ð¾Ð¼Ð¾Ð¶": 6323,
      "ĠÐºÐ¾ÑĢÑĥÐ¿": 6324,
      "ÑģÐºÑĸÐ½Ñĩ": 6325,
      "ĠÐ¾ÑĢÐ³Ð°Ð½Ð¸": 6326,
      "ĠÐºÐ°ÑĢÑĤÐ¸Ð½Ð¸": 6327,
      "ĠÐ¿ÑĢÐ¸Ð¹Ð¾Ð¼": 6328,
      "ĠÐ²Ð´Ð°ÑĶÑĤÑĮÑģÑı": 6329,
      "ĠÐ¿Ð¾ÑĩÐ¸Ð½Ð°ÑİÑĩÐ¸": 6330,
      "ĠÐ·Ð°ÑĢÐ¿Ð»": 6331,
      "ĠÐ·Ð°Ð¹Ð¼Ð°Ð²ÑģÑı": 6332,
      "ĠÐ²Ð¸Ð²ÑĩÐ°ÑĤÐ¸": 6333,
      "ĠÐºÐ°Ð¼Ð¿Ð°Ð½Ñĸ": 6334,
      "ĠÐ¼ÐµÑĢÐµÐ¶Ñĥ": 6335,
      "ĠÐ¿Ð¾ÑıÑģÐ½ÐµÐ½Ð½Ñı": 6336,
      "ĠÐ´ÑĢÑĥÐ³Ð¾ÑĹ": 6337,
      "Ð±ÑĥÐ»Ð¾": 6338,
      "ĠÐ´Ð²Ð°Ð´ÑĨÑı": 6339,
      "ÑĦÐ¾ÑĢÐ¼Ñĥ": 6340,
      "ÑģÑĤÐ²Ñĥ": 6341,
      "ĠÐ½Ð°Ð·Ð²Ð°ÑĤÐ¸": 6342,
      "ĠÐ½Ð°Ð·Ð²Ð°Ð»Ð¸": 6343,
      "ĠÑĩÐµÐºÐ°ÑĤÐ¸": 6344,
      "Ð°Ð½ÑĸÑĤÐ°ÑĢ": 6345,
      "ĠÐ¿ÑĢÐ¾Ð²ÐµÐ»Ð°": 6346,
      "ĠÐ²ÑģÐµÑģÐ²ÑĸÑĤÑĸ": 6347,
      "ĠÐ¿Ð»Ð°Ð½Ñĸ": 6348,
      "ĠÐ²Ð°ÑĢÑĸÐ°Ð½ÑĤ": 6349,
      "ĠÑģÑĤÐ°Ð½Ð´Ð°ÑĢÑĤ": 6350,
      "ĠÑĤÑĢÐµÑĤÑĸÐ¹": 6351,
      "ĠÐ³Ð¾ÑģÐ¿Ð¾Ð´Ð°ÑĢ": 6352,
      "Ð·Ð°Ð·Ð²Ð¸ÑĩÐ°Ð¹": 6353,
      "ĠÐ²ÐµÐ»Ð¸ÐºÐ¾Ð±ÑĢÐ¸ÑĤ": 6354,
      "is": 6355,
      "Ð²Ð·": 6356,
      "ĠÐ²ÑĩÐ¸Ð½": 6357,
      "ĠÐ·Ð°Ð»Ñĥ": 6358,
      "ĠÑģÑıÐ³": 6359,
      "ĠÑģÐºÑĥÐ»ÑĮÐ¿": 6360,
      "ĠÐ¼ÐµÑĢÑĤÐ²": 6361,
      "ĠÐ±Ð¾Ñģ": 6362,
      "ÐµÐ½Ð¾ÑĹ": 6363,
      "Ð¶Ð°Ñħ": 6364,
      "ĠÐ°Ð½ÑĸÐ¼": 6365,
      "Ð°ÐºÐ¾Ð½": 6366,
      "ĠÐ»ÐµÐ²": 6367,
      "ĠÐ¼Ð¸ÑĢÑĥ": 6368,
      "ĠÑģÑĤÐ°Ð½Ñĥ": 6369,
      "ÐµÑĢÐµÐ´Ñĥ": 6370,
      "Ð¸Ð²Ð°": 6371,
      "Ð¼Ð¸Ð½Ñĥ": 6372,
      "ÑīÐ¸Ð½": 6373,
      "ĠÑĶÐ¼": 6374,
      "Ð´ÐµÑģÑı": 6375,
      "ĠÑĪÐ°ÑĢ": 6376,
      "ÑĢÐ°Ð²ÑģÑı": 6377,
      "Ð¾ÑģÐ¾Ð±": 6378,
      "ÑĥÑĶÑĪ": 6379,
      "ĠÑīÐ¾Ð±Ð¸": 6380,
      "ĠÐ¾Ð±ÐµÑĢ": 6381,
      "ÑģÐ¿ÑĸÑĢ": 6382,
      "ĠÐ½Ð°Ð´Ð°ÑĤÐ¸": 6383,
      "ĠÐ·Ð°Ð²Ð³Ð¾Ð´Ð½Ð¾": 6384,
      "ĠÐºÐ¾Ð½ÑĤÐ°Ðº": 6385,
      "ĠÐµÐºÑĢÐ°Ð½": 6386,
      "ĠÐ±ÑĸÐ»ÑĮÑĪÐ°": 6387,
      "ĠÐ¿Ð¾Ð³Ð¾Ð´": 6388,
      "ĠÑģÐ¸ÑģÑĤÐµÐ¼Ð¾Ñİ": 6389,
      "ĠÑİÑĢÐ¸": 6390,
      "ĠÐºÐ°ÑĢÑĤÑĥ": 6391,
      "ĠÐ¿ÐµÑĢÑĪÐ¾ÑĹ": 6392,
      "ĠÑĢÑĥÑħÐ°ÑĤÐ¸ÑģÑı": 6393,
      "ĠÐºÑĢÐ°ÑīÐ¸Ð¼": 6394,
      "ÑĥÐ²Ð°Ð»Ð°ÑģÑĮ": 6395,
      "ĠÑĢÐ¾Ð·ÑĥÐ¼ÑĸÐ½Ð½Ñĸ": 6396,
      "ĠÐ±ÑĸÐ³": 6397,
      "Ð½ÑĥÐ²Ð°Ð»Ð¾": 6398,
      "ĠÐ´Ð¾Ð¿Ð¾Ð¼Ð¾Ð³Ð»Ð¸": 6399,
      "ĠÐ¼ÑĸÐ»ÑĮÐ¹Ð¾Ð½Ð°": 6400,
      "ÑĥÑģÑĸÐ²": 6401,
      "ĠÑģÐ²Ð¾ÑĶÑĢÑĸÐ´": 6402,
      "ÑĩÐ°ÑĤÑĮÑģÑı": 6403,
      "ĠÐ´ÑĸÐ²ÑĩÐ¸Ð½Ð°": 6404,
      "ĠÐ·Ð°Ð¹Ð¼Ð°ÑİÑĤÑĮÑģÑı": 6405,
      "ĠÑĦÑĸÐ»ÑĮÐ¼Ð¸": 6406,
      "ĠÑĤÑĢÐ°Ð¿Ð¸ÑĤÑĮÑģÑı": 6407,
      "ĠÐ·Ð¼ÑĥÑĪÐµÐ½Ñĸ": 6408,
      "ĠÑĥÑĢÑıÐ´Ð¸": 6409,
      "Ð½ÑĥÐ»Ð¸ÑģÑĮ": 6410,
      "ĠÑģÑĤÐ¾ÑĢÑĸÑĩ": 6411,
      "ĠÑħÐ¾ÑĢÐ¾ÑĪÐ¸Ð¹": 6412,
      "ĠÐ°ÐºÑĤÐ¸Ð²Ð½ÑĸÑģÑĤÑĮ": 6413,
      "ĠÐ·Ð²ÑĸÐ´ÑģÐ¸": 6414,
      "ĠÐ²Ð¸ÐºÐ¾Ð½ÑĥÐ²Ð°ÑĤÐ¸": 6415,
      "ĠÐºÐ°ÑĢÑĤÐ¸Ð½Ð°": 6416,
      "ĠÐ·ÑĸÑĢÐ¾Ðº": 6417,
      "ĠÐ¿ÑĥÐ±Ð»ÑĸÐº": 6418,
      "Ð¾Ð²Ð°Ð½Ð¾ÑĹ": 6419,
      "ĠÐ¿ÑĢÐµÐ·ÐµÐ½ÑĤ": 6420,
      "ĠÑĤÑĢÑĥÐ´Ð½Ð¾": 6421,
      "ĠÐ¿Ð¾Ð³Ð¾Ð²Ð¾ÑĢÐ¸Ð¼Ð¾": 6422,
      "ĠÑĢÐ¾Ð·Ð´ÑĸÐ»": 6423,
      "ĠÐ¼Ð¾Ð»ÐµÐºÑĥÐ»ÑıÑĢ": 6424,
      "ĠÑģÐ¿Ð¸ÑģÐºÑĥ": 6425,
      "ĠÐ´Ð¸ÑĤÐ¸Ð½ÑģÑĤÐ²Ñĸ": 6426,
      "ĠÐ²Ð²Ð¿": 6427,
      "ĠÐ¾ÑģÐ¾Ð±Ð¸ÑģÑĤÐ¾ÑģÑĤÑĸ": 6428,
      "ĠÐµÐ¿Ð¾ÑħÑĥ": 6429,
      "ĠÐ·Ð²Ð¸ÐºÐ»Ð¸": 6430,
      "ÑĪÑĤÐµÐ¹Ð½": 6431,
      "Ð¾ÑĢÐ³Ð°Ð½ÑĸÐ·": 6432,
      "ĠÐ½Ð°ÑģÐ¾Ð»Ð¾Ð´Ð¶": 6433,
      "ĠÐºÐµÐ½ÑĸÑĹ": 6434,
      "ĠÑĦÑĢÐ°Ð½ÑĨÑĥÐ·ÑĮ": 6435,
      "ĠÑĸÐ½ÑĤÑĥÑĹ": 6436,
      "ad": 6437,
      "ap": 6438,
      "us": 6439,
      "Ġk": 6440,
      "Ð°Ð½Ð¸Ð¼Ð¸": 6441,
      "Ð½Ð¾Ðº": 6442,
      "Ð½Ð°Ð¶": 6443,
      "ÑĤÑĸÐ½": 6444,
      "ĠÐ¿Ð»Ð¸": 6445,
      "ĠÐ¿ÐµÐº": 6446,
      "ĠÐ½Ð¾Ð³": 6447,
      "ĠÑģÑĨÐµÐ½": 6448,
      "ĠÐ¼Ð»": 6449,
      "ĠÐ´Ð°ÑĤ": 6450,
      "Ð¾Ð²ÑĥÑĶÐ¼Ð¾": 6451,
      "Ð¾Ð²ÑĥÑĶÑĤÑĮÑģÑı": 6452,
      "ĠÐ±ÐµÑĤ": 6453,
      "ĠÐºÑĸÐ±ÐµÑĢ": 6454,
      "ĠÐ¿ÑĢÐ¾Ð¶": 6455,
      "ĠÑĢÑĥÑĩ": 6456,
      "ĠÑĢÐ°ÑģÐ¸": 6457,
      "ÑĪÐ¾Ðº": 6458,
      "ĠÐ¾ÑĩÐ¸": 6459,
      "ĠÐ½ÐµÑģÐºÑĸÐ½Ñĩ": 6460,
      "ÑĹÐ¶Ð´Ð¶": 6461,
      "ĠÐ°ÑĤÐ°Ðº": 6462,
      "ĠÐ°ÑģÑĤÑĢ": 6463,
      "ĠÐ»ÑĸÐ½": 6464,
      "Ð»ÑıÐ½ÐµÐ¼Ð¾": 6465,
      "Ð¾ÑĤÐ²Ð¾ÑĢ": 6466,
      "ĠÑģÑĤÐµÑĢÐµ": 6467,
      "ĠÑģÑĤÑĢÑĸÑĩ": 6468,
      "Ð»ÐµÐ½Ð¸Ð¼": 6469,
      "ĠÑĤÐ°ÐºÑĸÐ¹": 6470,
      "ĠÐ¿Ð¾ÑĪÐ¸": 6471,
      "ĠÐ¿Ð¾ÑħÐ¾Ð´": 6472,
      "ĠÑĤÐµÐ¿": 6473,
      "ĠÑĦÑĸ": 6474,
      "ĠÐ¿Ð¾Ð²ÑĸÐ»ÑĮÐ½Ð¾": 6475,
      "ĠÐ´ÑĥÑĪÑĥ": 6476,
      "ĠÐ½Ð°Ð´Ð°ÑĶ": 6477,
      "ĠÐ¶Ð¸ÑĤÑĤÑĸÐ²": 6478,
      "ĠÐ¿Ð¾ÐºÐ°Ð¶": 6479,
      "ĠÐ´ÑĥÐ¼Ð¾Ðº": 6480,
      "ĠÑĤÑĢÐ°Ð³": 6481,
      "ĠÐ·Ð°ÑħÐ¾Ð´Ñĸ": 6482,
      "ĠÐ²Ð°ÑĪÑĸÐ¹": 6483,
      "ĠÐ´Ð¸Ð²Ð»Ñİ": 6484,
      "ĠÐ³ÑĢÐ°ÑĶ": 6485,
      "ĠÑĩÑĥÐ´Ð¾Ð²Ñĥ": 6486,
      "ĠÑģÐ²ÑıÑĤ": 6487,
      "ĠÐ²Ð¸Ð±ÑĢÐ°ÑĤÐ¸": 6488,
      "ĠÐºÑĢÐ°ÑīÐ¸Ð¹": 6489,
      "ĠÑĨÑĸÐ»Ðµ": 6490,
      "ĠÐ°ÑĢÐ¼Ñĸ": 6491,
      "ĠÐ²ÑĸÐ´ÑģÐ¾ÑĤÐ¾Ðº": 6492,
      "ĠÐ²ÑĸÐ¹Ð½Ð°": 6493,
      "ĠÐ´Ð°Ð½Ð¸Ð¼Ð¸": 6494,
      "ĠÑıÑĤÐ°ÑĤÐ¸": 6495,
      "ĠÐ´Ð¾ÑģÑıÐ³Ð»Ð¸": 6496,
      "ĠÐ½Ð°Ð¹ÐºÑĢÐ°ÑīÑĸ": 6497,
      "ĠÐ²Ð¸Ð¹ÑĪÐ¾Ð²": 6498,
      "ĠÐ²Ð¸Ð¹ÑĪÐ»Ð¸": 6499,
      "ĠÐ¿Ð¾ÑģÐµÑĢÐµÐ´Ð¸Ð½Ñĸ": 6500,
      "ĠÑģÐµÐºÑĢÐµÑĤ": 6501,
      "ĠÐ¿ÑĸÑĪÐ»Ð°": 6502,
      "ĠÑĤÐµÐ¼Ð¿ÐµÑĢ": 6503,
      "ĠÐ¾ÑĩÐ¸Ð¼Ð°": 6504,
      "ĠÑıÐ²Ð¸ÑīÐµ": 6505,
      "ĠÐ²ÑĢÐ°Ð¶Ð°ÑĶ": 6506,
      "ĠÑģÐ¾ÑĤÐµÐ½ÑĮ": 6507,
      "ĠÐ½Ð°ÑģÐ»ÑĸÐ´Ð¾Ðº": 6508,
      "ĠÐ¿ÑĢÐ¾Ð¹ÑĪÐ»Ð¸": 6509,
      "ĠÐ´ÐµÑıÐºÐ¸Ð¹": 6510,
      "ĠÐ²ÑģÑĤÐ°Ð½Ð¾Ð²Ð¸ÑĤÐ¸": 6511,
      "ĠÑĤÑĢÑĥÐ±": 6512,
      "ĠÐµÐ²Ð¾Ð»ÑİÑĨÑĸÑĹ": 6513,
      "Ð¼Ð¾Ð¶ÐµÑĤÐµ": 6514,
      "ĠÐ»ÑĮÐ¾Ð´Ñĥ": 6515,
      "ĠÐ¿ÑĢÐµÐ´Ð¼ÐµÑĤ": 6516,
      "ĠÐ½Ð¸Ð¶ÑĩÐµ": 6517,
      "ĠÐ±Ð¾ÑĢÐ¾ÑĤÑĮÐ±Ð¸": 6518,
      "ĠÐ¾ÐºÐµÐ°Ð½Ñĥ": 6519,
      "ĠÑĸÐ½Ð½Ð¾Ð²Ð°ÑĨÑĸÑĹ": 6520,
      "ĠÐ±ÐµÑĢÑĥÑĤÑĮ": 6521,
      "ĠÐ½Ð°ÑĦÑĤÐ¸": 6522,
      "ĠÐ´ÑĸÐ»ÑıÐ½ÐºÐ¸": 6523,
      "ĠÐ¿ÑĢÐ¸Ð±ÑĥÑĤÐ¾Ðº": 6524,
      "ĠÐ²Ð·Ð°ÑĶÐ¼Ð¾Ð´ÑĸÑĹ": 6525,
      "ĠÑĢÐ¾Ð¼Ð°Ð½": 6526,
      "ĠÑģÑĤÐ°Ð½Ð´Ð°ÑĢ": 6527,
      "ĠÐ°ÑĦÐ³Ð°Ð½ÑĸÑģÑĤÐ°Ð½": 6528,
      "ĠÐ²ÐµÐ»Ð¾ÑģÐ¸Ð¿ÐµÐ´": 6529,
      "ĠÐ²ÐµÐ´Ð¼Ðµ": 6530,
      "ĠÐ³ÑĸÐ³Ð°Ð½ÑĤ": 6531,
      "ĠÐ±ÐµÐ·Ð¿Ð¾ÑģÐµÑĢÐµÐ´Ð½ÑĮÐ¾": 6532,
      "ĠÐ¿Ð¾ÑģÐ»ÑĥÐ³Ð¸": 6533,
      "ĠÑĥÐ·Ð±ÐµÑĢÐµÐ¶": 6534,
      "Ð¿ÑĢÐ¾ÑĤÑıÐ³Ð¾Ð¼": 6535,
      "ĠÐºÐ¾Ð³Ð½ÑĸÑĤÐ¸Ð²": 6536,
      "id": 6537,
      "Ð¾ÑĨÑĸÐ½": 6538,
      "ÑĸÑĢÐ¸": 6539,
      "ÑĥÐ¹": 6540,
      "Ð²Ð¾Ðº": 6541,
      "ÐºÑĥÐ²Ð°Ð²": 6542,
      "ĠÐ¿Ð¾Ð¶Ðµ": 6543,
      "Ð´ÑĮ": 6544,
      "ĠÐ½ÑĥÐ»ÑĮ": 6545,
      "ĠÑģÐ¼Ñĥ": 6546,
      "ĠÑģÐ»ÑĸÐ¿": 6547,
      "ĠÑĤÐ¾ÐºÑģÐ¸": 6548,
      "ÑĩÐµÐ½Ð½Ñı": 6549,
      "Ð»Ð¸ÑĪÐµ": 6550,
      "Ð¾Ð»ÑĸÐ²": 6551,
      "ĠÐ½Ð°ÑĢÐ°Ð·Ñĸ": 6552,
      "Ð¾Ð´ÑĥÐ²Ð°ÑĤÐ¸": 6553,
      "Ð³ÐµÐ¹": 6554,
      "ÑĥÐ²Ð°Ð»ÑĮ": 6555,
      "ÑĤÐµÑħÐ½Ð¾Ð»Ð¾Ð³": 6556,
      "ĠÐ²ÑĸÐ´ÑĸÐ³": 6557,
      "ÐµÑĢÐµÐ¼Ð¾": 6558,
      "Ð²ÑĸÑĩ": 6559,
      "ĠÐ¿Ð¾ÑĪÐºÐ¾Ð´": 6560,
      "Ð°ÑĩÐ°Ð¼Ð¸": 6561,
      "Ð¾Ð½Ðµ": 6562,
      "ĠÐ¼ÑĸÐ·": 6563,
      "ĠÐ¹Ð´ÑĥÑĤÑĮ": 6564,
      "ĠÑĢÐµÐ²": 6565,
      "ĠÑĢÐµÐ°Ð»ÑĮÐ½Ñĸ": 6566,
      "ĠÑĤÐ¸Ð¿Ð¾Ð²": 6567,
      "ĠÐºÐ¾Ð¼ÐµÐ½ÑĤ": 6568,
      "ĠÐºÐ¾Ð½ÑĤÐ¸Ð½": 6569,
      "ĠÑıÐºÐ°ÑģÑĮ": 6570,
      "ĠÐ·Ð¼ÑĸÑģÑĤ": 6571,
      "ÑĤÐ¸ÑĩÐ½Ð¸Ð¹": 6572,
      "ĠÐ´Ð¾Ð±ÑĢÐ¾Ð²": 6573,
      "ĠÐ²ÑĸÐ´Ð¿Ð¾Ð²ÑĸÐ´Ð°ÑİÑĤÑĮ": 6574,
      "ĠÐ·Ð°Ð´Ð»Ñı": 6575,
      "ĠÐ²Ð´Ð²ÑĸÑĩÑĸ": 6576,
      "ĠÐ²Ð´Ð°ÑģÑĤÑĮÑģÑı": 6577,
      "ĠÑħÐ²Ð¸Ð»ÑĮ": 6578,
      "ÑĨÑĸÑıÐ¼Ð¸": 6579,
      "ĠÐ½ÐµÐ¿Ð¾Ð³": 6580,
      "ĠÐ³ÑĢÐ¾Ð¼Ð°Ð´Ð¸": 6581,
      "ĠÑĤÐµÑĢÐ¿": 6582,
      "ĠÐ´Ð°ÑģÑĤÑĮ": 6583,
      "ĠÐºÐ°Ð¼ÐµÑĢÐ¸": 6584,
      "ĠÑĢÐ¾Ð·ÑĢÐ¾Ð±Ð¸Ð»Ð¸": 6585,
      "ĠÐ¿Ð¾Ð´Ð¾Ð±Ð°ÑİÑĤÑĮÑģÑı": 6586,
      "ĠÐ¿Ð¾ÑĤÑĢÐµÐ±ÑĥÑĶÐ¼Ð¾": 6587,
      "ĠÐ¼ÑĸÐ»ÑĮÑıÑĢÐ´": 6588,
      "ĠÐ¿Ð¾Ð³Ð»ÑıÐ½ÑĮÑĤÐµ": 6589,
      "ĠÐ¿ÑĢÐ¾Ð´ÑĥÐºÑĤÑĸÐ²": 6590,
      "ĠÑģÑĤÐ²Ð¾ÑĢÐ¸Ð»Ð°": 6591,
      "ĠÐ½ÐµÐ²ÑĢ": 6592,
      "ĠÑģÐ¿Ð¾Ð´ÑĸÐ²Ð°ÑİÑģÑĮ": 6593,
      "ĠÑĢÐ¸Ð·Ð¸ÐºÑĥ": 6594,
      "ĠÑĤÐ¾Ð²Ð°ÑĢ": 6595,
      "ÐºÐ¾Ð¶Ð½Ð°": 6596,
      "ĠÐ²Ð¸Ð¼ÑĸÑĢÑıÑĤÐ¸": 6597,
      "ĠÐ¿ÐµÑĢÐµÐ¹ÑĤÐ¸": 6598,
      "ĠÐ³ÑĸÐ¿ÐµÑĢ": 6599,
      "ĠÑīÐ¾ÑĢÐ°Ð·Ñĥ": 6600,
      "ĠÐ¿ÐµÑĢÐµÐ´Ð±Ð°ÑĩÐ¸ÑĤÐ¸": 6601,
      "ĠÐ¿ÑĢÐ¸Ð¿ÑĥÑīÐµÐ½Ð½Ñı": 6602,
      "ĠÑıÑģÑĥÐ²Ð°ÑĤÐ¸": 6603,
      "ÑĸÐ½ÑĪÐ¸Ð¼Ð¸": 6604,
      "ĠÐ½Ð°Ð»Ð°Ð³": 6605,
      "ĠÐ½Ð°Ð»Ð°ÑĪ": 6606,
      "ĠÐ²Ð¿ÐµÐ²Ð½ÐµÐ½Ñĸ": 6607,
      "ĠÑĢÐµÑĪÑĤÑĥ": 6608,
      "ĠÐ°Ð³ÐµÐ½ÑĤ": 6609,
      "ĠÑĸÐ½Ð¶ÐµÐ½ÐµÑĢ": 6610,
      "ÐµÐ½ÑģÐ¸Ð²": 6611,
      "ĠÐ²ÐµÑģÐµÐ»Ð¾": 6612,
      "ĠÐºÐ²Ð°ÑĢÑĤ": 6613,
      "ĠÑĶÐ³Ð¸Ð¿": 6614,
      "ĠÐ¾Ð±ÑģÑĤÐ°Ð²Ð¸Ð½": 6615,
      "ĠÐ²Ð³Ð¾ÑĢÑĥ": 6616,
      "ÑģÐ½Ð¾ÑģÑĤÑĸ": 6617,
      "ĠÐ²ÑģÑĤÐ°Ð²": 6618,
      "ĠÐ²ÑĩÐµÐ½Ñĸ": 6619,
      "ĠÐ²ÑĩÐ°ÑĤÑĮÑģÑı": 6620,
      "Ð´Ð°ÑĤÐ¸": 6621,
      "ĠÑģÑİ": 6622,
      "ĠÐ¼ÐµÑĢ": 6623,
      "ĠÑĤÐ°ÑĢ": 6624,
      "ÑĩÐ¾ÑĤÐ¸": 6625,
      "Ð¾Ð²Ð¸Ð½": 6626,
      "ÑģÑĤÐ°Ð½Ð½Ñı": 6627,
      "ÐµÐ½ÑĤÑĸ": 6628,
      "ĠÐ¾ÑģÑĤÐ°ÑĤ": 6629,
      "Ð¾Ð´Ð¶ÐµÐ½Ð½Ñı": 6630,
      "Ð°Ð¼Ð°": 6631,
      "Ð½ÑıÑİÑĤÑĮ": 6632,
      "ĠÐ»Ð¾Ðº": 6633,
      "ĠÐ²ÑĸÐ´Ð²ÐµÑĢ": 6634,
      "ÐºÑĥÑĤ": 6635,
      "ĠÑĢÐ¾Ð·ÐºÑĢ": 6636,
      "Ð°Ð¶Ñĸ": 6637,
      "ÑĢÐ¸Ð»Ð¸": 6638,
      "ĠÑĪÑĤÐ°ÑĤÐ¸": 6639,
      "ĠÐ¼ÑĸÐ½ÑĸÐ¼": 6640,
      "ÑĥÐ²Ð°ÑĤÐ¸Ð¼ÑĥÑĤÑĮ": 6641,
      "ĠÑģÐºÑĢÑĸ": 6642,
      "ĠÐ¼ÐµÐ»": 6643,
      "ĠÐ¿ÑĸÐ´Ð½Ñĸ": 6644,
      "Ð´ÑĸÑĤÑĮ": 6645,
      "ÑĸÑĢÐºÐ¸": 6646,
      "ĠÐ²ÑģÑĸÑĶÑĹ": 6647,
      "ĠÐ·Ð²Ð°ÑĤÐ¸": 6648,
      "ĠÐ¿Ð¾Ð»Ñı": 6649,
      "ĠÐ¾ÑĤÑĢÐ¸Ð¼Ð°ÑĶÐ¼Ð¾": 6650,
      "ĠÐ¿Ð¾Ð³Ð°Ð½Ñĸ": 6651,
      "ĠÐ¿ÑĢÐ¸Ð¹Ð½ÑıÐ»Ð¸": 6652,
      "Ð»ÐµÐ½Ñĥ": 6653,
      "ÐµÐ¹Ð½": 6654,
      "ĠÐ´Ð¶Ð¾": 6655,
      "ĠÑĨÑĸÐºÐ°Ð²Ð¸ÑĤÑĮ": 6656,
      "ĠÐ¾ÑĢÐ³Ð°Ð½ÑĸÐ²": 6657,
      "ĠÐ²Ð¸ÑģÐ½Ð°Ð¶": 6658,
      "ĠÐ´Ð¾ÑĢÐ¾Ð·Ñĸ": 6659,
      "ĠÑĢÐ°Ð´ÑĪÐµ": 6660,
      "ĠÑĤÐµÑĢÐ°Ð¿": 6661,
      "ÐµÑĢÐµÐ´Ð¸Ð½Ð¸": 6662,
      "ĠÐ·Ð°Ð¿Ð¸ÑĤÐ°Ð»Ð¸": 6663,
      "Ð»ÑıÑĤÐ¸ÑģÑı": 6664,
      "ĠÐºÐ°Ð¼ÐµÑĢ": 6665,
      "ĠÐ¿ÑĢÐ¾Ð¿Ð¾Ð·Ð¸": 6666,
      "ĠÐ²ÐµÐ»Ð¸ÑĩÐµÐ·Ð½Ñĥ": 6667,
      "ĠÑĤÐ²Ð¾ÑĢÑĩ": 6668,
      "ĠÐ³Ð¾ÑĤÐ¾Ð²Ð¸Ð¹": 6669,
      "ĠÑĨÐ¸ÑĦÑĢÐ¸": 6670,
      "ĠÐ½ÐµÐ±ÐµÐ·Ð¿ÐµÑĩ": 6671,
      "ĠÐ¼ÐµÐ´Ð¸ÑĨÐ¸Ð½Ð¸": 6672,
      "ĠÐºÐ½Ð¸Ð¶Ð¾Ðº": 6673,
      "ĠÐ²Ð¸ÑıÐ²Ð¸Ð»Ð¾ÑģÑĮ": 6674,
      "ĠÐ²ÑĢÐ°Ð¶ÐµÐ½Ð½Ñı": 6675,
      "ĠÐ¿Ð¾ÑĤÑĢÐ°Ð¿Ð¸ÑĤÐ¸": 6676,
      "ĠÐ²ÑĩÐ¸ÑĤÐ¸ÑģÑı": 6677,
      "ĠÑģÐºÐ°Ð¶Ðµ": 6678,
      "one": 6679,
      "ĠÐ·Ð²ÑĸÐ´ÑĤÐ¸": 6680,
      "ĠÐ²Ð»Ð°Ð´Ñĥ": 6681,
      "ĠÐ³ÑĢÐ¸Ð¿Ñĥ": 6682,
      "ĠÐ¿ÑĢÐµÐºÑĢÐ°ÑģÐ½Ð¾": 6683,
      "ĠÐ²Ð¸Ð½Ð°Ð³Ð¾ÑĢ": 6684,
      "ĠÐºÐ¾Ð»ÑĮÐ¾ÑĢ": 6685,
      "ĠÑĢÐ¾Ð·Ð¿Ð¾ÑĩÐ°ÑĤÐ¸": 6686,
      "ĠÐºÐ¾Ð¼ÑĥÐ½ÑĸÐº": 6687,
      "ĠÐ±ÐµÑĢÐµÐ¼Ð¾": 6688,
      "ĠÑģÑĤÐ°ÑĤÑĤÑİ": 6689,
      "ĠÐ½Ð°ÑĥÐºÐ¾Ð²ÑĨÑĸ": 6690,
      "ĠÐ¾ÐºÑĢÐµÐ¼Ñĸ": 6691,
      "ĠÑĶÐ´Ð½ÑĥÑĶ": 6692,
      "ĠÑģÐ¾Ð½ÑĨÐµ": 6693,
      "ĠÐºÑĥÑĤÐ¾Ñĩ": 6694,
      "ĠÐ´ÐµÐ¼Ð¾Ð½ÑģÑĤÑĢ": 6695,
      "ĠÐ²ÑĸÐ´Ð±ÑĥÐ»Ð¾ÑģÑı": 6696,
      "Ð´Ð¾ÑģÐ»ÑĸÐ´": 6697,
      "ĠÑģÐ¼ÐµÑĢÑĤÐ½Ð¾ÑģÑĤÑĸ": 6698,
      "Ð¿Ð¾Ð³Ð»ÑıÐ½ÑĮÑĤÐµ": 6699,
      "ĠÐ´ÐµÐºÑĸÐ»ÑĮÐºÐ¾Ñħ": 6700,
      "ĠÐ½ÐµÐ²Ð¸Ð´Ð¸Ð¼": 6701,
      "ĠÐ¾Ð±Ð»Ð°Ð´Ð½": 6702,
      "ĠÐ¾ÑģÑĤÐ°ÑĤÐ¾Ñĩ": 6703,
      "com": 6704,
      "ew": 6705,
      "ÐµÑĤÑĸ": 6706,
      "ÑĤÑĢÐµÑĤ": 6707,
      "ÑĢÐ±": 6708,
      "ÑĢÐ°Ð»Ð°": 6709,
      "Ð²Ð¸Ð¼Ð¸": 6710,
      "ÐºÐ»Ñĸ": 6711,
      "ĠÐ¿Ð¸Ð»": 6712,
      "ĠÐ·Ñģ": 6713,
      "ĠÐ·ÑĥÐ±": 6714,
      "ĠÐ·Ð»ÑĸÐ²Ð°": 6715,
      "ĠÐ¼ÑĢ": 6716,
      "ĠÐ¼ÑĸÐ»": 6717,
      "ĠÐ¼Ð°ÑİÑĩÐ¸": 6718,
      "ĠÑĤÑĸÐ¼": 6719,
      "ĠÐºÐ°Ñģ": 6720,
      "ĠÑīÐ¸ÑĢÐ¾": 6721,
      "Ð·Ð²": 6722,
      "Ð±ÑĸÐ½": 6723,
      "Ð¶Ð¸ÑĢ": 6724,
      "ÑĨÑĮÐ¾Ð³Ð¾": 6725,
      "ÑĨÐ¸Ð½": 6726,
      "ĠÐ²Ð¸ÑīÐµ": 6727,
      "ĠÐ³ÐµÐ½Ð¾": 6728,
      "ĠÑģÑĤÐ°ÑĤÐµ": 6729,
      "Ð°Ð¹Ð½Ð¾": 6730,
      "ĠÐ´Ð¾Ð½": 6731,
      "ĠÑģÐ¿Ð¾Ð³": 6732,
      "ĠÑħÐ¸ÑĤ": 6733,
      "ĠÐ¼Ð¾Ð¶Ð»Ð¸Ð²Ð¸Ð¼": 6734,
      "ĠÑĹÐ·Ð´": 6735,
      "ĠÑĤÐµÐ¼Ð°": 6736,
      "Ð¾Ð¿Ð¾Ð²": 6737,
      "ĠÐ¿ÑĢÐ¸Ðº": 6738,
      "ĠÑĦÑĢÐ°Ð·": 6739,
      "ĠÐ¿ÐµÑĢÐµÐ¶": 6740,
      "ĠÐ¼ÐµÑĤÐ¸": 6741,
      "Ð°Ð±Ð¸": 6742,
      "ÑĢÐ¾Ð½Ñĸ": 6743,
      "ĠÐ²ÐµÐ´Ðµ": 6744,
      "ĠÐ²ÐµÑģÑĤÐ¸": 6745,
      "ĠÐ·ÑĢÐ¾Ð±Ð»Ñİ": 6746,
      "ĠÐºÐ¾Ð¼Ð°ÑĢÑĸÐ²": 6747,
      "ĠÐ´ÑĸÑİ": 6748,
      "ĠÐ½Ð°Ð¿ÑĢÐ¸ÐºÑĸÐ½ÑĨÑĸ": 6749,
      "ĠÐºÐ¾Ð½Ð³": 6750,
      "ĠÑıÐ·ÐºÑĸÐ²": 6751,
      "ĠÐ±ÑĸÐ»ÑĮÑĪÐ¾Ð³Ð¾": 6752,
      "ĠÑĢÐ°Ð·Ð¸": 6753,
      "ĠÐ²Ð¿ÑĢÐ¾Ð²Ð°Ð´": 6754,
      "ĠÐºÑĢÐ°Ð¼": 6755,
      "ÑĤÐ¾ÑĢÑĸ": 6756,
      "ĠÐ²Ð»Ð°ÑģÐ½Ð¾ÑĹ": 6757,
      "ĠÐ¾ÑĢÐºÐµ": 6758,
      "ĠÐ¿Ð°ÑĢÐ»Ð°Ð¼": 6759,
      "ĠÐ¿Ð¾Ð»ÑĸÑĨÐµÐ¹": 6760,
      "ĠÐ°Ð½Ð´ÐµÑĢ": 6761,
      "ĠÐ·Ð°Ð³Ð°Ð»Ð¾Ð¼": 6762,
      "ĠÑĩÑĥÐ´Ð¾Ð²Ð¸Ñħ": 6763,
      "ĠÑĤÐ¸Ð¼ÑĩÐ°Ñģ": 6764,
      "ĠÑĢÑĥÑħÐ°ÑĤÐ¸ÑģÑĮ": 6765,
      "ĠÐ¼ÑĸÑģÑĨÐµÐ²Ð¸Ñħ": 6766,
      "ĠÑĨÑĸÐºÐ°Ð²Ðµ": 6767,
      "ĠÐ²Ð¸ÐºÐ¾ÑĢÐ¸ÑģÑĤÐ¾Ð²ÑĥÑĶÑĤÑĮÑģÑı": 6768,
      "ĠÐ²Ð¸Ð¿Ð°Ð´ÐºÐ¸": 6769,
      "ĠÑĨÑĸÐ»ÐºÐ¾Ð²": 6770,
      "ĠÑĸÐ½ÑĤÐµÑĢÐ²": 6771,
      "ÑħÐ¾Ð´Ð¸Ð¼Ð¾": 6772,
      "ĠÐ´Ð°Ð²Ð°ÑĤÐ¸": 6773,
      "ĠÐ·Ð°ÑĢÐ°Ð¶": 6774,
      "ĠÐ¿ÑĢÐ¾ÑĤÐ¾ÐºÐ»Ñĸ": 6775,
      "ÑĦÐµÐºÑĤÐ¸Ð²": 6776,
      "ĠÐ»ÐµÐ³ÑĪÐµ": 6777,
      "ĠÑģÑĤÐ°Ð½Ð¾Ð²": 6778,
      "ĠÐ´Ð²Ð¾ÑĶ": 6779,
      "ĠÐºÑĥÐ»ÑĮÑĤÑĥÑĢÑĥ": 6780,
      "ĠÐ´Ð¾ÑģÑĤÑĥÐ¿Ñĥ": 6781,
      "Ð¾Ð»ÑĸÑĤÑĤÑı": 6782,
      "ĠÑĤÑĢÐ¸Ð²Ð¸Ð¼ÑĸÑĢ": 6783,
      "ÑĸÐ»Ð¾ÑģÑı": 6784,
      "ĠÐ±ÑĥÐ´Ð¸Ð½ÐºÐ¸": 6785,
      "ĠÑĶÐºÑĤÐ¸Ð²": 6786,
      "ĠÑģÑĦÐµÑĢ": 6787,
      "ĠÑģÑħÐ¾Ð¶Ð¸Ð¹": 6788,
      "ĠÐ¿Ð¾Ð»ÑĸÑĤÐ¸ÑĩÐ½Ð¸Ñħ": 6789,
      "ĠÐ±ÑĥÐ´ÑĥÑĩÐ¸": 6790,
      "ĠÐºÑĸÐ¼Ð½Ð°ÑĤÑĥ": 6791,
      "ĠÐ¼Ð°ÐºÑģÐ¸Ð¼": 6792,
      "ĠÐ½Ð°ÑģÐ¸Ð»ÑĮÑģÑĤÐ²Ð¾": 6793,
      "ĠÐ³ÐµÑĢÐ¾ÑĹ": 6794,
      "ĠÐ¿Ð¾Ð¿ÑĢÐ¾ÑģÐ¸Ð²": 6795,
      "ĠÐ·Ð±ÐµÑĢÐµÐ¶ÐµÐ½Ð½Ñı": 6796,
      "ĠÐ½ÑĸÑıÐºÐ¾Ð³Ð¾": 6797,
      "ĠÐ¾ÐºÐµÐ°Ð½": 6798,
      "ĠÑĸÐ½Ð´ÑĥÑģÑĤÑĢÑĸÑĹ": 6799,
      "ĠÐ°ÑĥÐ´Ð¸ÑĤÐ¾ÑĢÑĸÑĹ": 6800,
      "ĠÐ½Ð°Ð¿ÑĢÐ°Ð²Ð´Ñĥ": 6801,
      "ĠÐ¿ÑĸÐ´Ð³Ð¾ÑĤÐ¾Ð²": 6802,
      "Ġyou": 6803,
      "ĠÐ·Ð°ÑģÐ»ÑĥÐ³": 6804,
      "ĠÐ°ÐµÑĢÐ¾Ð¿": 6805,
      "ÑĦÑĢÐ°Ð½ÑĨÐ¸ÑģÐºÐ¾": 6806,
      "ĠÑĥÐ»ÑĮÑĤÑĢ": 6807,
      "ĠÐ²Ð°ÑĪÐ¸Ð½Ð³": 6808,
      "ÑĤÑĢÐµÐ±Ð°": 6809,
      "Ð²Ð°ÑĪ": 6810,
      "ĠÐ·Ð·": 6811,
      "ĠÐ¼Ð¾Ð´Ð¸": 6812,
      "ĠÐ´ÑĸÐ»": 6813,
      "ĠÑĤÐ²Ð¾ÑĢÐ¸": 6814,
      "ÑĩÐ¾Ð»": 6815,
      "ÑģÑĤÐ¾Ð³Ð¾": 6816,
      "Ð·Ð¼Ñĸ": 6817,
      "Ð¾Ð»Ð°": 6818,
      "ĠÐ½ÐµÑģÑĤ": 6819,
      "ĠÐ²Ð¸Ð¿Ð¾Ð²": 6820,
      "ĠÑĥÐ²ÑĸÐ¹": 6821,
      "Ð°Ð·Ð¾Ð½": 6822,
      "Ð°ÑĤÐ°Ð¼Ð¸": 6823,
      "ĠÑħÐ°Ð¹": 6824,
      "ĠÑħÐ¸Ð±": 6825,
      "ÑīÑĥ": 6826,
      "ÑĩÐ¸Ð½Ñĸ": 6827,
      "ÑĤÑĥÑĢÐ¸": 6828,
      "Ð»ÑĮÐ¹": 6829,
      "ĠÐ¿Ð¾Ð²Ð½Ð¾": 6830,
      "ĠÐ¿Ð¾Ð²Ð°Ð¶": 6831,
      "ĠÐ¿ÑĸÐ´Ð²": 6832,
      "ĠÑģÐ¼ÑĸÑĤ": 6833,
      "ĠÐ½Ð°Ð´ÑĢÑĥ": 6834,
      "ĠÐ´ÑĸÐ»Ð¸ÑĤÐ¸ÑģÑı": 6835,
      "ĠÐ°Ð±ÑģÑĤÑĢ": 6836,
      "ĠÐ±Ð°ÑĩÐ¸ÑĤÑĮ": 6837,
      "ĠÐ·Ð°Ð²ÑĤÑĢÐ°": 6838,
      "Ð¾Ð»Ð¾Ð³ÑĸÐ²": 6839,
      "ĠÑģÐµÐ¼Ð¸": 6840,
      "ÑģÑĤÐ¾ÑĢÐ¾Ð½": 6841,
      "Ð²Ð°Ð¶Ð»Ð¸Ð²Ð¾": 6842,
      "ĠÐºÑĢÐ¸Ð²": 6843,
      "Ð¼ÐµÑĢÐ°": 6844,
      "ĠÐ´Ð¸Ð²Ð¸ÑĤÑĮÑģÑı": 6845,
      "ÑĥÐ²Ð°Ð²ÑĪÐ¸": 6846,
      "ĠÐ·Ð°ÐºÐ¾Ð½Ð¸": 6847,
      "ÐºÐ¾Ð¼Ð°": 6848,
      "ĠÑĩÑĥÐ´Ð¾Ð²Ð¸Ð¼": 6849,
      "ĠÐ´Ð¶Ð¾ÑĢÐ´Ð¶": 6850,
      "ĠÑģÐ¿ÑĸÐ²ÑĢÐ¾Ð±ÑĸÑĤ": 6851,
      "ĠÐ·Ð¼ÑĸÐ½Ð°": 6852,
      "ĠÐ¼Ð°ÑĤÑĸÑĢ": 6853,
      "ĠÐ±ÑĸÐ¶ÐµÐ½": 6854,
      "ĠÑħÐ²Ð¸Ð»ÑİÐ²": 6855,
      "ĠÐ²ÑĸÑĢÑıÑĤÑĮ": 6856,
      "ĠÐ³Ð°ÑĢÑı": 6857,
      "Ð°ÑĤÐ¾ÑĢÑĸÐ²": 6858,
      "Ð¸Ð»ÑĸÑĹ": 6859,
      "ĠÐ²Ð¸Ð·Ð½Ð°ÑĩÐ°ÑĶ": 6860,
      "ĠÐ·Ð±Ð¸ÑĢÐ°ÑİÑĤÑĮÑģÑı": 6861,
      "ĠÐ³ÐµÐ½Ð¾Ð¼": 6862,
      "ĠÐ·Ð°Ð½ÑıÑĤÑĤÑı": 6863,
      "ĠÐ¿ÑĢÐ¸ÑĢÐ¾Ð´Ñĥ": 6864,
      "ĠÑĪÑĤÐ°ÑĤÑĥ": 6865,
      "ĠÐµÐºÑģÐ¿ÐµÑĢÐ¸Ð¼ÐµÐ½ÑĤÐ¸": 6866,
      "ĠÐ¿Ð¾ÑģÐ»ÑĥÑħ": 6867,
      "ĠÐ¶Ð°ÑħÐ»Ð¸Ð²Ð¾": 6868,
      "ĠÐ½Ð°Ð·Ð²Ð°Ð²": 6869,
      "ĠÐ¾Ð´Ð½Ð°ÐºÐ¾Ð²Ð¾": 6870,
      "ĠÑĥÑĩÐ°ÑģÑĤÑĸ": 6871,
      "ÑģÐ¿ÑĢÐ°Ð²Ð°": 6872,
      "Ð¾ÐºÑĢÐµÐ¼": 6873,
      "ĠÑĢÐ°Ð¿ÑĤ": 6874,
      "ĠÐ²ÑĤÑĢÑĥÑĩ": 6875,
      "Ġ1990": 6876,
      "ĠÐ±Ð°Ð±ÑĥÑģÑı": 6877,
      "ĠÑĸÐ½ÑĤÐµÐ½ÑģÐ¸Ð²": 6878,
      "ĠÐ¿Ð¾ÑĪÑĥÐºÐ°Ñħ": 6879,
      "ĠÐ¿Ð¾ÑĹÑħÐ°Ð²": 6880,
      "Ð½ÑĸÑģÑĸÐ½ÑĮ": 6881,
      "ĠÑĤÐµÑĢÐ¸ÑĤÐ¾ÑĢÑĸÑĹ": 6882,
      "ĠÐ´Ð¾ÐºÑĥÐ¼ÐµÐ½ÑĤ": 6883,
      "ĠÐ¾Ð·Ð½Ð°Ðº": 6884,
      "ĠÐ¼Ð°Ð³Ð°Ð·Ð¸Ð½": 6885,
      "ĠÐ½ÑĸÐ¼ÐµÑĩ": 6886,
      "ĠÐ±ÑĢÐ°Ð·Ð¸Ð»ÑĸÑĹ": 6887,
      "ĠÑħÐ°Ð¾Ñģ": 6888,
      "ĠÐ·Ð°Ð¾ÑīÐ°Ð´Ð¶": 6889,
      "ĠÐ½ÐµÐ´Ð°Ð²Ð½Ð¾": 6890,
      "ĠÐ·Ð°ÑĤÐµÐ»Ðµ": 6891,
      "ÑĦÐ°ÐºÑĤÐ¸ÑĩÐ½Ð¾": 6892,
      "ĠÑģÑĮÐ¾Ð³Ð¾Ð´ÐµÐ½Ð½Ñı": 6893,
      "ĠÐ²ÐµÐ»Ð¸ÐºÐ¾Ð±ÑĢÐ¸ÑĤÐ°Ð½ÑĸÑĹ": 6894,
      "ĠÑĤÐ¾Ð±": 6895,
      "Ð¿Ð¾Ð·": 6896,
      "Ð¿Ð°Ð½ÑĸÑĹ": 6897,
      "ÑģÑĤÑıÑħ": 6898,
      "ĠÐ±Ðµ": 6899,
      "ĠÐºÐ¸Ð¼Ð¾ÑģÑĮ": 6900,
      "Ð±ÑĤÐ¾": 6901,
      "ÐµÐ½Ñı": 6902,
      "ĠÐ¾ÑģÐµ": 6903,
      "ĠÐ²Ð¸Ð»ÑĸÐº": 6904,
      "Ð½ÑıÐ¼Ð¸": 6905,
      "Ð¾ÐºÑģ": 6906,
      "ÑĸÐ½Ð¾Ð´Ñĸ": 6907,
      "ĠÐ²ÑĸÐ´ÑģÑĤÐ°Ð½": 6908,
      "ĠÐ³ÑĢÑĸ": 6909,
      "ĠÑģÑĤÑĸÐ²": 6910,
      "Ð°Ð¹Ð¼Ð¾": 6911,
      "Ð¼Ð¾ÑĶ": 6912,
      "Ð°Ð³Ð¾": 6913,
      "Ð¾Ð½ÑĤÐµÑĢ": 6914,
      "ĠÑĹÐ·": 6915,
      "ÑĢÑĸÑİ": 6916,
      "ĠÑĪÐ°Ð±": 6917,
      "ĠÐ´ÐµÐ´Ð°Ð»Ñĸ": 6918,
      "ĠÑģÐºÑĢÐ¸": 6919,
      "Ð»ÑĸÑģ": 6920,
      "ĠÐ¾Ð±ÑĸÐ´": 6921,
      "ĠÑģÐ¸Ð´ÑĸÐ²": 6922,
      "ĠÑĸÐ½ÑĪÐ¾Ñİ": 6923,
      "ĠÐ½Ð°Ð¹Ñģ": 6924,
      "Ð¼ÐµÑĤÐµ": 6925,
      "Ð°Ð»Ð¾ÑģÑĤÑĸ": 6926,
      "ĠÑģÐ²ÑĸÑĤÐ»": 6927,
      "ĠÐ´Ð¾Ð¿Ð¾ÐºÐ¸": 6928,
      "ĠÐµÐºÑĢÐ°Ð½Ñĸ": 6929,
      "ĠÐ²Ð°ÑĪÐ¸Ð¼": 6930,
      "ĠÐ´Ð¸Ð²Ð»ÑıÑĩÐ¸ÑģÑĮ": 6931,
      "ĠÐ²ÑĸÐ´ÑĩÑĥÐ²Ð°Ð»Ð¸": 6932,
      "ĠÐ¿ÑĢÐ¾Ð³Ð½Ð¾Ð·": 6933,
      "ĠÐ¿ÑĢÐ¾Ð²Ð¾Ð´ÑıÑĤÑĮ": 6934,
      "ĠÐºÐ°ÑĢÐ¸Ðº": 6935,
      "ĠÐ¼Ð¾ÑĹÐ¼Ð¸": 6936,
      "ĠÐ¼ÑĸÑģÑĨÐµÐ²Ð¾ÑģÑĤÑĸ": 6937,
      "ĠÑħÐ¾ÑĩÐµÑĪ": 6938,
      "ĠÐºÐ½Ð¸Ð³Ð°": 6939,
      "ĠÐ±ÑĸÐ¾Ð»Ð¾Ð³ÑĸÑĹ": 6940,
      "ĠÐºÑĸÐ½ÑĨÑĸÐ²": 6941,
      "ĠÐ½Ð°Ð¹Ð±ÑĸÐ»ÑĮÑĪÐ°": 6942,
      "ĠÐ¿Ð¾Ð´ÑĥÐ¼Ð°Ð¹ÑĤÐµ": 6943,
      "ĠÐ½Ð°ÑĥÐºÐ¾Ð²Ñĸ": 6944,
      "ĠÐ½Ð°Ð¿Ð¸ÑģÐ°Ð»Ð¸": 6945,
      "ĠÐ½Ð°Ð¿Ð¸ÑģÐ°Ð½Ð¾": 6946,
      "ĠÐºÐ°Ð¼ÐµÑĢÑĥ": 6947,
      "ĠÐ¼Ð¾Ð²Ñĩ": 6948,
      "ĠÐ¼ÐµÑĢÐµÐ¶Ð°": 6949,
      "ĠÐºÐ¾ÑĢÐ¸ÑģÑĤÑĥÑİÑĤÑĮÑģÑı": 6950,
      "ĠÐ·Ð°Ð²Ð´Ð°Ð½Ð½ÑıÐ¼": 6951,
      "ĠÑĢÐ¾Ð·ÑĢÐ¾Ð±ÐºÐ¸": 6952,
      "ĠÐ²Ð¸ÑĢÐ¾Ð±Ð½Ð¸ÑĨÑĤÐ²Ð¾": 6953,
      "Ð¾Ð½ÑĥÑİ": 6954,
      "ĠÐ¾ÑģÐ½Ð¾Ð²Ñĥ": 6955,
      "ĠÐ´ÑĸÐ²ÑĩÐ°ÑĤÐ°": 6956,
      "ĠÐ³Ð°Ð·ÐµÑĤ": 6957,
      "ĠÑĢÐ¾Ð·Ð²Ð¸Ð²Ð°ÑĶÑĤÑĮÑģÑı": 6958,
      "ĠÐºÐ¾ÑģÐ¼Ð¾": 6959,
      "ĠÐ²Ð¸ÐºÐ¾Ð½Ð°Ð²": 6960,
      "ĠÐ¿ÑĢÐ°ÑĨÑĸÐ²Ð½Ð¸ÐºÐ¸": 6961,
      "ĠÑĢÐ°Ð¹Ð¾Ð½Ñĸ": 6962,
      "ĠÑĢÐ¾ÑģÑĤÐµ": 6963,
      "ĠÐ·Ð°ÑĤÑĢÐ¸Ð¼": 6964,
      "ĠÐ¿Ð¾Ð¼Ð¸Ð»Ð¾Ðº": 6965,
      "ĠÐ½ÐµÑīÐ°Ñģ": 6966,
      "ĠÐ´Ð¶ÐµÑĢÐµÐ»Ð¾": 6967,
      "ĠÐ´Ð¾ÑĢÐ¾ÑģÐ»Ð¸Ñħ": 6968,
      "ĠÑĢÐµÑĪÑĤÐ°": 6969,
      "ĠÑħÐ»Ð¾Ð¿ÑĩÐ¸Ðº": 6970,
      "ĠÐ¿Ð¾Ð¼ÑĸÑĤÐ¸Ð²": 6971,
      "ĠÐ½ÐµÐ·Ð°Ð»ÐµÐ¶Ð½Ð¾": 6972,
      "ĠÐ²Ð¸ÑģÐ½Ð¾Ð²Ð¾Ðº": 6973,
      "ĠÐ´ÑĸÑıÐ»ÑĮÐ½ÑĸÑģÑĤÑĮ": 6974,
      "ĠÑģÑĸÑĤÐºÑĸÐ²": 6975,
      "ĠÑĥÑĩÐ½ÑĸÐ²": 6976,
      "ĠÑģÑħÐ¸Ð»ÑĮÐ½Ñĸ": 6977,
      "ĠÐºÐ°ÑĤÐµÐ³Ð¾ÑĢÑĸÑĹ": 6978,
      "ĠÐºÐ¾Ð½ÑĦÐµÑĢÐµÐ½ÑĨÑĸÑĹ": 6979,
      "ĠÐ¿Ð¾ÑĹÐ·Ð´": 6980,
      "tube": 6981,
      "ĠÐºÐ°Ð»ÑĸÑĦÐ¾ÑĢÐ½ÑĸÑĹ": 6982,
      "ĠÐ¿ÑĸÐ½Ð³Ð²Ñĸ": 6983,
      "ĠÑĤÐµÑħÐ½ÑĸÑĩ": 6984,
      "ĠÑģÐ¿ÑĢÐ¾Ð¼Ð¾Ð¶": 6985,
      "ĠÑģÑĨÐµÐ½Ñĥ": 6986,
      "ÑĩÐ¾ÑĤÐ¸ÑĢÐ¸": 6987,
      "el": 6988,
      "il": 6989,
      "ÐµÑĦÐµÐºÑĤÐ¸Ð²": 6990,
      "ÑģÐ¾ÑĤ": 6991,
      "Ð²ÐµÐ½": 6992,
      "Ð»ÑĸÐ·": 6993,
      "ĠÐ¿Ð¼Ñģ": 6994,
      "ĠÐ·Ð²Ñĸ": 6995,
      "ĠÐ·Ð°ÑĦ": 6996,
      "ĠÑģÐºÐ¸": 6997,
      "ĠÑıÐ¿Ð¾Ð½": 6998,
      "ÑģÑĤÐ°Ð¼Ð¸": 6999
    },
    "merges": [
      "Ġ Ð",
      "Ð ¾",
      "Ð °",
      "Ð ¸",
      "Ġ Ñ",
      "Ñ ĸ",
      "Ð ½",
      "Ð µ",
      "Ñ Ĥ",
      "Ð¾ Ð",
      "Ñ Ģ",
      "Ð° Ð",
      "Ñ ĥ",
      "Ñ ģ",
      "Ġ ,",
      "Ð ²",
      "Ð º",
      "Ð »",
      "ĠÐ ²",
      "Ñ Į",
      "Ñ ı",
      "Ð ¼",
      "ĠÐ ¿",
      "Ð ´",
      "ĠÐ ½",
      "Ġ .",
      "ĠÐ ·",
      "ĠÑ ģ",
      "Ð° Ñ",
      "ĠÐ ¼",
      "ÑĤ Ð¸",
      "ĠÐ ´",
      "ĠÑ Ĥ",
      "Ñ İ",
      "Ð ¿",
      "ĠÑ ı",
      "Ñ ĩ",
      "Ñ ħ",
      "Ð¾Ð ²",
      "Ð ¹",
      "Ñģ ÑĤ",
      "Ð½ Ð¸",
      "ĠÐ ±",
      "ĠÑ ĸ",
      "Ð½ Ñĸ",
      "Ð¾Ð ¼",
      "Ðµ ÑĢ",
      "Ð°Ð »",
      "ĠÐ º",
      "ĠÐ¿ ÑĢ",
      "ĠÑ Ģ",
      "Ñ Ī",
      "Ð¾Ð ³",
      "ÑĤ ÑĮ",
      "ĠÑ ī",
      "Ð ·",
      "ĠÑ Ĩ",
      "Ð¾ ÑĢ",
      "Ð ±",
      "Ñĸ Ð´",
      "Ðµ Ð½",
      "Ð°Ð ²",
      "Ð» Ð¸",
      "Ð¾Ð ±",
      "ĠÐ ¾",
      "Ð¾Ð »",
      "Ð ¶",
      "Ñ Ĩ",
      "ĠÑı Ðº",
      "ĠÑī Ð¾",
      "ĠÐ½ Ð°",
      "Ð¾Ð ´",
      "Ñģ Ñı",
      "ĠÐ½ Ðµ",
      "ĠÐ² Ð¸",
      "Ð° Ð½",
      "Ñ Ĺ",
      "Ñĸ Ð²",
      "Ð°Ð ¼",
      "Ð¾Ð³ Ð¾",
      "ĠÑ ĥ",
      "Ð½ Ð¾",
      "Ð° ÑĤÐ¸",
      "Ð½ Ñı",
      "Ñĸ Ð»",
      "Ð ³",
      "ĠÑ ĩ",
      "Ġ -",
      "Ñģ ÑĮ",
      "Ð¾Ð ¶",
      "ĠÐ °",
      "Ð°Ð º",
      "Ñ Ķ",
      "Ñĥ Ð²",
      "Ðº Ð¸",
      "Ð°Ñ Ķ",
      "ĠÑĨ Ðµ",
      "Ð¸ Ð¼",
      "ĠÐ »",
      "Ð¾Ð º",
      "Ð» Ñı",
      "Ð°Ð ´",
      "ÑĤ Ðµ",
      "Ñĸ Ð½",
      "ÑĸÐ» ÑĮ",
      "Ġ \"",
      "Ð¾Ð¼ Ñĥ",
      "Ð½ Ð°",
      "ĠÐ¼ Ð¸",
      "Ð¾Ð ·",
      "Ð¾ ÑĤ",
      "ĠÐ² ÑĸÐ´",
      "Ð° ÑĢ",
      "ĠÐ ³",
      "Ð°Ð ·",
      "ĠÑģ ÑĤ",
      "ĠÐ¿ÑĢ Ð¾",
      "Ð° Ñģ",
      "ÐµÑĢ Ðµ",
      "Ð°Ð ¹",
      "ĠÐ± Ñĥ",
      "ĠÐ´ Ð¾",
      "Ð¸ Ð²",
      "Ð¼ Ð¾",
      "Ð¸ ÑĤÐ¸",
      "Ð°Ñ İ",
      "Ð² Ð¾",
      "Ð° ÑĤ",
      "Ðº Ñĥ",
      "Ð» Ðµ",
      "Ð¸ Ñħ",
      "Ð½ Ñĥ",
      "Ð¼ Ð¸",
      "Ð² Ñĸ",
      "ĠÐ ¶",
      "ĠÑĤ Ð°Ðº",
      "ÑĤÑĮ ÑģÑı",
      "r b",
      "ĠÑģ Ð¿",
      "ĠÐ¿ Ð¾",
      "ĠÑ ħ",
      "Ð°Ð» Ð¸",
      "Ñĸ Ð¹",
      "Ð´ Ð¸",
      "Ð¼ Ñĸ",
      "Ð°Ñ ĩ",
      "Ð°Ð ³",
      "Ð¸ ÑĤ",
      "Ñ ī",
      "ĠÐ¼ Ð¾Ð¶",
      "ĠÐ² Ð¾",
      "Ð¾ Ð½",
      "Ð¸ Ð¹",
      "ÑĨ Ñĸ",
      "Ð°Ñ ħ",
      "ĠÑĢ Ð¾Ð·",
      "ĠÑ Ĺ",
      "ÑĪ Ðµ",
      "ĠÑĸ Ð½",
      "Ð½ Ðµ",
      "ÐµÐ½ Ð½Ñı",
      "Ð¶ Ðµ",
      "ĠÑĤ Ðµ",
      "ĠÐ» Ñİ",
      "Ð°Ð ¶",
      "Ð°Ñ Ĩ",
      "Ð°Ñ Ī",
      "Ñĩ Ð¸",
      "Ð°Ð ¿",
      "ĠÑ Ķ",
      "Ð² Ð¸",
      "ĠÑĤ Ð°",
      "Ð°Ð½ Ð½Ñı",
      "Ġ '",
      "Ð¾Ð» Ð¸",
      "Ð´ Ðµ",
      "ÑĢ Ñĸ",
      "Ð» Ð°",
      "Ñģ Ñĸ",
      "ÑĢ Ð¸",
      "Ġ :",
      "Ð» Ð¾",
      "Ðº Ð°",
      "ÑĨ Ðµ",
      "ÑĢ Ñĥ",
      "Ġ ?",
      "Ñ Ħ",
      "Ð¾Ð ¿",
      "ĠÐ· Ð½",
      "ĠÐ¿ÑĢ Ð¸",
      "Ð½Ð¸ Ð¹",
      "Ð°Ð» ÑĮ",
      "Ð¾ Ñİ",
      "Ñĥ Ð¼",
      "ĠÑ Ī",
      "ĠÐ¼ Ñĸ",
      "Ð½Ð¸ Ñħ",
      "ÑģÑĤ ÑĮ",
      "ĠÑ Ħ",
      "ÑĢ Ðµ",
      "ĠÐ ¹",
      "Ñĸ Ðº",
      "ĠÐ· Ð°",
      "ÑĤ Ñĥ",
      "Ð°Ð¼ Ð¸",
      "ĠÑĢ Ðµ",
      "ĠÐ¿ ÐµÑĢÐµ",
      "ĠÐ²Ð¾ Ð½Ð¸",
      "ĠÐ´ Ðµ",
      "ÑĢ Ð°Ð²",
      "ÑĥÐ² Ð°ÑĤÐ¸",
      "ĠÐ´ Ð»Ñı",
      "ÑĤ ÑĢ",
      "Ð» ÑĮ",
      "ĠÐ µ",
      "Ð¾ Ñĩ",
      "Ñĸ ÑĹ",
      "Ð° Ð½Ñĸ",
      "Ð¾ ÑĹ",
      "ĠÑģ Ðº",
      "Ñī Ð¾",
      "Ð¾ Ñģ",
      "Ñĸ Ð·",
      "ĠÐ½Ð° Ñģ",
      "ĠÑĩ Ð¸",
      "r rb",
      "l rb",
      "ĠÐ¼ Ðµ",
      "ÑĢ Ð¾Ð±",
      "Ð¾ÑĢ Ð¸",
      "Ð°Ð ±",
      "Ð°Ð» Ð°",
      "ĠÐ¿ Ð¾Ð²",
      "Ñĥ ÑĤ",
      "ÑģÑĤ Ñĸ",
      "Ð» Ñĸ",
      "Ð°Ñİ ÑĤÑĮ",
      "Ð°Ð» Ðµ",
      "Ñģ Ðµ",
      "ĠÐ¿ ÑĸÐ´",
      "Ñĥ ÑĶ",
      "Ð½ Ð¾Ð³Ð¾",
      "ĠÑĢ Ð¾Ð±",
      "ĠÐº Ð¾Ð»Ð¸",
      "ĠÑıÐº Ñĸ",
      "ÑĤ Ñı",
      "Ð¾Ð² Ñĸ",
      "ĠÑģ Ð²Ñĸ",
      "ĠÐ¾ Ð´",
      "ÑĤ Ñĸ",
      "Ð» Ð°Ð´",
      "ĠÐ¼Ð¾Ð¶ Ðµ",
      "ÑĢ Ð¾",
      "ĠÐ½ Ð°ÑĪ",
      "ĠÑī Ð¾Ð±",
      "ÑĤ Ð¾",
      "ĠÑĹ Ñħ",
      "ĠÑĩ Ð°Ñģ",
      "Ñİ ÑĤÑĮ",
      "ĠÐ½ Ñĸ",
      "Ð¾Ð´ Ð¸",
      "ĠÑĤ Ð¾Ð¼Ñĥ",
      "ĠÐ¾ Ð±",
      "Ñģ ÑĤÐ¸",
      "Ð´ Ñĸ",
      "Ð» Ñİ",
      "Ð² Ð¾ÑĢ",
      "ĠÑģ Ð°Ð¼",
      "ÑĢ Ð°Ñ",
      "ĠÐ° Ð»Ðµ",
      "Ñĥ ÑĤÑĮ",
      "Ñı Ðº",
      "ĠÐ± ÑĸÐ»ÑĮ",
      "ĠÐ¼ ÐµÐ½",
      "ĠÐ² ÑĸÐ½",
      "ĠÐ¿ Ð¾ÑĤ",
      "ĠÐ½ Ð°Ð²",
      "Ðµ Ð·",
      "Ð°ÑĶ Ð¼Ð¾",
      "Ñģ Ð¿",
      "Ñĥ Ð¿",
      "ĠÐ¿ Ð¾Ð´",
      "ĠÑĢ Ð¾Ðº",
      "ĠÐ´ Ñĥ",
      "Ġ 1",
      "Ðµ Ðº",
      "Ð½Ð¸ Ð¼",
      "Ñĥ Ð´",
      "ĠÑģ Ð²Ð¾",
      "ĠÑģ Ð¸",
      "ÑĮ Ð¾Ð³Ð¾",
      "Ðº Ð¾",
      "ĠÐ² Ðµ",
      "ĠÑĨ Ñĸ",
      "Ð¼ Ñĥ",
      "ĠÑĸÐ½ ÑĪ",
      "Ñģ Ð¸",
      "ĠÐ¾ Ð¿",
      "ĠÐ² ÑģÐµ",
      "ĠÐ±Ñĥ Ð»Ð¾",
      "Ð°ÑĶ ÑĤÑĮÑģÑı",
      "ÑĸÐ»ÑĮ ÐºÐ¸",
      "Ñĸ ÑĢ",
      "Ð¸Ð¼ Ð¸",
      "ĠÐ´Ñĥ Ð¶Ðµ",
      "Ñģ Ð»",
      "ĠÐ½ Ð°Ð¹",
      "Ñİ Ð²",
      "Ñĸ ÑĤ",
      "ĠÐ¹ Ð¾Ð³Ð¾",
      "Ñĸ Ñı",
      "ĠÐ¼ÐµÐ½ Ðµ",
      "ĠÐ½ Ð°Ð¼",
      "ÐµÐ½ ÑĮ",
      "ĠÐ»Ñİ Ð´Ð¸",
      "ÑģÑĤ Ð¾",
      "ĠÐ· ÑĢÐ¾Ð±",
      "ĠÐ· Ð°Ð¿",
      "ĠÑıÐº ÑīÐ¾",
      "ĠÐ²Ð¸ Ðº",
      "ĠÑģ Ð¼Ñĸ",
      "ÐµÐ½ ÑĤ",
      "Ð½Ð¾ Ñİ",
      "ĠÐ½ Ð°Ð´",
      "Ð´Ðµ Ð¹",
      "Ð¸ Ð»Ð¸",
      "Ð½Ð¸ Ðº",
      "Ð¸ Ð½",
      "ĠÐ¶ Ð¸ÑĤ",
      "ĠÐ¾ Ñģ",
      "Ð»Ð¸ Ð²Ð¾",
      "Ñĸ Ñĩ",
      "Ð² Ð°",
      "ĠÐ¿ Ð¾Ðº",
      "ĠÑĤ Ð¸",
      "ĠÐº Ð¾Ð¼",
      "0 0",
      "Ð¼ Ðµ",
      "ĠÐ»Ñİ Ð´ÐµÐ¹",
      "ÑģÑĮ Ðº",
      "Ð½Ð¾ ÑĹ",
      "ÑģÑĤ Ðµ",
      "ĠÐ¿Ð¾ Ñĩ",
      "Ð°Ð» Ð¾",
      "ĠÐ´ Ñĸ",
      "Ð°Ð³ Ð°ÑĤ",
      "ĠÐ´ ÑĥÐ¼",
      "ĠÐ² ÑģÑĸ",
      "ÑĨ Ñı",
      "Ñĩ Ñĸ",
      "ĠÐ· Ð¼",
      "ĠÑģ Ð»",
      "ĠÑģÐ¼Ñĸ Ñħ",
      "ĠÐ· Ð²",
      "Ñĥ Ðº",
      "Ð¾Ð´ Ñĸ",
      "ĠÑħ Ð¾Ñĩ",
      "Ð¿ Ð¾Ð²",
      "Ð¾ÑĢÐ¸ ÑģÑĤ",
      "Ð¿ ÐµÑĢ",
      "ĠÐ¿ Ð¾Ð»",
      "Ð»Ð¸ Ð²",
      "Ð¾Ð² Ð¸",
      "ĠÐ° Ð±",
      "Ð°ÑĶ ÑĤÐµ",
      "Ð¾Ð² Ñĥ",
      "Ð¸Ð¼ Ð¾",
      "ĠÑĸ Ð·",
      "ĠÑĤ ÑĢ",
      "Ð· Ð½",
      "Ð°Ð» Ñĸ",
      "Ð°Ð³Ð°ÑĤ Ð¾",
      "ĠÐ²Ð¾ Ð½Ð°",
      "ÑĥÐ² Ð°Ð½Ð½Ñı",
      "ÑĤ ÐµÑĢ",
      "ĠÑĤ Ð¾Ð³Ð¾",
      "Ð½Ñĸ ÑģÑĤÑĮ",
      "ÑĤÑĢ Ð¸Ð¼",
      "ĠÐ± Ð°Ñĩ",
      "ĠÑī Ðµ",
      "ĠÐ¼Ðµ Ð½Ñĸ",
      "Ð¸ Ñģ",
      "ĠÐ² Ð°Ð¼",
      "ĠÐ¿ ÐµÑĢ",
      "ĠÐ· Ð°Ð²",
      "Ñĸ Ñİ",
      "ĠÐº ÑĢÐ°Ñ",
      "ĠÑĢÐ¾Ðº ÑĸÐ²",
      "Ð» Ð°Ñģ",
      "ĠÐ¿ÑĢ Ð°ÑĨ",
      "ĠÑıÐº Ð¸Ð¹",
      "ÑĢÐ°Ð² Ð´Ñĸ",
      "Ð² ÑĸÐ´",
      "ĠÐ» Ð¸",
      "Ð½Ð¸ Ð¼Ð¸",
      "Ð½Ñĸ Ð¹",
      "Ñĸ Ñģ",
      "ĠÑģÐº Ð°Ð·",
      "Ð± Ð¸",
      "Ñĸ ÑģÑĤÑĮ",
      "ĠÐ± ÑĥÐ²",
      "Ð´ Ñĥ",
      "Ð¾Ð» Ð¾Ð³",
      "Ñĥ Ñħ",
      "Ð¾Ð² Ð°",
      "ĠÐ¶Ð¸ÑĤ ÑĤÑı",
      "Ð½Ñĸ Ð²",
      "Ñĸ Ð¼",
      "ĠÑĨ ÑĮÐ¾Ð³Ð¾",
      "ĠÐ½ Ð°Ð¿",
      "ĠÐ· Ð´",
      "Ġ 2",
      "Ñĩ Ðµ",
      "ĠÑĹ ÑĹ",
      "ÑĥÐ² Ð°Ð»Ð¸",
      "ĠÐ± ÐµÐ·",
      "ĠÐ²Ðµ Ð»Ð¸",
      "ÐµÑĢÐµ Ð´",
      "Ñĸ ÑĤÑĮ",
      "Ðº ÑĸÐ²",
      "ÑĮ Ð¾Ð¼Ñĥ",
      "ĠÑģ Ðµ",
      "ĠÑģÐ²Ñĸ ÑĤ",
      "ĠÐº Ð¾Ð½",
      "ÑĪ Ð¸",
      "ĠÐ´ Ð¾Ð¿",
      "Ñĥ ÑĢ",
      "Ðº Ð»Ð°Ð´",
      "ĠÐ±ÑĸÐ»ÑĮ ÑĪÐµ",
      "Ð°ÑĢ Ð°Ð·",
      "ÑģÑĤ Ð¾ÑĢ",
      "ĠÐ±Ñĥ Ð´",
      "ĠÐµ Ðº",
      "Ðµ Ð²",
      "Ð´Ð¸ Ð½",
      "ĠÑĤ Ð¾",
      "Ñİ ÑĶ",
      "ĠÐ²Ð¸Ðº Ð¾ÑĢÐ¸ÑģÑĤ",
      "Ð½ Ð¾Ð¼Ñĥ",
      "ĠÑı Ð·",
      "Ð½Ð¾ ÑģÑĤÑĸ",
      "ĠÐ½ Ð°Ð·",
      "ÑģÑĤ ÑĥÐ¿",
      "ĠÑģÑĤ Ð²Ð¾ÑĢ",
      "Ð²Ð¾ Ð½Ð¸",
      "Ð¾Ð ¹",
      "ĠÐ¿ÑĢ Ð¾Ð±",
      "Ð²Ð¸ Ñĩ",
      "ĠÐ¿ Ð¾Ð±",
      "ĠÐ· Ð°Ñħ",
      "ĠÑĤÐ°Ðº Ð¾Ð¶",
      "ĠÐ±Ñĥ ÑĤÐ¸",
      "ÐµÑĢÐµ Ð·",
      "ĠÐ±ÑĸÐ»ÑĮ ÑĪ",
      "ĠÐ°Ð± Ð¾",
      "ÑĤ Ð°Ðº",
      "Ð¾ÑĢ Ð¼",
      "Ñı Ð²",
      "Ð´ Ñı",
      "Ñĥ Ð»ÑĮ",
      "ĠÑıÐº Ð°",
      "ĠÐ±Ñĥ Ð»Ð°",
      "ÑģÑĤ ÑĢ",
      "Ñĸ ÑĪ",
      "ĠÐ¼ Ð¾",
      "Ðµ Ð´",
      "ĠÐ· Ð¼Ñĸ",
      "ĠÐ¿ÑĢÐ¾ ÑģÑĤÐ¾",
      "ĠÐ± Ð°Ð³Ð°ÑĤÐ¾",
      "ĠÐ¾ ÑĤÑĢÐ¸Ð¼",
      "ĠÐº ÑĸÐ»ÑĮ",
      "ÑĶ Ñİ",
      "Ð² Ð°Ð¶",
      "ĠÐ´Ð¾Ð¿ Ð¾Ð¼",
      "ĠÑĢ Ð°Ð·",
      "ĠÑģÐ²Ð¾ ÑĹ",
      "ĠÐ² Ð°Ñģ",
      "ĠÐ¿ÑĢ Ð°Ð²",
      "ĠÐ¼Ñĸ Ñģ",
      "ĠÐºÐ¾Ð¼ Ð¿",
      "ĠÐº Ð¾Ð¶",
      "ĠÐ² Ð¿",
      "ĠÐ² Ð°Ð¶",
      "ÑĢÑĸ Ð±",
      "Ð° ÑĤÑĮ",
      "Ð¿Ð¾Ð² ÑĸÐ´",
      "Ðº Ð¾Ð»Ð¸",
      "Ð¼ Ð°",
      "ĠÐ´ Ð¾Ð²",
      "Ð»Ðµ Ñģ",
      "Ð± Ðµ",
      "ĠÐ¿ÑĢÐ¾Ð± Ð»Ðµ",
      "ĠÐ² Ð°ÑĪ",
      "ĠÐ±Ñĥ Ð»Ð¸",
      "Ð°ÑĨ ÑĸÑĹ",
      "ĠÐ»Ð¸ ÑĪÐµ",
      "ĠÐ¼ Ñĥ",
      "ĠÑĨÐµ Ð¹",
      "ÑĢ Ð¾Ð·",
      "ÑģÑĤ Ð°Ð½",
      "ÑĤ Ð°",
      "Ð² ÑĸÐ½",
      "ĠÐº ÑĢ",
      "ĠÑĢ ÑĸÐ·",
      "Ð²Ð¸Ñĩ Ð°Ð¹",
      "Ð¾ ÑĤÐ¸",
      "ĠÐ· Ñĸ",
      "ĠÐ¿ Ð¾Ð³",
      "ĠÑĩ ÐµÑĢÐµÐ·",
      "ÑĶ ÑĹ",
      "ĠÐ½ Ð¸Ñħ",
      "ĠÐ¼Ð¾Ð¶ Ð½Ð°",
      "Ð»Ñı Ð´",
      "ÑĤÐ¸ Ð²",
      "ĠÐ²Ð¸ Ð¿",
      "ĠÑĤ ÑĥÑĤ",
      "ÐµÑĢ Ñĸ",
      "Ñĥ Ð¼Ñĸ",
      "ÑĤ Ð¾ÑĢ",
      "Ð¶ ÐµÐ½Ð½Ñı",
      "Ð± ÑĸÐ»ÑĮ",
      "ĠÑģÐ°Ð¼ Ðµ",
      "Ñĥ Ñİ",
      "Ð»Ð¸ Ð²Ñĸ",
      "ĠÐ¼ Ð°Ð»",
      "Ð¸ ÑĤÐµ",
      "ĠÑīÐ¾ ÑģÑĮ",
      "ÑĨ ÑĮ",
      "Ð·Ð½ Ð°Ñĩ",
      "Ð»ÐµÑģ ÐºÐ¸",
      "ÑģÐ» ÑĸÐ´",
      "ÑĢ Ñı",
      "ĠÐ½Ð°Ð² ÑĸÑĤÑĮ",
      "ĠÐ²Ð¸ Ð³",
      "ĠÐ¾Ð¿ Ð»ÐµÑģÐºÐ¸",
      "ÐºÐ¸ Ð¹",
      "Ð¼ ÐµÑĢ",
      "Ð¾Ð± Ñĸ",
      "ĠÐ² Ð¶Ðµ",
      "Ñı Ð³",
      "Ð¾ Ñħ",
      "ÑĢ Ð¾Ð´",
      "ĠÐ³ Ð¾Ð»",
      "ÑĩÐ¸ Ð½",
      "ĠÐº Ð¾Ð»",
      "ĠÐ¾ ÑģÑĮ",
      "Ð½Ñĥ ÑĤÐ¸",
      "ÑİÐ² Ð°ÑĤÐ¸",
      "ÑĢ Ð°Ð·",
      "ĠÑĤ ÑĸÐ»ÑĮÐºÐ¸",
      "ĠÐ¶ ÑĸÐ½",
      "ĠÑħ ÑĤÐ¾",
      "Ñĥ ÑİÑĤÑĮ",
      "Ð¾Ð² Ð¾",
      "ĠÑĸ ÑģÑĤÐ¾ÑĢ",
      "ĠÐ·ÑĢÐ¾Ð± Ð¸ÑĤÐ¸",
      "ĠÐ´ Ð¸Ð²",
      "ĠÐ³ ÑĢ",
      "Ð» ÐµÐ½Ð½Ñı",
      "Ðº ÑĢ",
      "ÑĤÐ¸ Ñĩ",
      "ĠÐ±Ñĥ Ð´Ðµ",
      "ĠÑģ Ñĥ",
      "ĠÐ´ Ð¾Ð±",
      "ĠÐºÑĢÐ°Ñ Ĺ",
      "ĠÐ¿Ð¾ÑĤ ÑĢÑĸÐ±",
      "ÑĥÐ² Ð°Ð²",
      "ĠÑģÐ¿ ÑĢÐ°Ð²",
      "ĠÐ½Ñĸ Ð¶",
      "ĠÐ¼ Ð°Ð¹",
      "ÑĤ Ð¾Ð¼",
      "Ð· Ð¸",
      "Ð² Ðµ",
      "ĠÐ¾ Ð´Ð¸Ð½",
      "Ð¾Ð´ Ð½Ñĸ",
      "Ð°Ñİ ÑĩÐ¸",
      "ĠÐº Ð¾ÑĢ",
      "Ð¾ ÑģÑĮ",
      "ÐºÐ¸ Ñħ",
      "Ð½ Ð¾Ð²",
      "ĠÐ¿ Ð»",
      "ĠÐ¿ Ð¾ÑĢ",
      "ĠÐ· Ð°Ðº",
      "Ð²Ð¸ Ð´",
      "Ñĥ Ð½",
      "Ð½Ð¸ ÑĤÐ¸",
      "Ð°Ñİ ÑĤÑĮÑģÑı",
      "Ñħ Ð½",
      "ÑģÑĤ Ð°Ð²",
      "ÑĢ Ð°Ð¶",
      "ĠÐ¿ Ð¾Ð¼",
      "ĠÐ² Ð·",
      "ĠÐ¼Ð¾Ð¶Ðµ Ð¼Ð¾",
      "Ð¸ ÑĤÑĮ",
      "Ð² Ð¾Ð»",
      "ĠÐ¿Ð¾Ð± Ð°Ñĩ",
      "Ð°Ð½ Ðµ",
      "Ð¾Ð² Ð¾ÑĢ",
      "ĠÐ¼ Ð°ÑĶ",
      "Ð½ ÑĮ",
      "Ñģ Ð½Ð¾",
      "ÑĤ ÑĸÐ²",
      "ĠÑĨ ÑĮÐ¾Ð¼Ñĥ",
      "ÐºÑĥ Ñİ",
      "ĠÑģÐ¸ ÑģÑĤÐµ",
      "ĠÐ¿ÐµÑĢÐµ Ð´",
      "ĠÐ´ ÑĢÑĥ",
      "ÑĪ Ñĸ",
      "ĠÐ² Ð»Ð°Ñģ",
      "ĠÐ· Ð°ÑĢÐ°Ð·",
      "ÑĸÐ½ Ð½Ñı",
      "Ðµ Ð¼",
      "ĠÑĨ Ñİ",
      "ĠÐ¿ÑĢ Ð¾Ð´",
      "ĠÐ± Ð¾",
      "Ð°ÑĤÐ¸ ÑģÑı",
      "Ñģ Ðº",
      "ĠÐ²ÑĸÐ´ Ñĩ",
      "ÑıÐº ÑīÐ¾",
      "Ð½ Ð¾Ð¼",
      "ĠÐ½ Ð¾Ð²",
      "ĠÑģÐµ Ð±Ðµ",
      "Ð¾Ð³ Ð¾Ð´Ð½Ñĸ",
      "ĠÑĸ Ð´Ðµ",
      "Ð±ÑĸÐ»ÑĮ ÑĪ",
      "Ð¾ÑĢ Ð¾",
      "ĠÑģÐº Ð»Ð°Ð´",
      "ÑĦ Ð¾ÑĢÐ¼",
      "Ð¾Ð¶ Ðµ",
      "ĠÑģ Ñħ",
      "ĠÑĥ ÑģÑĸ",
      "ĠÐ»Ñİ Ð´",
      "ĠÑ İ",
      "ĠÐ½Ð°Ñģ Ð¿",
      "ĠÐ´Ð¾ ÑģÐ»ÑĸÐ´",
      "ĠÑĩ Ð¾Ð¼Ñĥ",
      "ĠÐ²ÑĸÐ´ Ð±",
      "ÑĥÑĶ Ð¼Ð¾",
      "ÑĨ ÑĸÐ²",
      "ĠÐ½Ð°ÑģÐ¿ ÑĢÐ°Ð²Ð´Ñĸ",
      "Ð¿ Ðµ",
      "ĠÐ¼Ð¾Ð¶ Ð»Ð¸Ð²Ð¾",
      "ÑģÑĤ Ñİ",
      "ĠÐ¾ ÑĢ",
      "ĠÐ¿ÑĢ Ð¾Ð³",
      "ĠÐ¼ ÑĸÐ»ÑĮ",
      "ĠÐ· Ð°Ð±",
      "ĠÑĸ Ñģ",
      "Ð· ÑĮ",
      "Ð¸ÑĤ Ð°Ð½Ð½Ñı",
      "ĠÐ¿Ð¾Ðº Ð°Ð·",
      "Ð¾ ÑĨÑĸ",
      "ĠÐ¼Ð¾Ð¶ ÑĥÑĤÑĮ",
      "ÑĨÑĸ ÑĹ",
      "ÑħÐ½ Ð¾Ð»Ð¾Ð³",
      "ĠÑĨ Ð¸Ñħ",
      "ĠÐ²ÑĸÐ´ Ð¿Ð¾Ð²ÑĸÐ´",
      "ÑĢÐµ Ð±",
      "ĠÑģÐ¿ Ð¾",
      "ĠÑĤ Ð°Ð¼",
      "ÑĤ Ð¾Ð¼Ñĥ",
      "ĠÐ·Ð½ Ð°Ð¹",
      "ĠÑĩÐ°Ñģ ÑĤÐ¸",
      "ĠÐ¿Ð¾Ð² ÐµÑĢ",
      "ĠÐ¿ÑĢ Ð¾Ð²",
      "ĠÑħ Ð¾ÑĤ",
      "ĠÐ¼ Ð¾Ð³",
      "Ñģ Ñĥ",
      "Ðº Ñĸ",
      "Ðº Ð¾Ð¼",
      "ĠÐ¼Ð¾Ð¶Ðµ ÑĤÐµ",
      "ĠÑĢÐ¾Ð± Ð¾ÑĤ",
      "Ð¸ Ð»Ð°",
      "ÑĪ ÑĤ",
      "ĠÐ· Ð±",
      "Ðº Ð¾Ð»",
      "Ð´ Ð¶",
      "ÑĢÑĸ ÑĪ",
      "ĠÑĩ Ð¾Ð»",
      "ĠÐ¼Ñĸ Ð¶",
      "ĠÑĤ Ð¾Ð´Ñĸ",
      "ĠÐº Ð°ÑĢ",
      "ĠÐ¿ÑĢ Ð¸Ð¹",
      "ĠÐ· ÑĢÐ¾Ð·",
      "ĠÐ» Ðµ",
      "ĠÐ¿ÐµÑĢ ÑĪ",
      "Ñĸ Ð±",
      "Ð½ Ñİ",
      "ĠÑģ ÑĮ",
      "ÑĤ Ð¾Ð¶",
      "ĠÑıÐº Ñĥ",
      "ĠÑĢÐ¾Ð· Ð¿",
      "ĠÐ° Ð²",
      "Ðº Ð¾Ñİ",
      "ĠÑĤÐµ ÑħÐ½Ð¾Ð»Ð¾Ð³",
      "Ð¾Ð´ Ñĥ",
      "Ð»Ñı ÑĶ",
      "ĠÐ¾Ñģ Ð¾Ð±",
      "Ð¼ ÐµÐ½",
      "ĠÐ²Ð¸ Ð´",
      "Ðµ ÑĤ",
      "ĠÑģ Ð¾Ð±Ñĸ",
      "ĠÐº Ð°Ð¶",
      "ĠÑĢÐµ ÑĩÑĸ",
      "ÑĨ ÑĸÐ¹",
      "ĠÑĢÐ¾Ð· Ð²",
      "ÑĸÐº Ð°Ð²",
      "ĠÐ¿ Ð°ÑĢ",
      "ĠÐ¿ ÑĸÑģ",
      "ĠÐ¼ Ð¾Ð·",
      "Ð¾Ð½ Ð¾Ð¼",
      "Ð½Ñĸ ÑĪ",
      "ĠÐ¼ Ð¾ÑĹ",
      "ĠÐ² Ð²Ð°Ð¶",
      "ĠÐ¿ Ð¾Ð·",
      "Ð°Ð¹ ÑĤÐµ",
      "Ð½Ñĥ ÑĶ",
      "Ð³ Ð°Ð½Ñĸ",
      "Ñĥ Ñĩ",
      "ĠÐ´ ÑĸÐ¹",
      "Ð¾ÑĤ Ð¶Ðµ",
      "ĠÐ±ÑĥÐ´ ÑĮ",
      "ÑĸÐ» Ð°",
      "ĠÐ½Ðµ Ð¼",
      "ĠÐ¿Ð¾Ð» Ñĸ",
      "ĠÑģ ÐµÑĢÐµÐ´",
      "ĠÑħÐ¾Ñĩ Ñĥ",
      "Ñı ÑĤÑĮ",
      "ĠÐ¶ Ð¸Ð²",
      "Ð² ÐµÑĢ",
      "ĠÑĢ ÑĸÐ²",
      "ĠÑĨ Ñı",
      "ĠÐ° Ð½",
      "ĠÐ·Ð½ Ð°Ñĩ",
      "Ð°ÑĨ Ñĸ",
      "ĠÐ¼ Ð¾Ð»",
      "ĠÑĸÐ½ ÑĦÐ¾ÑĢÐ¼",
      "Ò ĳ",
      "ĠÐ· Ð°Ð³",
      "ĠÑĩ ÑĥÐ´",
      "ĠÐ¼ Ð°ÑİÑĤÑĮ",
      "ĠÑģÐºÐ°Ð· Ð°Ð²",
      "ĠÐ¿Ð¾Ð² Ð¸Ð½",
      "ĠÑģ Ð²",
      "Ñĩ Ð°Ñģ",
      "ĠÐ²Ð¸ Ð±",
      "ÑĢ Ð°",
      "ĠÑģÑĮ Ð¾Ð³Ð¾Ð´Ð½Ñĸ",
      "ĠÑģÐ²Ñĸ ÑĤÑĸ",
      "ĠÑĢÐ¾Ð± Ð¸ÑĤÐ¸",
      "ĠÐº Ð»Ñĸ",
      "ÑĢÐ°Ñ Ħ",
      "ĠÑĥ Ð²",
      "ĠÑģÐ²Ñĸ ÑĤÑĥ",
      "ĠÐ½Ð°Ð² Ñĩ",
      "ÑĤ Ð°ÑĤ",
      "ĠÑĤ Ð¾Ð¹",
      "Ð»Ðµ Ðº",
      "Ð» ÐµÐ½",
      "ÑĢ Ð°Ð¼",
      "Ðº Ð¾Ð²",
      "ÑĤÐµ Ð¹",
      "ĠÐ½ ÑĸÐº",
      "Ðµ Ð¹",
      "ĠÐ² Ñĸ",
      "Ġ 3",
      "Ð¸ Ð»ÑĮ",
      "ĠÑĤ Ð¸Ð¼",
      "Ð¸ Ðº",
      "ĠÑĤ Ñĸ",
      "ĠÑĸÐ½ÑĪ Ð¸Ñħ",
      "ĠÐ¿ÑĢÐ¾ ÐµÐº",
      "ĠÑĢ ÑĥÑħ",
      "ĠÐ´ Ð¶",
      "ĠÑģÐ¿ ÑĸÐ²",
      "ĠÐ¿ Ð¾Ð¿",
      "Ð²ÑĸÐ´ Ð¾Ð¼",
      "ĠÐ· Ð°Ñģ",
      "ĠÐ³ ÑĢÑĥ",
      "ĠÐ¼ÑĸÑģ ÑĨÐµ",
      "Ð°Ð» ÑĸÐ·",
      "ĠÐºÑĢÐ°Ñ ī",
      "ĠÐ½Ð°Ð· Ð¸Ð²",
      "ĠÐ½Ðµ Ð·",
      "Ð°Ð½ Ð°",
      "Ð¸ Ð½Ð¸",
      "Ð½ ÐµÑĢ",
      "ĠÐ» ÑĸÐº",
      "ĠÑĤÐµ Ð¿ÐµÑĢ",
      "ĠÐ²ÑĸÐ´Ð± ÑĥÐ²",
      "Ġ !",
      "ĠÐ· Ð°Ð»Ð¸",
      "Ñħ ÑĸÐ´",
      "ĠÑĨ ÑĸÐºÐ°Ð²",
      "ÑĥÑĶ ÑĤÑĮÑģÑı",
      "ĠÐ½Ð°Ð¼ Ð°Ð³",
      "Ð¸ ÑĢ",
      "ĠÑıÐº Ð¸Ñħ",
      "ĠÑģ ÐµÑĢ",
      "ĠÐ± ÑĢ",
      "ĠÑĪ Ð²Ð¸Ð´",
      "ĠÐ· Ð°Ð¹",
      "ĠÑħÐ¾Ñĩ Ðµ",
      "Ñħ Ð¸",
      "Ð°ÑĨ ÑĸÑİ",
      "ĠÐ¿Ð¾ÑĤ ÑĸÐ¼",
      "Ð± ÑĥÑĤ",
      "Ð°Ð½ Ð¾",
      "ÑĪ Ð°",
      "Ð°Ð½ Ð´",
      "Ð½Ñĸ Ð¼",
      "ĠÐ²Ð¸ÐºÐ¾ÑĢÐ¸ÑģÑĤ Ð¾Ð²",
      "ĠÐ¿ÑĢ Ð¸Ð²",
      "Ñĥ Ð±",
      "Ð²Ñĸ ÑĤ",
      "Ð°ÑĨ ÑĸÑı",
      "ĠÐ·Ð¼ ÑĸÐ½",
      "Ð²Ð¸ÑĩÐ°Ð¹ Ð½Ð¾",
      "ĠÐº Ð½Ð¸",
      "ĠÐ³ Ð¾Ð²Ð¾ÑĢ",
      "ĠÐ²Ð¸Ð¿ Ð°Ð´",
      "ĠÐ· Ð°Ð´",
      "ĠÑĹ Ð¼",
      "ĠÐ± Ð¸",
      "ÑĸÐ· Ð½",
      "ĠÐ²Ð¸Ð³ Ð»ÑıÐ´",
      "ĠÐ² Ð´",
      "Ġ1 9",
      "ĠÑĤ ÑĢÐ¸",
      "ĠÐ² ÑģÑĮ",
      "ĠÐ½ Ð°Ð±",
      "ÑĥÐ² Ð°Ð»Ð°",
      "ĠÑģÑĤ Ð°Ð²",
      "ĠÐ¾ÑĢ Ð³Ð°Ð½Ñĸ",
      "Ð°Ð½ ÑĤ",
      "Ð¾ÑĢ Ñĥ",
      "ĠÐ¿Ð¾ÑĤÑĢÑĸÐ± Ð½Ð¾",
      "ĠÐ½Ðµ Ð¹",
      "ĠÑĩÐ¸ Ð½Ð¾Ð¼",
      "ĠÐ¼ Ð°ÑĤ",
      "ÑĨ ÑĤ",
      "ĠÐ» Ñĸ",
      "ĠÐ²Ð¸ Ñģ",
      "ĠÐ¿ÑĸÑģ Ð»Ñı",
      "Ð¾Ð²Ñĸ ÑĢ",
      "Ð²Ð¾ Ð½Ð°",
      "ĠÑĢÐ¾Ð· ÑĥÐ¼",
      "Ġ 5",
      "Ð°ÑĢ ÑĸÐ²",
      "ĠÐ´Ð¾Ð± ÑĢÐµ",
      "ĠÐ²Ð¸ ÑĢÑĸÑĪ",
      "ĠÑĦ Ð¾ÑĤ",
      "Ðº Ð°Ð¼Ð¸",
      "ĠÐ¿ ÐµÐ²",
      "Ð¸ÑĤÐ¸ ÑģÑı",
      "ĠÐ·Ð¼Ñĸ Ð½Ð¸",
      "ĠÐ´ Ð¾Ð»",
      "Ð³ Ñĥ",
      "Ð´ Ð¾",
      "Ñħ ÑĤÐ¾",
      "ĠÐ° Ðº",
      "ĠÐ´ Ð¸",
      "Ð° ÑģÑĤ",
      "ĠÑĨ ÑĸÐ»",
      "Ð°Ð»Ðµ Ð¶",
      "ĠÐºÑĸÐ»ÑĮ ÐºÐ°",
      "ĠÐ½ÑĸÐº Ð¾Ð»Ð¸",
      "Ð¿ ÑĢ",
      "ĠÐ¼ÑĸÐ»ÑĮ Ð¹",
      "Ñĥ Ð»Ð¸",
      "ĠÐ²ÑĸÐ´ ÐºÑĢ",
      "ĠÑģÑĤ Ð°ÑĢ",
      "ĠÐ²ÑĸÐ´ Ñģ",
      "ÑģÑĤ Ð²Ð°",
      "ĠÐ¾ ÑĤ",
      "Ñĩ Ð¾Ð³Ð¾",
      "ĠÐ± Ñĸ",
      "ĠÑĤ Ð¾Ñĩ",
      "ĠÑĤÐ°Ðº Ñĸ",
      "ĠÐ· Ð³",
      "Ñİ ÑĩÐ¸",
      "Ð¼ Ð¾Ð²",
      "Ð» Ð¾Ð¿",
      "Ð¿ Ñĥ",
      "ĠÐ° ÑĢ",
      "ĠÐ¼Ð°Ð» ÐµÐ½ÑĮ",
      "ĠÐ± Ð»Ð¸",
      "ÑģÑĤ ÑĢÑĥ",
      "ĠÐ¼Ñĥ Ð·Ð¸",
      "ĠÐ¼ Ð°ÑĶÐ¼Ð¾",
      "ĠÑĸÐ½ ÑĤÐµÑĢ",
      "Ð±Ð¸ ÑĢ",
      "ĠÐ° Ð¼ÐµÑĢ",
      "ÐµÑĢ ÑĤ",
      "ĠÑĤ Ñĥ",
      "Ð¶ Ñĸ",
      "Ð°Ð»ÑĮ Ð½Ñĸ",
      "Ð°Ð² ÑģÑı",
      "ĠÑĢÐµ Ð·",
      "Ð½ ÑĶ",
      "Ð½ Ð°Ð¹",
      "ĠÐ² Ñģ",
      "ĠÐ· Ñĥ",
      "ĠÐ´ Ð¾Ð·",
      "Ð¾Ð² Ð¸Ñħ",
      "Ð°Ð½ ÑĮ",
      "ÑĢÐ¸ ÐºÐ»Ð°Ð´",
      "ĠÐ¿ ÑĸÐ²",
      "ĠÐ¿ Ð¸ÑĤÐ°Ð½Ð½Ñı",
      "ĠÑĨ Ð¸Ð¼",
      "ĠÑī Ð¾Ð´",
      "ĠÑĢÐ¾Ðº Ñĥ",
      "ĠÑıÐº Ðµ",
      "Ġ ;",
      "ĠÑģÐ¿ ÑĢÐ°Ð²Ð´Ñĸ",
      "ĠÐ¾Ð´ Ð½Ð¾Ð³Ð¾",
      "Ð¾Ð´Ð¸ ÑĤÑĮ",
      "ÑģÑĸ Ð±",
      "Ðº ÑĸÐ»ÑĮÐºÐ¸",
      "ĠÐ´ Ñı",
      "Ð¸Ð² ÑģÑı",
      "ÑıÐº Ñĸ",
      "ĠÑģÐ²Ð¾ Ñİ",
      "ĠÐ· Ð°Ð¼",
      "ÑĪ Ñĥ",
      "ĠÑĩÐ°Ñģ Ñĥ",
      "ÑģÐ¸ ÑĤÑĮ",
      "ĠÐ¼ Ð°ÑĤÐ¸",
      "ÑĢ Ð°Ñħ",
      "ĠÐ± Ð°ÑĤÑĮ",
      "ÑĥÑĤ ÑĤÑı",
      "ĠÐ¼Ð¾Ð¶ Ñĥ",
      "ĠÐºÐ¾Ð¼Ð¿ Ð°Ð½Ñĸ",
      "Ñī Ðµ",
      "Ð½ ÑĥÐ²",
      "Ð¼ Ð¾Ð²ÑĸÑĢ",
      "ĠÐ¾ÑĢÐ³Ð°Ð½Ñĸ Ð·",
      "Ð¿ ÑĢÐ¾",
      "ĠÐ¼Ñĸ ÑģÑĤ",
      "Ð¶ Ð´Ð¸",
      "Ð»Ð¾ ÑģÑı",
      "ĠÐ´Ñĸ ÑĤÐµÐ¹",
      "ĠÐ´ Ð²Ð°",
      "Ð»Ñİ Ð²",
      "ĠÐ¾ ÑģÑĤÐ°Ð½",
      "Ð½Ð¸Ðº ÑĸÐ²",
      "ĠÐ´ Ð¾ÑĢ",
      "ĠÑħ Ð²Ð¸",
      "00 0",
      "ĠÐ±Ð°Ñĩ Ð¸ÑĤÐµ",
      "Ð»Ñı ÑĤÑĮ",
      "ĠÐ¼ ÑĸÐ¹",
      "ÑĨÑĸ Ñı",
      "ÐµÐ½ Ð°",
      "ĠÐ·Ð½ Ð°Ñħ",
      "Ñİ ÑĤÑĮÑģÑı",
      "ĠÑĢ Ñĥ",
      "ÑĢÐ°Ñ ī",
      "ĠÐ´ÑĸÐ¹ ÑģÐ½Ð¾",
      "ĠÐ´ÑĥÐ¼ Ð°Ñİ",
      "ĠÑĤ ÑĢÐ¾",
      "ÑĢÐµÐ± Ð°",
      "Ð» Ñĥ",
      "Ð¾Ð² Ð¶",
      "Ð°Ð»Ð¾ ÑģÑı",
      "ĠÐ½Ð°ÑĪ Ñĸ",
      "Ð°ÑĤÐ¸ ÑģÑĮ",
      "ĠÐ¿ÑĢÐ¸ ÐºÐ»Ð°Ð´",
      "Ġ2 0",
      "Ð¿ Ð¾",
      "ÑģÑĸ Ð¼",
      "Ð¾Ð³ ÑĢÐ°ÑĦ",
      "ĠÐ¿Ð¾ ÑĩÐ¸Ð½",
      "Ð°Ð½ Ñģ",
      "ĠÑĥ Ñģ",
      "Ð² Ð°ÑĢ",
      "ĠÐ¿ÑĢÐ¾ ÑĨÐµ",
      "ÑĤÐ¸ Ð½",
      "ĠÐ¼Ð¾Ð³ Ð»Ð¸",
      "ĠÐ·ÑĢÐ¾Ð· ÑĥÐ¼Ñĸ",
      "Ð´ Ð½",
      "ĠÐµÐº Ð¾Ð½Ð¾Ð¼",
      "Ñı ÑĤÐ¸",
      "ĠÐ¾ Ðº",
      "ÑģÑĮÐº Ð¾Ð³Ð¾",
      "Ð¾Ð² Ð¸Ð¹",
      "Ñħ Ð¾Ð´",
      "ÑģÑĤ Ð²Ð¾",
      "ĠÐ² ÑĸÑĢ",
      "ĠÐº ÑĸÐ½",
      "ÑĶ Ð½",
      "ĠÐ´Ð¾Ð¿Ð¾Ð¼ Ð¾Ð³",
      "ĠÐ²ÑĸÐ´Ð±ÑĥÐ² Ð°ÑĶÑĤÑĮÑģÑı",
      "Ð¼ ÑĸÐ½",
      "ĠÐ² Ð°ÑĢ",
      "ĠÐ´ Ð¾Ð´",
      "ĠÑĤ Ð¸Ñħ",
      "ĠÑģÐ¿ ÑĢ",
      "Ð½ ÑĮÐ¾Ð³Ð¾",
      "Ñĩ Ð½Ñĸ",
      "ĠÐ¼Ðµ ÑĤ",
      "Ð°Ñ Ħ",
      "ĠÑĢÐ¾Ð· ÑĥÐ¼Ñĸ",
      "ĠÑİ ÑĤÐµÑĢ",
      "ĠÐ¾Ð´ Ð½Ð°",
      "Ð¾Ð² ÑĸÐº",
      "Ð¾Ð¼ Ð°Ð´",
      "Ġ 4",
      "ĠÐ¼ Ð¾Ð¼",
      "ĠÑĢÐµÐ· ÑĥÐ»ÑĮ",
      "ĠÑħ Ð»Ð¾Ð¿",
      "ĠÑĸÐ½ÑĪ Ñĸ",
      "ĠÑĥ ÑıÐ²",
      "ĠÐ·Ð½ Ð°ÑĶÑĤÐµ",
      "ĠÐ²ÑĸÐ´Ñģ Ð¾ÑĤ",
      "ĠÑĩ Ð¾Ð³Ð¾",
      "ĠÐ·Ð½ Ð¾Ð²Ñĥ",
      "Ðº ÑĸÐ»ÑĮ",
      "ĠÐ´ Ð°Ð²",
      "Ð½Ð¸ ÐºÐ¸",
      "Ð»Ñı Ñħ",
      "ĠÐ·Ð°Ð² Ð¶Ð´Ð¸",
      "ĠÐ¼ÑĸÐ»ÑĮÐ¹ Ð¾",
      "ÑģÑı Ð³",
      "ĠÑģÐºÐ°Ð· Ð°ÑĤÐ¸",
      "ĠÐ¼Ð°Ð¹ Ð±ÑĥÑĤ",
      "Ñĥ Ñģ",
      "Ð»Ð¸ ÑģÑı",
[...]
